<eos>
▁the
▁,
▁.
s
ed
▁of
▁and
▁to
▁in
▁a
▁=
▁"
▁
▁was
ing
▁@
@
▁'
-
▁The
ly
▁on
▁with
▁for
▁that
▁as
▁by
▁)
▁(
y
▁is
<
>
unk
▁his
▁from
e
.
▁at
▁were
▁be
▁it
▁he
d
▁an
▁In
▁had
▁which
▁but
▁are
▁not
▁;
▁first
▁their
▁–
▁:
t
▁also
▁A
▁her
▁its
er
▁or
▁who
▁one
▁have
▁He
▁two
▁has
▁been
▁@,@
▁I
▁this
n
▁they
▁after
▁1
th
▁would
▁time
a
▁into
▁It
▁other
▁over
▁more
r
▁2
▁when
▁she
▁all
▁up
▁him
▁out
during
▁most
▁only
es
▁3
▁On
▁game
▁about
▁than
▁film
▁between
▁later
▁three
al
▁whil
▁through
o
▁new
▁5
in
st
▁made
ever
▁where
▁4
▁some
▁000
▁such
▁season
▁before
▁New
▁year
ies
▁years
▁This
▁/
▁them
▁under
▁used
▁large
▁being
▁then
▁second
▁against
▁part
▁number
▁album
came
▁song
▁can
▁including
▁—
▁there
▁United
▁well
▁both
▁no
▁After
on
us
▁series
▁high
▁6
▁B
est
▁10
▁did
▁al
out
▁four
▁team
▁like
▁As
▁so
▁episode
▁said
i
▁many
▁could
▁several
▁D
▁American
though
▁C
▁found
▁known
▁7
▁return
▁work
▁began
▁near
▁releas
▁8
▁de
▁early
▁U
▁until
▁She
▁called
▁use
▁day
▁place
ok
m
▁At
▁how
▁million
▁remain
▁9
▁along
▁British
▁end
▁back
▁these
▁long
$
▁receiv
▁15
▁show
▁original
▁people
▁12
▁0
▁September
ic
▁States
▁20
▁How
▁same
▁World
man
▁music
▁August
▁because
▁Al
▁may
▁May
▁War
▁around
▁km
▁final
▁m
▁John
▁any
▁following
▁off
▁S
▁order
▁16
▁October
▁state
▁M
▁each
▁life
▁five
▁main
▁century
▁area
▁They
um
▁un
▁]
[
▁start
▁small
▁June
▁war
▁11
▁city
▁US
▁down
▁lead
en
l
ity
▁July
▁%
▁single
▁November
▁Dur
le
able
▁since
▁March
▁April
▁York
▁R
▁E
S
▁will
▁result
▁17
▁great
▁allow
▁what
▁set
ce
▁left
▁18
▁government
▁North
▁bas
▁group
▁13
▁December
▁third
▁last
▁due
▁line
▁played
▁much
▁attack
▁another
▁if
▁January
▁included
▁reach
▁...
▁system
▁South
▁wrote
▁P
▁14
▁When
▁home
▁character
▁name
▁change
▁death
▁own
▁open
▁consider
▁won
▁30
▁force
▁band
▁six
▁described
an
▁previous
▁led
▁short
▁family
▁just
▁F
▁named
▁include
▁re
▁O
▁By
▁world
▁north
ers
▁now
▁support
▁games
▁appear
▁late
▁ship
▁make
▁very
those
▁record
▁February
▁still
c
▁best
▁next
▁species
▁men
▁perform
re
▁No
▁per
▁His
▁match
ion
▁major
▁T
▁National
▁German
▁St
▁built
▁held
▁video
▁French
▁release
▁2010
▁100
▁former
▁do
▁form
▁house
▁play
▁power
▁again
▁storm
▁role
▁local
▁south
ation
▁days
▁There
▁public
▁direct
▁you
▁way
▁19
▁top
▁2008
▁period
▁side
▁2009
▁few
▁help
▁old
▁water
▁even
▁members
▁title
▁often
▁continued
▁school
▁2011
▁among
▁career
▁similar
▁25
2
▁came
▁air
▁G
&
▁England
▁For
▁West
or
▁further
▁One
▁book
▁half
▁L
▁2007
▁want
▁follow
having
▁story
▁All
▁production
ton
▁different
▁City
▁English
moved
▁live
▁take
went
g
▁H
▁II
▁point
▁join
▁player
▁2012
▁position
▁become
▁total
▁history
▁version
▁turn
▁we
▁London
▁increase
▁River
▁K
▁every
▁establish
▁caus
▁written
▁full
▁though
▁King
▁man
p
▁contain
u
ism
▁given
▁strong
▁gave
▁University
▁h
▁land
▁wide
▁never
▁While
▁close
▁21
▁east
▁To
▁act
▁control
▁company
▁initial
▁published
▁J
▁produc
▁track
▁W
▁reported
ian
▁2006
▁24
▁lost
▁stated
using
▁west
▁particular
▁service
▁young
ness
▁common
stead
▁According
▁town
▁enter
▁week
▁style
▁recorded
▁featur
▁building
▁forces
▁militar
▁country
▁less
▁General
▁ships
▁performance
▁suggest
▁low
▁real
▁These
▁father
less
▁pass
▁making
▁An
▁aircraft
▁himself
▁State
▁2013
▁Australia
▁N
▁list
▁songs
▁toward
▁run
▁times
▁club
▁right
cross
▁James
▁fire
h
▁With
▁William
▁range
el
▁ft
▁development
▁22
▁claim
▁characters
▁Australian
▁Army
▁provid
is
▁head
▁months
▁Division
▁class
▁died
▁50
▁command
▁America
▁sign
▁developed
▁tour
b
▁League
▁George
▁political
taken
▁age
▁children
▁cover
▁finish
▁co
▁good
ia
▁away
▁Street
▁creat
▁present
▁eight
▁felt
z
▁noted
▁light
either
▁design
▁announced
land
▁national
▁sent
▁television
▁Man
▁win
▁mi
▁seven
▁County
▁areas
▁official
▁serv
▁Japanese
▁23
▁2005
▁Park
most
▁should
▁successful
▁get
▁eventual
k
▁ask
▁Road
▁various
▁’
▁seen
▁success
▁too
▁see
▁son
▁East
▁2014
▁players
▁thought
▁level
▁ten
▁route
▁Air
▁station
▁look
▁killed
▁come
▁addition
▁white
▁able
▁tropical
▁battle
▁need
son
▁debut
▁fight
▁little
by
ar
▁significant
▁en
▁race
▁campaign
▁28
▁complete
▁peak
▁road
▁writing
▁40
▁earlie
▁involv
▁black
▁mm
▁does
▁entire
▁!
▁We
▁points
▁face
▁miles
▁stage
▁award
▁post
▁member
▁women
▁27
▁writer
▁decided
▁V
▁average
▁features
▁body
▁general
▁sold
▁House
▁feet
▁c
▁David
▁Royal
▁believ
▁together
▁added
▁once
▁formed
▁located
▁night
▁go
▁26
▁France
ry
▁damage
ist
ous
▁replac
▁important
▁front
▁limit
▁non
▁action
▁ground
▁completed
▁playing
ally
▁law
hind
▁2004
▁saw
rather
▁population
▁popular
▁San
▁Michael
▁Earl
men
▁consist
▁others
▁You
▁coast
▁leas
▁Some
▁rest
▁Great
▁guns
▁construction
▁site
▁my
▁2015
▁field
▁works
▁29
▁worked
▁party
▁interest
▁free
▁project
ty
▁me
mph
▁subsequent
▁scene
▁Her
▁weeks
▁mid
▁heavy
▁upon
▁Henry
▁event
▁lack
nd
▁attempt
▁Battle
▁born
▁scored
▁X
ley
ough
▁fourth
▁case
▁provide
▁working
▁2000
▁Best
▁La
▁Me
▁current
▁200
▁rock
▁brought
▁continue
▁put
▁Music
▁individual
▁extend
▁rank
▁mother
▁cost
▁Robert
▁prais
▁special
▁Washington
▁modern
▁ever
ish
▁quick
▁hit
▁critics
▁office
▁region
▁School
▁example
▁runs
▁500
▁Other
▁European
▁wife
▁troops
▁view
▁Europe
ment
army
espite
▁discover
▁2003
▁novel
▁Follow
▁visit
▁generally
▁agree
▁review
▁Black
▁President
▁chart
▁events
▁month
▁opening
▁hurricane
▁Cup
ch
ta
▁launch
▁First
▁crew
▁Japan
▁Charles
▁victory
▁positive
▁designed
co
▁Paul
▁far
▁gain
▁soon
▁Two
▁island
▁hours
▁Star
▁regard
▁accept
▁arriv
▁process
▁director
▁saying
x
▁De
▁Route
▁pre
▁usual
ie
▁regular
▁fall
▁sound
▁room
▁sea
▁length
▁gun
▁met
ra
▁possible
▁southern
▁minutes
▁highway
▁Red
▁business
▁From
▁2001
▁International
▁car
▁available
▁goal
▁White
▁training
▁31
▁shot
▁hand
▁Thomas
▁Kingdom
▁figure
▁Navy
▁°
▁decision
▁ended
▁fail
▁Hall
▁love
▁studio
▁lower
▁court
▁cast
▁human
▁maintain
▁term
▁contract
▁size
▁star
3
▁northern
▁league
▁cause
▁introduc
▁2002
▁travel
▁Canada
▁center
▁base
ive
▁personal
▁difficult
▁experience
il
▁Court
▁appearance
▁Game
▁units
▁nine
▁must
▁central
▁taking
ine
ought
▁break
▁California
C
A
▁move
▁immediate
▁relationship
▁t
side
D
▁social
ter
▁focus
▁Union
▁better
▁winds
▁clear
▁church
▁commercial
ary
ro
▁going
▁according
▁spen
▁hard
▁concern
▁above
▁India
ve
▁outside
▁films
▁find
▁beginning
▁additional
▁defeat
am
▁told
▁Peter
▁anti
▁relative
▁Smith
▁voice
▁Award
▁recording
▁round
▁1990
spite
ent
▁art
▁Company
▁required
▁elements
▁response
▁Germany
▁Island
▁Christian
▁reviews
▁interview
▁parts
▁College
▁pressure
▁Act
▁evidence
▁itself
▁sometime
▁Z
▁account
▁appoint
age
▁score
▁village
▁musical
▁?
£
▁Times
▁prevent
▁High
▁states
▁surface
▁groups
▁Sea
▁section
▁Up
▁poor
▁UK
it
▁60
▁space
▁give
▁Western
▁international
▁future
▁intend
▁red
▁lines
rd
et
▁NY
▁recent
▁keep
▁Indian
▁brother
▁whom
▁host
▁f
▁Church
▁Los
▁develop
▁Force
▁Awards
▁chose
▁football
▁police
▁idea
▁That
▁person
▁estimat
▁alread
▁fact
▁approach
▁Hill
▁cross
▁speed
▁loss
▁suffer
▁My
na
▁attend
▁election
▁Most
▁meeting
▁1970
f
▁create
▁Richard
▁rais
▁1980
▁western
▁Britain
ance
▁protect
▁carri
os
▁president
▁media
▁program
▁money
▁rule
▁female
▁question
▁study
▁bring
▁plan
▁food
▁especial
▁king
ne
▁summer
▁Bay
▁magazine
▁fleet
▁issue
▁cut
▁Virginia
▁Later
▁past
▁Championship
▁material
▁sell
▁might
▁radio
▁bridge
▁shows
▁community
▁practice
▁structure
▁Re
▁audience
▁1999
▁eastern
▁select
▁grow
▁defeated
▁rate
▁propos
▁actual
▁becom
▁percent
▁deal
▁specific
▁teams
▁research
▁conduct
▁latter
head
▁Jackson
▁students
▁leav
▁winning
▁deep
▁If
▁report
▁earn
day
▁river
▁effects
▁park
▁referr
▁episodes
▁unit
▁Rock
▁issu
▁35
▁Grand
ol
▁amount
▁staff
▁exist
▁type
ri
▁brief
▁stay
▁scenes
▁destroyed
▁Final
▁market
▁God
▁Club
▁date
▁Spanish
▁tri
▁rights
▁Love
▁Brown
▁damag
▁Association
▁seem
▁influence
▁Party
▁overall
▁So
▁elect
▁our
▁1960
▁Soviet
▁division
▁Roman
▁certain
▁private
ey
▁professional
▁Edward
▁running
▁Chicago
▁daughter
▁Bill
▁supported
▁Many
▁married
▁affect
▁movement
▁1998
▁Chinese
ville
▁Dr
▁Lake
▁Council
▁self
▁natural
▁forward
▁traditional
▁operat
▁Le
▁display
▁Russian
▁tell
▁course
▁Mary
▁critical
▁Second
▁know
▁El
▁longer
▁serve
▁trial
▁language
▁higher
▁planned
▁compared
▁captured
▁increasing
▁active
▁80
▁reduc
▁fans
▁effective
▁annual
▁Johnson
▁Day
▁living
▁approximately
▁Pacific
▁related
▁done
▁child
▁fifth
▁effect
▁singer
▁themselves
▁producer
▁History
ford
▁commission
▁tracks
▁fast
com
▁p
▁Billboard
▁centre
▁gold
▁thus
▁Canadian
▁woman
▁offer
▁stars
▁operations
▁pair
▁vote
▁pay
▁coach
▁produce
▁Mark
▁whether
ham
▁45
▁dark
▁probab
▁soldiers
▁300
▁Since
▁copies
é
ate
▁buildings
▁typical
▁Squadron
time
▁leader
▁feature
▁1997
▁Atlantic
▁lyrics
▁think
▁complex
▁learn
▁countries
▁China
▁friend
▁Both
▁separate
▁cm
▁Florida
▁Highway
▁demand
▁pilot
▁manager
▁mixed
▁test
▁request
▁fell
▁officers
▁broadcast
▁Martin
▁via
ling
▁inspir
▁target
to
▁arm
▁stop
▁Italian
▁removed
te
▁Texas
▁expand
▁leave
▁Green
▁Lord
▁ran
▁Film
▁portion
▁health
▁historian
▁plans
▁always
B
▁services
▁network
▁status
▁location
nother
▁Queen
▁subject
ant
▁Center
▁got
▁problems
▁refus
▁watch
ur
▁offered
▁compos
the
ches
▁model
▁terms
▁something
▁Jack
▁tons
▁carry
▁goals
▁avoid
▁Africa
▁majority
▁press
▁associat
▁metal
da
▁Don
▁minute
▁drive
▁appears
▁Its
▁prior
▁trade
▁Earth
▁nature
▁revealed
▁70
▁frequent
▁But
▁attacks
▁flight
▁Sir
▁wind
▁add
▁potential
▁Empire
▁respectively
▁culture
▁numero
ll
▁Central
▁access
▁1995
▁takes
▁III
▁Angeles
▁script
▁territor
▁yet
▁whole
ul
▁color
▁port
▁occurred
▁minor
▁Super
▁shown
▁Test
▁upper
▁attempted
▁Tour
▁moving
▁And
▁Year
▁conditions
▁hour
▁Group
▁Sun
▁treat
▁information
▁transport
▁occur
▁2016
▁TV
▁issues
▁1996
▁slight
▁1950
▁depression
▁Greek
▁yards
▁ball
▁legal
▁castle
▁numbers
▁believe
▁severe
▁slow
w
▁grant
▁direction
be
▁injur
▁Minister
▁makes
ka
▁defend
one
▁independent
id
▁border
▁board
▁00
▁industry
▁Big
▁1994
▁session
▁guitar
▁90
wood
▁situation
▁Corps
▁word
▁Tom
▁assigned
▁heavi
▁attention
▁pop
▁commented
▁expected
▁Old
▁b
▁Team
▁sales
▁feel
▁DVD
▁Sever
▁hop
▁moment
▁education
▁capital
▁friends
ler
▁closed
▁advance
go
▁dance
▁primar
▁Stone
▁sister
▁operation
▁economic
▁male
▁Michigan
ab
▁key
▁75
▁officer
▁letter
▁below
▁retain
▁1940
▁fish
▁Wales
▁ability
▁commander
▁Be
▁distance
▁performances
▁artist
▁declared
▁plant
▁double
▁share
ig
▁giving
▁concept
▁dead
▁promot
▁African
▁n
▁marriage
▁Hot
▁middle
▁Congress
▁religious
▁standard
▁resident
▁mass
▁Over
▁records
▁draft
▁matches
▁Major
▁rapid
▁normal
▁ultimate
▁impact
▁Scott
▁nation
▁decade
▁competition
▁books
▁serious
▁kind
▁Bridge
▁Frank
▁Co
▁couple
▁vocals
▁heart
▁stone
▁describe
▁district
▁mention
▁captain
line
▁1992
▁argu
▁Fort
▁author
▁horse
▁financial
▁energy
ma
at
▁Time
▁adopt
▁ending
▁extra
▁constructed
ov
la
ten
▁Fox
ti
▁theme
▁contact
▁conflict
▁32
▁temperature
▁chief
ha
▁presented
▁Mexico
▁plot
▁Like
▁positions
ph
ium
▁1930
ga
▁levels
▁defense
▁means
▁notes
ak
▁transferr
▁inside
▁physical
▁edition
▁combat
▁Madonna
▁collect
▁twenty
▁movie
▁1993
ner
▁stating
▁screen
▁1991
mi
▁oil
▁Jones
▁Lee
▁Scotland
▁names
im
▁Department
kept
▁Chris
▁Their
▁schools
▁Hurricane
ci
▁morning
▁effort
▁executive
▁+
▁source
▁efforts
▁managed
▁Three
▁college
▁foot
1
▁wear
▁responsibl
ier
▁Zealand
▁dropp
▁Infantry
▁Prince
▁Creek
▁forest
▁v
▁cases
ot
▁400
ge
▁Catholic
▁Simpson
▁era
▁mount
▁cyclone
▁build
▁begins
▁fund
▁variety
▁Go
▁Service
▁divid
▁Life
field
▁forms
▁depict
▁bad
▁Post
▁arrest
▁words
▁yard
quality
▁Records
▁engine
▁marked
▁Committee
▁concert
▁oppos
▁wall
▁square
▁cit
▁science
▁us
▁speak
▁advanc
▁tower
▁call
▁hold
▁prov
▁Battalion
▁primari
▁Cross
▁i
▁formation
▁Live
▁meant
▁hundred
▁Latin
▁box
gen
ad
▁sex
▁portray
▁multiple
▁presence
ke
▁Society
▁engage
▁Williams
▁1942
▁Under
▁sides
▁content
▁viewers
▁federal
▁metres
▁Southern
ang
▁speech
▁scale
▁Stephen
▁enjoy
▁represent
▁Ben
▁search
▁winter
▁storie
▁extreme
▁Oxford
▁Captain
▁participat
▁enemy
▁blood
▁wing
▁becomes
▁Louis
V
▁traffic
▁owned
▁things
▁Republican
▁meaning
▁Joseph
▁mission
▁Chief
▁concluded
▁Boston
ful
▁scoring
▁property
▁attempts
▁Harrison
▁Manchester
ities
▁risk
▁setting
▁piece
▁33
ac
▁prominent
ecause
ca
▁receive
▁Before
▁weaken
▁animals
▁News
▁extensive
▁Brigade
▁camp
▁observed
▁hospital
▁influenc
▁collection
▁Vietnam
▁Long
ko
▁Saint
do
▁Har
▁Line
▁write
board
▁Regiment
▁1944
▁g
▁tournament
▁More
▁sense
▁Little
▁seat
▁strength
▁rough
▁kill
▁Games
▁inch
▁escape
▁reception
▁royal
▁onto
ard
▁paid
▁parents
▁invasion
▁value
▁companies
▁actor
berg
▁Mr
▁historical
▁Home
▁convert
▁fill
▁link
▁Series
den
▁document
▁quarter
▁powerful
truck
▁innings
▁rating
cy
▁reflect
▁broke
▁candidate
▁plays
vi
▁BBC
▁reject
▁train
▁actions
▁aid
▁job
▁maximum
▁criticiz
ite
ese
▁reference
▁Academy
▁1920
▁1945
▁policy
▁Middle
▁identifi
▁Con
▁societ
▁ice
▁Paris
▁Young
town
▁Entertainment
▁Museum
▁improv
▁designated
▁1941
▁officials
▁activity
▁combined
▁Jim
▁pro
▁read
▁formal
▁opportunit
▁Bar
▁Italy
▁calling
▁bill
▁thousand
▁seconds
ba
▁capture
▁label
▁blue
▁Americans
▁sources
▁sub
▁battleship
ir
▁background
ial
▁your
▁say
▁meet
▁Avenue
▁Joe
▁Port
▁theory
▁nominated
▁naval
▁block
▁artists
▁weather
▁systems
▁succeed
▁contrast
▁confirmed
▁foreign
▁achiev
▁Alli
▁lot
▁Ireland
▁husband
▁results
▁discuss
▁don
▁charge
▁passing
▁Van
▁flow
▁albums
▁explained
▁push
▁surrounding
▁Show
▁coming
j
▁1989
io
older
▁sixth
▁incident
▁native
▁Republic
▁36
▁Victoria
▁rise
▁county
ell
▁weight
▁raid
▁1943
▁versions
▁37
▁150
▁says
▁expressed
▁Art
▁sexual
▁seek
▁ceremon
▁news
▁website
▁ring
▁Sam
▁Se
▁soundtrack
▁Tropical
▁cities
▁true
▁Valley
H
bo
ja
▁seasons
▁price
ship
▁attract
▁contribut
▁appearances
▁talk
▁secret
▁shar
ki
▁agreement
▁Pro
▁fine
ney
me
▁Dutch
▁Men
aught
▁visual
▁image
▁armor
▁kg
▁reign
▁Parliament
4
▁artillery
tic
▁represented
▁49
▁weapons
▁edge
▁Football
▁Through
ek
lin
▁begin
▁38
▁Carolina
▁floor
▁supplie
N
▁failure
▁alone
▁student
▁negative
▁Or
▁coin
▁Governor
sen
▁spread
▁apparent
▁senior
▁studies
▁stand
▁What
▁reason
▁Fleet
▁reviewer
▁kilometre
▁appeal
▁equipment
▁injury
well
▁birth
▁Top
▁Korean
▁fired
mer
▁organization
▁count
▁bar
▁green
▁matter
ina
▁doing
▁34
▁big
▁growth
▁composition
▁lane
no
▁Though
▁Homer
▁Bond
li
▁care
▁contemporary
▁Un
▁la
▁Duke
▁Tech
▁medical
▁except
ory
▁laid
▁here
▁Northern
▁fuel
▁thick
▁leaders
▁pieces
▁Ko
▁Castle
▁capacit
▁Prime
▁Government
▁multi
▁purchas
▁interchange
▁District
▁offensive
▁detail
▁activities
▁killing
grew
▁prisoner
ster
▁Storm
▁Not
▁spring
ized
▁singles
▁organiz
▁trees
▁hands
▁Admiral
▁Scottish
der
▁gas
▁machine
▁1987
▁settlement
▁aspect
▁pick
lo
▁worldwide
▁destroy
▁trying
▁1988
▁stations
▁Short
▁guest
▁birds
▁Fantasy
▁proposal
▁assist
▁Background
▁claims
up
▁famous
▁rainfall
▁therefore
▁tail
▁championship
▁treatment
▁universit
▁Wood
▁600
▁spend
▁twice
▁Studios
▁Polish
▁supply
▁reports
▁sail
M
▁leaves
▁governor
▁Gold
▁acre
▁Senate
▁problem
more
ya
▁consecutive
▁billion
▁Christmas
▁Eastern
▁drama
▁follows
▁Festival
▁walls
▁opinion
▁Mike
▁connect
losing
▁expedition
▁adapt
▁Ocean
▁estate
wise
house
▁degree
▁herself
▁sequence
▁Wilson
▁condition
▁Pennsylvania
▁wounded
▁Mac
▁expansion
▁passe
▁Operation
▁boat
▁Taylor
▁Blue
▁simply
▁w
▁Light
▁Due
▁brown
ut
▁railway
▁assault
▁serving
▁lives
▁storyline
▁Mount
▁1986
▁arms
▁crime
▁nothing
▁Alexander
▁standing
▁authority
▁ex
ger
▁workers
▁firm
▁canno
▁camera
▁Will
▁newly
ni
▁Each
▁deck
▁flag
con
▁unknown
▁eye
▁silver
▁flood
▁Of
▁progress
▁55
▁simple
▁newspaper
▁producers
▁Li
water
▁crossing
▁opposition
▁northeast
▁Chart
▁rat
▁fiction
▁Civil
▁environment
▁heard
▁council
▁fellow
▁Night
▁Islands
▁basis
▁actors
▁save
▁starr
▁considerabl
▁Reception
▁horses
hile
▁ends
▁Do
▁budget
▁48
▁recogniz
▁civil
▁leg
▁squadron
▁Ten
▁advantage
▁abandoned
▁Irish
▁Further
á
▁Institute
▁shift
▁sustain
▁Doctor
▁exchange
v
▁flying
▁pull
▁message
▁am
▁Harry
▁creating
▁experienc
▁administration
▁Spain
▁declin
way
▁Jersey
▁walk
▁broad
▁carrier
▁Song
un
▁encounter
▁criticism
yond
▁fan
▁respect
▁65
▁tree
▁r
▁northwest
▁trip
▁mean
▁rival
▁Coast
▁convince
▁homes
▁unique
▁disease
▁tax
▁Bob
▁creation
ence
▁1939
▁possibl
▁protest
▁64
op
▁throw
▁element
▁bodies
▁narrow
▁Four
▁paper
▁threat
▁retreat
▁roles
▁Elizabeth
han
▁Production
▁vocal
▁province
▁counter
▁digital
▁Ka
▁purpose
▁retired
▁miss
▁ideas
▁Arthur
▁beat
▁schedul
▁phase
▁warning
▁Per
▁Pre
▁fear
▁cultural
▁Mar
▁Ne
▁Commission
▁data
▁torpedo
▁semi
▁arrange
▁1985
▁inform
▁selection
▁1968
▁task
▁BC
▁roads
▁Board
▁mind
▁repeated
▁necessary
▁47
▁personnel
▁Meanw
ah
▁dedicat
hu
▁twelve
vo
▁Bell
G
au
▁bit
▁gross
▁girl
▁leadership
▁crash
▁Also
▁surrender
▁accompani
mo
▁Ohio
▁categor
von
▁management
▁turns
▁Point
▁Dan
▁infantry
▁plants
▁Ra
▁Bo
▁Walter
▁rear
▁choice
▁holding
▁Order
▁landing
▁parallel
▁sports
▁42
▁conference
▁murder
▁wait
▁Secretary
▁broken
▁height
que
▁composer
▁wave
▁39
▁peace
▁ancient
▁threaten
▁Town
haps
▁1984
▁committee
▁nuclea
▁animal
▁favor
▁permanent
ical
▁split
▁Field
▁Philadelphia
▁Su
▁vehicles
▁motion
▁function
▁franchise
▁acquired
▁arrival
▁occasional
▁article
▁perfect
▁alternative
▁places
ated
▁Georgia
▁address
po
▁driver
▁contest
▁comed
▁honor
▁Player
▁MD
▁Never
▁Cambridge
▁gives
▁seventh
▁Ed
▁zone
▁text
▁investigation
▁types
▁Car
5
▁draw
▁rain
▁authorities
▁headquarters
ji
▁Grant
▁solo
K
va
quite
▁spot
▁defensive
▁centuries
▁determined
▁genu
▁islands
▁1967
▁Russia
▁People
▁emerg
▁recommend
▁Development
ny
▁41
▁controlled
▁affair
▁Square
▁families
▁sets
▁Among
▁Ottoman
▁finds
▁household
▁security
▁Liverpool
▁let
▁System
▁aim
▁800
▁supporter
▁Nintendo
▁Lewis
▁suit
▁singing
▁turret
▁shooting
▁mile
▁Columbia
▁occupi
ised
▁battalion
▁temple
▁econom
▁reveal
▁52
gun
▁Lieutenant
▁Additional
▁protection
▁dollar
em
▁defence
▁prison
ub
▁Office
▁branch
▁breed
▁piano
▁Andrew
thing
▁Asia
▁Turk
▁46
▁44
mon
▁critic
▁bomb
▁themes
▁gradual
ability
▁flooding
▁SR
▁tradition
ker
▁1983
▁try
▁adult
all
▁intensit
▁Gulf
▁titles
▁awards
▁mouth
▁brigade
▁steam
▁Sa
▁planet
▁Jewish
▁paint
▁Q
ists
▁crowd
▁powers
za
▁Francisco
ron
▁iron
▁Anderson
▁refer
▁Miller
▁indicate
▁1964
▁thing
▁rare
▁1969
▁partial
▁locations
▁Can
▁Carey
▁street
▁hair
▁computer
▁Davis
▁renam
▁120
▁path
▁Christ
why
▁fair
▁Law
▁Emperor
▁Rose
▁1914
▁notable
▁Good
▁con
▁fresh
▁th
▁Conference
▁PlayStation
▁1918
▁HMS
ver
▁Brian
▁Steve
▁1982
▁rail
▁1971
▁guard
ack
▁1966
▁depend
▁Y
▁Daniel
▁1972
▁Jean
▁1979
▁kick
▁CD
▁core
▁weak
▁promotion
▁facilities
▁Indiana
▁hir
▁install
▁drawn
▁Olympic
chi
▁mountain
mp
pa
▁cold
▁principal
▁defin
ious
▁constant
nything
▁trains
▁boats
▁fort
▁Out
▁escort
▁fit
ven
▁department
▁dai
▁lay
▁farm
▁1965
▁regions
▁Railway
▁submarine
▁calls
▁hope
▁NHL
#
stone
▁structures
▁comic
▁eyes
▁unusual
▁shap
▁fruit
kin
▁analysis
▁Original
▁surprise
▁1975
ow
▁combination
▁yellow
▁steel
▁Wall
▁Bowl
▁Jr
▁Po
▁Di
om
▁shape
▁Germans
ions
▁reduce
▁51
▁symbol
ana
▁volume
▁43
▁Hollywood
▁chance
▁religion
▁1974
▁charts
▁accident
▁entrance
▁inter
▁assistant
▁Station
▁secondar
▁1973
▁tend
▁product
▁Special
▁heat
▁Democratic
▁heads
▁cricket
▁Singapore
▁sites
▁print
▁joint
▁Cape
▁casualties
▁flat
▁Between
ization
▁waters
▁Supreme
▁climb
▁cell
ze
▁publication
▁Disney
jo
▁Press
▁Way
▁End
▁1976
▁compet
bound
▁ha
▁dress
▁reaction
▁Lady
▁happen
▁journalist
▁intersection
sh
▁domestic
▁approved
▁decide
▁platform
▁programme
▁Colonel
▁row
▁basic
▁depart
▁losses
▁Matt
knew
▁charg
▁Land
▁prepared
ius
▁stock
▁improve
▁letters
▁Daily
▁Bart
▁literature
▁Bank
▁strike
▁table
▁Women
▁exact
▁garden
▁debate
▁lap
▁Muslim
▁electric
drew
ino
▁easi
▁settl
▁nor
▁goes
▁Beyoncé
E
▁unlike
▁unsuccessful
▁roll
wa
▁bands
▁Ver
▁urban
▁secur
▁technology
▁250
▁resistance
▁industrial
▁gett
▁note
▁Summer
▁reputation
▁editor
▁introduction
▁grade
▁replace
▁painting
▁cap
▁responsibilit
▁habitat
▁cars
▁projects
▁gamepla
▁brothers
bury
▁Main
▁sequel
R
▁fashion
▁assum
▁reasons
▁rules
▁employed
▁Kentucky
▁pitch
▁towns
▁scientific
▁wor
oc
▁bank
▁1946
▁bass
▁1981
▁straight
▁Clark
▁proceed
▁95
▁showing
▁agent
ong
▁popularity
−
▁Airport
▁freeway
▁method
▁travell
don
▁Lincoln
▁lb
▁ray
cher
▁Norway
▁SS
▁85
▁Who
▁Part
▁extension
▁channel
▁boy
▁coal
▁connected
mar
P
ure
▁museum
▁1917
▁Golden
▁survey
qui
▁Olympics
▁poem
▁stages
▁dry
▁passage
▁wood
▁views
▁Radio
▁southeast
▁IV
▁distinguish
▁Massachusetts
▁headed
▁arrive
▁reform
▁journey
▁Public
▁strateg
▁depth
▁appli
▁transfer
▁missing
▁Chi
▁turning
▁layer
▁Boy
▁stadium
▁eat
pi
▁Book
▁safet
▁slave
▁distribution
▁responded
▁planning
▁possibilit
▁knowledge
tor
▁Ray
▁reading
▁1948
▁Am
▁existence
▁cells
▁register
▁southwest
▁distinct
▁rich
▁buri
▁About
▁evening
▁Video
▁Dark
▁models
▁Moon
▁invit
▁object
iv
▁theatre
▁Moore
▁Byzantine
▁Mu
▁1978
▁Songs
pe
▁dismiss
▁hero
▁baseball
▁Na
▁entitl
▁Imperial
▁humans
▁credited
▁festival
▁moderate
▁Justice
▁committ
▁lands
▁54
▁recruit
▁surround
▁Sunday
▁promote
▁rush
▁Ho
▁Director
▁designs
▁1915
F
▁wild
ise
▁di
▁Recording
▁producing
▁Poland
▁animat
▁1977
▁Sydney
▁landfall
▁Naval
▁Maryland
▁Arab
▁description
▁technical
▁Even
▁afterward
▁brand
▁super
▁laws
▁scheme
hi
▁MTV
▁genre
▁separat
▁none
▁decline
▁programs
▁shoot
▁purchase
▁reserve
▁Lo
▁statement
▁restor
▁violence
▁1963
▁Ke
▁stopp
▁hall
▁roof
▁Egypt
▁Play
▁hits
▁Alan
di
▁700
▁Jay
▁battery
▁Arts
▁signal
▁Sch
▁ago
▁56
▁En
▁items
▁Theatre
▁bigge
▁indicated
ett
uk
▁1916
▁politics
▁skin
▁delivered
▁Simon
▁Far
▁bowl
▁independence
▁details
▁sections
our
▁Gordon
▁Mulder
▁secure
▁partie
▁Hu
▁bird
▁boundar
▁send
▁ways
▁handle
▁continu
▁transition
▁bottom
▁engines
ps
▁classic
▁Ross
▁aware
over
▁dis
▁Stadium
▁1919
▁campus
▁1962
▁tall
▁wealth
▁ill
▁Fire
▁employee
▁Just
▁favour
▁equipp
▁finding
▁master
▁opera
▁civilian
▁Thu
▁online
▁scientist
▁Adams
▁observation
O
▁prompt
▁Sound
▁Space
▁Prior
▁winner
▁exit
▁repair
▁disc
▁regiment
▁dominat
▁1938
▁Albert
▁Critical
▁premier
▁53
▁bought
▁studi
▁Ni
▁survived
▁protein
▁knots
▁Age
T
▁flank
▁writes
▁equal
▁routes
▁essential
▁replacement
▁download
▁deni
▁relief
▁substantial
▁males
▁drop
▁trad
▁Rome
▁duty
▁crown
▁kingdom
▁recalled
ev
ap
▁deploy
▁Tony
▁Kent
▁Brad
▁equivalent
▁relations
ran
▁capabl
▁controversy
▁ridge
▁generat
▁component
▁fun
▁breeding
▁spirit
▁Memorial
▁Beach
coming
▁Sky
▁references
▁1956
▁academic
▁emergenc
▁importan
▁actress
▁meters
▁Singles
fa
▁internal
▁entry
og
▁Head
▁attribut
▁tanks
▁sufficient
▁global
▁owner
▁worth
▁Ca
▁Band
ö
▁establishment
▁catch
▁admitted
▁Hungarian
▁nomination
▁departure
▁remainder
▁manner
ski
ber
▁products
▁1936
ick
▁Hamilton
ax
we
▁Pop
▁Douglas
▁airport
▁raise
▁Plot
▁desire
▁IGN
▁76
▁classification
▁convoy
J
▁starts
▁designer
▁dispute
spread
UTC
▁union
tion
▁income
▁Kennedy
▁preparation
▁emotional
▁Bush
port
▁van
craft
ck
▁objects
▁cent
▁funds
per
▁Philip
▁1961
▁factor
▁shell
▁youth
▁females
▁Howard
▁tunnel
▁fly
▁deriv
▁Power
▁instance
▁Ma
▁grounds
▁partner
▁dates
car
▁NBA
▁praise
▁trail
mb
▁Water
▁mode
▁1953
▁accus
▁wish
▁Death
▁Revolution
▁Norman
▁Today
▁driv
▁attain
▁duties
▁Free
▁Magazine
▁store
bu
▁someone
▁remember
▁buy
▁Military
▁rural
▁decrease
tro
▁eighth
▁Initial
▁Your
▁challenge
▁hotel
▁Back
▁images
▁Project
▁Five
▁identity
▁Scully
▁tank
▁lift
▁engineer
▁rose
▁Norwegian
▁Design
▁argue
▁regional
▁FA
▁Te
▁intention
▁armour
▁Hitler
▁freedom
▁recognition
▁Adam
▁1947
▁dated
ea
▁conclusion
▁climate
▁1958
▁lose
▁Wars
▁Media
▁Research
▁struggle
▁slowly
▁66
if
▁k
▁Inter
▁WWE
▁convention
▁1910
ru
▁describing
▁founder
▁Mexican
▁1957
eg
▁drug
▁belt
▁Science
▁soul
▁vessels
▁ticket
▁enemies
▁Ryan
▁1937
▁Han
▁stoo
▁Gar
▁classe
▁visitor
▁Assembly
▁Tri
▁Rolling
▁determine
L
I
▁obtained
▁alter
▁certifi
▁Hav
▁Cleveland
▁Max
▁march
▁Mountain
▁hip
▁patrol
▁chemical
▁Dean
▁picture
▁Illinois
▁Girl
ston
▁restaurant
ola
▁allie
▁attached
▁connection
▁Bre
▁Iron
▁memorial
▁outer
▁cool
▁Weekly
▁Santa
▁Arsenal
▁130
▁cycle
▁deem
▁prey
▁generation
▁atmosphere
▁Andy
▁citizens
▁1959
▁correct
▁foundation
▁behavior
▁Oregon
▁Stanley
”
▁Forest
▁acclaim
▁circulation
▁favorite
ade
▁Bruce
▁pattern
▁Third
▁Kong
▁Six
▁valley
ung
▁populations
▁dog
▁insist
▁Roger
▁Allen
▁segment
▁literar
▁measure
▁Review
▁Kevin
rew
▁champion
▁Beatles
▁Family
▁inspiration
▁rescue
▁terminus
yn
▁opposite
▁charges
▁Mediterranea
▁1954
▁1955
▁supposed
▁intelligence
▁Bra
▁shipp
bi
▁Jeff
▁Bristol
▁wickets
“
▁Release
SBN
▁Morgan
▁criminal
▁glass
▁corner
▁superior
▁Channel
▁theater
▁58
round
▁shots
▁Premier
▁solid
▁completion
▁doctor
▁min
▁Morris
▁passengers
▁alien
▁predict
back
▁sole
▁thirty
▁medal
▁Bishop
▁downtown
▁possession
▁Dream
▁merchant
▁minister
pp
▁answer
▁Carl
▁ranking
×
▁destruction
▁interior
▁warm
▁Fame
▁assistance
▁moves
▁Command
▁distribut
▁cloud
▁missions
ther
▁Lisa
▁highlight
▁du
▁Korea
▁brain
▁sort
▁tied
gi
▁surviv
▁Within
▁Robinson
▁creator
▁feeling
▁venue
▁57
▁Anne
▁Ham
▁finishing
▁ready
ip
▁Cha
▁Temple
▁suspect
▁challeng
▁alleged
▁spoke
▁incorporated
▁properties
▁Master
▁inner
▁recovered
▁Bas
▁1952
▁impress
▁sons
▁massive
▁Gu
▁chorus
▁Ken
▁premiere
▁ride
▁Francis
▁expos
▁garrison
▁circle
▁origin
▁ensure
▁Marine
▁hill
▁cavalry
▁narrative
▁page
▁differ
▁Unlike
▁crop
▁methods
▁Horse
▁sounds
▁Construction
▁1933
▁gather
▁Television
▁110
▁Similar
▁romantic
▁Jan
▁Nick
▁Sp
▁survive
▁sun
▁materials
▁seed
▁Nelson
▁benefit
▁Tim
ini
▁stream
▁acid
▁pack
▁fields
▁Bi
▁Ford
▁classified
▁differences
▁divisions
▁Anna
▁Sweden
▁hot
▁1935
▁switch
▁cruiser
▁Patrick
AAF
old
▁Winter
▁Eric
▁eleven
▁intensifi
▁eliminat
▁Finn
▁association
▁Tower
▁Fair
▁clubs
▁Toronto
ata
▁ratings
▁struggl
ren
▁snow
off
▁patient
▁1951
▁1949
▁Welsh
shire
▁exercise
he
▁animation
▁sand
▁outbreak
▁Du
▁Nations
▁vehicle
▁protagonist
▁reality
▁tone
▁votes
▁sport
▁memory
▁62
▁stands
▁movements
sk
▁Here
▁Bad
▁Jane
▁Jordan
▁door
▁Sand
▁Netherlands
▁strip
▁Lind
▁stretch
▁vision
▁touchdown
▁basketball
▁communities
▁fictional
je
▁shop
▁61
▁Sports
▁classical
▁controversial
▁lake
▁Jews
▁delayed
mann
▁honour
▁discovery
▁Hospital
what
▁Ron
▁anniversary
▁sharp
▁monument
▁Mel
▁weapon
▁160
▁Again
▁teaching
▁soil
▁72
▁doubt
▁architecture
▁penalty
▁needs
▁batting
▁crosse
▁Croatian
▁1900
▁Russell
▁Centre
▁consistent
▁moral
ita
▁apart
▁absence
▁Wright
▁die
▁Si
gar
ington
▁cancer
▁tries
▁giant
▁throne
▁comparison
▁DE
ff
▁obtain
▁cloth
ative
▁credit
▁bound
▁documentary
▁musicians
▁involvement
▁criticis
▁worst
▁Wal
▁Thompson
▁load
ü
gu
▁Tu
temporary
▁girls
led
▁Class
▁Cat
low
▁Maria
▁Cooper
▁poll
▁plane
formula
ible
▁sale
▁Puerto
▁Last
▁monitor
▁adaptation
▁athlete
▁Carter
▁Cap
▁intense
▁Islam
▁weekend
▁graduat
▁NFL
ju
▁Federal
▁Col
▁govern
▁mark
▁resources
▁achieve
▁interests
▁step
▁dissipat
▁residence
ai
▁Commander
▁requirement
▁Mars
▁Kelly
▁presidential
▁bright
▁59
▁medieval
▁genetic
▁library
▁Late
▁Hart
▁escap
▁colonial
▁gate
▁Now
▁99
U
▁chamber
borne
▁retirement
▁politician
▁Along
ada
▁Modern
▁techniques
▁ninth
▁fighter
▁Ann
▁Constitution
▁o
ari
▁races
▁Parker
▁adults
▁delay
▁streets
▁restrict
▁Network
▁passenger
▁gift
ura
▁siege
ette
▁pure
cha
▁mere
▁meets
▁Ash
▁AD
▁environmental
▁spin
fi
▁suffering
▁revenue
ud
▁1913
▁Alex
▁Police
▁fitted
▁Lu
▁Batman
▁else
▁weigh
▁Berlin
▁Arm
▁96
▁dating
▁preserv
▁chain
▁visible
▁estimate
▁Mad
▁encourag
▁negotiation
▁1926
▁Jo
▁63
itt
gate
▁characteristics
▁Murray
▁stable
▁Palace
lan
▁colour
▁elections
▁leads
▁operate
▁facility
▁1927
▁convecti
▁Cal
▁judge
▁Library
▁DNA
▁UN
▁colony
shi
▁legislation
▁1921
▁remove
▁exhibit
▁compete
▁Asian
▁mental
▁eggs
▁holds
▁Knight
▁1934
▁hear
▁lies
▁modified
▁express
▁Education
▁gone
▁dialogue
▁Mo
▁Houston
▁knock
▁developer
í
▁Down
án
ng
▁engagement
▁Silver
tenance
neath
istic
▁Corporation
▁standards
▁sponsor
ez
▁authors
▁upgrad
▁Warner
▁grand
▁Ball
6
▁monarch
uc
▁1912
▁anyone
▁Phil
▁designation
▁Sal
▁gay
▁participate
▁sudden
▁Swedish
▁Samuel
▁74
▁graphics
▁Commonwealth
▁folk
▁chairman
▁huge
▁phone
▁trained
W
light
▁orbit
▁94
▁Holy
▁colleague
▁arrangement
ib
▁railroad
▁1932
▁Pope
ica
▁Indians
ani
▁universe
▁imp
▁wins
▁Medal
ood
tra
idden
▁closer
▁measures
▁Guy
▁card
▁sector
▁Gaga
▁nickname
▁Val
▁77
ec
▁preced
▁Anthon
▁USA
▁releases
▁check
▁fil
▁belong
▁intersect
▁68
▁implement
▁manage
▁78
▁earth
▁sleep
▁Jason
▁beautiful
▁NBC
▁architect
▁collapse
▁influential
▁deliver
▁favorabl
▁historic
▁shark
ile
▁emperor
▁professor
ill
▁Evans
▁costume
her
▁sees
▁Croatia
▁understand
▁isolat
▁Democrat
▁Whit
▁le
▁Pan
▁Ya
▁Gilbert
▁Detroit
▁occupation
ho
van
▁owners
▁successor
▁Writing
sky
▁wrong
▁influences
▁Frederick
war
▁qualify
▁1929
▁RAF
▁Track
▁bow
tre
▁squad
▁witness
▁pain
▁childhood
▁1911
▁guilt
▁frame
▁legs
▁Camp
▁transform
▁bus
▁Princess
vin
▁Lane
▁instruments
▁Clinton
▁Vice
▁victims
NA
▁trust
▁Spears
▁Journal
▁courts
▁interaction
▁executed
ology
▁Egyptian
▁coat
▁concentration
▁Da
▁ethnic
▁Ex
▁1931
▁1922
▁offices
▁factors
▁gap
▁firing
▁Jesus
▁900
▁mix
▁wooden
▁Dis
▁Nielsen
▁celebrat
▁hunting
▁Melbourne
▁Building
▁Race
▁diameter
▁tension
▁chair
▁Stewart
▁ocean
▁Israel
▁safe
▁format
min
ring
▁require
▁Pat
▁resigned
▁87
▁Khan
▁tribute
▁difference
▁Xbox
▁skills
▁touch
▁uniform
▁schedule
▁Run
▁chapter
▁pointed
tu
▁facing
▁offering
▁Category
▁Anglo
▁Lennon
▁watching
▁Heart
▁afternoon
▁Human
▁provision
▁sit
▁ideal
▁preferred
▁footage
▁demonstrat
▁carbon
▁radar
▁lawyer
▁languages
▁exception
▁Dave
▁opponents
▁pursu
▁drums
▁flew
▁thereafter
▁neck
▁audio
▁Pass
▁relationships
var
▁charter
▁Colorado
▁67
▁82
▁electronic
▁collaboration
▁handed
▁poet
▁deposit
▁code
▁device
▁Qu
▁Wind
▁notabl
▁extent
▁circuit
▁Foundation
▁remix
▁violent
▁existed
▁involve
▁Wing
▁junior
▁Brazil
▁craft
▁resolution
▁Sarah
▁Area
▁Baltimore
qu
▁Greece
body
▁accompany
▁ruin
▁Austria
ou
▁recognis
▁Fly
▁Albums
▁confront
▁copy
▁hearing
▁militia
▁poetry
▁toll
▁Dance
▁suspend
ach
▁desert
ular
▁shear
▁Guardian
▁Story
▁disaster
▁69
▁learning
▁enlist
▁shore
▁Mario
▁motor
residential
▁cruisers
▁wings
▁fee
▁recover
▁battles
▁Somerset
▁teeth
▁Iowa
▁vice
ep
▁Austrian
tes
▁Marshall
▁interpret
▁publisher
▁continuous
work
▁edit
▁hull
▁joke
▁taught
▁See
▁Va
▁Harris
▁talent
▁easy
▁Soon
▁Every
▁88
▁belief
ō
▁testing
▁sing
▁videos
▁140
▁happ
▁1928
X
▁Wrestling
▁shock
▁tests
▁erect
▁alliance
▁98
▁79
▁ballad
▁identify
▁73
▁creative
▁l
▁clean
▁vessel
▁prove
ric
▁creature
▁margin
▁agents
▁finale
▁sure
▁soft
▁stem
shore
▁Miami
▁experiment
▁journal
▁Canal
▁dangerous
▁1925
▁goods
▁bridges
▁alignment
▁trace
▁withdrew
▁junction
▁teammate
▁resum
▁Confederate
▁wedding
bar
▁Hindu
▁sav
illa
▁scholars
▁northward
▁choose
▁Giants
▁tourist
▁Mi
▁Peninsula
▁specimens
▁81
▁loop
▁beach
▁1890
▁simultaneous
▁tie
▁pounds
▁prime
▁permission
▁se
▁Kim
▁interpretation
▁Seattle
▁medium
▁window
▁Ministr
▁1924
▁satellite
▁Ba
▁Fall
▁Rob
▁crisis
▁Guard
▁Championships
▁engineering
▁Nazi
▁boiler
▁conservative
▁whereas
▁pit
▁organizations
▁salt
▁rarely
▁71
▁shelter
▁Garden
▁spott
▁appropriate
▁withdraw
▁veteran
▁technique
▁der
▁Treaty
▁apartment
▁platin
▁advice
zi
▁Key
tz
▁signing
▁Wolf
▁thirteen
▁Mc
ox
▁Trek
▁91
ture
lu
▁diet
▁Open
▁difficulties
▁shoulder
ex
▁mainstream
▁policies
▁Alabama
▁Caribbean
▁bypass
▁verse
▁Forces
▁submitt
▁personality
▁Hay
▁Let
qua
▁recordings
▁Ian
▁wrestl
▁Mill
▁comments
▁Real
▁Charlie
▁finals
▁predator
pped
▁illegal
▁landscape
▁Lawrence
mat
▁concerts
▁Front
▁seats
▁windows
▁elder
▁1923
▁Raw
oid
▁PA
▁suicide
▁fighters
▁representative
▁pitched
▁Minnesota
▁import
▁covers
ane
ku
▁column
▁achievement
▁forcing
▁balance
▁approval
▁Senator
ball
▁justice
▁84
▁Crown
▁attitude
▁Tar
▁tenth
▁del
▁Then
▁vertical
gency
▁smooth
▁compilation
▁debt
▁faith
▁Par
▁hockey
▁Jon
sburg
▁destroyers
dale
▁Hero
▁perspective
▁minimum
▁spiritual
▁false
ara
▁Township
▁churches
▁bases
▁neighborhood
▁suitabl
▁Dead
▁friendly
▁triple
▁examples
▁Grammy
▁boys
▁housing
▁Hungary
▁Hotel
▁drawing
▁covering
▁Apple
▁emphasis
uff
ag
▁originat
▁bombers
▁Country
▁realiz
▁adjacent
▁Adventure
▁dynasty
▁span
▁twin
sch
▁Ki
▁Health
▁Dun
▁Much
ves
▁Return
▁evolv
▁Ban
▁finance
▁Belgium
▁prepare
▁credits
▁funeral
▁Flight
▁Christopher
▁hat
▁grown
▁listing
▁partnership
▁Diego
▁palace
▁bi
▁Blood
▁curve
ize
▁willing
isation
▁Staff
▁arc
▁canal
▁descend
▁USD
▁Guide
▁changing
▁Native
▁Walker
▁blow
▁instrumental
*
▁Legac
▁wound
▁complain
▁86
▁Interstate
▁Children
▁attendance
▁beam
ella
▁Halo
▁definition
▁Cold
▁Ph
▁appointment
▁nest
▁arts
fish
▁ch
▁1905
▁evil
▁telling
▁1908
▁operational
▁Benjamin
▁disappear
▁elevation
▁rounds
▁victories
▁Saxon
▁paintings
▁bishop
▁percentage
▁Seven
▁evolution
▁lieutenant
▁Call
▁1909
▁truck
▁Angel
▁helping
▁elsewhere
▁Hockey
▁newspapers
▁alternate
▁loan
▁Fred
▁priest
▁Ha
▁stick
36
▁par
▁Roosevelt
▁Edge
▁pace
▁entertainment
▁purposes
▁Miss
▁dream
▁values
▁aggressive
▁93
▁occasions
▁Chronicle
▁Dar
▁Alfred
▁Ju
ique
▁Matthew
ft
uck
▁Gen
▁pool
▁Manhattan
▁abuse
▁danger
▁absorb
▁Franklin
▁marry
▁context
▁Born
going
▁abandon
ik
▁Brand
▁degrees
▁assembl
▁97
▁concrete
▁audition
▁teacher
▁acknowledg
▁advisor
▁Pe
ula
ified
osaurus
▁Ice
▁1907
ix
▁publicly
▁Digital
power
▁Margaret
▁understanding
▁Del
▁j
af
▁regain
▁PC
▁stress
▁westward
▁grey
ward
ble
▁survivors
▁Kansas
▁Roy
▁89
▁abilities
▁profile
▁interesting
▁Industry
▁bombing
▁accurate
▁Fu
▁agricultural
▁investment
▁map
▁Mississippi
▁impossible
▁Ch
▁Portland
▁Nash
▁option
▁Sub
▁situat
ock
▁argument
▁Bus
▁lists
▁Independent
▁Saturday
▁parent
▁truth
▁Are
▁armament
▁Hong
▁statue
▁backing
▁horror
▁dense
▁assists
bra
▁Cor
▁opponent
▁construct
▁Campbell
▁USS
gan
▁oxygen
che
▁communist
▁1880
▁restoration
sha
▁closing
▁Win
rose
▁fifteen
▁guy
sis
tur
▁distinctive
▁scholar
ona
▁92
▁symptoms
▁tornado
▁Rick
▁Hell
▁promise
▁virtual
▁behalf
▁enabl
▁waves
▁jump
▁dancer
▁sunk
▁thin
▁ammunition
▁organis
▁orchestra
▁Sullivan
▁rhythm
31
▁Liberal
▁subjects
▁sank
▁reli
▁execution
oft
kar
▁illness
▁labor
▁repairs
▁sentence
cation
▁Warren
▁celebration
▁Enterprise
▁fourteen
▁faction
▁functions
▁custom
▁artistic
ay
▁Graham
▁Lucas
▁exile
▁Yo
▁Small
▁feelings
▁philosoph
▁skull
▁underground
▁Tennessee
▁scatter
▁regulation
▁Villa
▁cargo
▁Louisiana
ros
▁flights
▁seal
▁bonus
▁Bel
tropical
▁indicat
ator
▁initiat
▁Ti
▁Pa
era
▁Blues
▁Bros
▁Missouri
▁Kirk
▁Honor
▁nav
▁earthquake
▁Historic
▁1906
▁Box
▁Montreal
▁Labour
▁Ward
▁mayor
▁360
▁Tamil
hill
WC
▁Bach
▁burn
▁measured
▁1904
▁graduate
ala
▁Depression
▁CR
▁Spring
aw
▁fantas
▁Season
ano
▁queen
▁spell
▁lock
▁1870
▁vari
val
ids
▁Philippines
etic
▁loose
▁da
▁Marie
▁guitarist
▁characteriz
▁temporari
▁plus
cu
wall
▁Mitchell
▁promis
▁sample
▁Bur
▁explosion
▁Harvey
▁represents
▁Die
▁Sar
ić
▁et
▁complet
▁mine
fer
▁Dor
▁expensive
▁sequences
▁Ro
▁Critics
▁legend
aki
▁Tag
▁cult
▁Ridge
▁fift
▁defender
▁jazz
▁angle
▁wreck
▁shells
▁brick
▁administrative
▁Take
▁permitt
▁guide
▁artwork
▁proper
▁radical
▁panel
▁dozen
mm
▁collaps
▁Dragon
▁drove
▁Week
▁familiar
▁pursue
▁assert
mus
▁dramatic
▁Pen
▁occasion
▁Report
▁Business
▁Near
▁Mint
▁ca
▁rivers
▁thinking
gue
▁Cuba
▁mountains
▁bid
▁Scout
▁concentrat
▁Sel
▁DC
▁meat
▁fled
▁bronze
ide
▁halt
▁disorder
▁regime
▁Ly
▁cancelled
▁strict
▁inhabitant
▁directors
▁rebuil
▁coverage
▁clock
▁cr
▁tribes
▁alcohol
▁sp
▁rising
ivity
▁runner
fallen
▁revolt
▁Sin
ken
▁cat
stein
▁organ
pl
▁Wild
▁bear
▁surger
▁racing
▁08
▁monster
▁communication
▁practical
▁patterns
▁mechanism
▁para
▁drum
▁Files
▁strengthen
▁behaviour
▁Cook
▁ownership
▁Arizona
▁marks
▁songwriter
▁Ar
▁cousin
▁colonie
▁Bull
▁impos
▁Bureau
▁villain
▁resemble
▁rebellion
▁ruling
▁Indies
▁Dam
▁Dylan
▁absolute
▁feed
▁Persian
▁introduce
▁contributions
▁Sony
▁wicket
▁Pi
▁Tokyo
▁Athletic
▁solution
▁playoffs
▁reward
▁render
▁remnants
▁representation
▁minimal
▁investigat
ility
▁urge
▁el
▁bat
▁typhoon
▁Ali
▁Nine
▁conversion
stream
row
▁institutions
▁crews
aj
▁perceiv
lock
ida
▁Com
▁Mur
▁flagship
ranging
▁earning
▁Karl
▁Gun
▁explains
▁bell
▁Express
▁Kar
▁charit
▁prett
▁Oklahoma
▁Murphy
▁basin
▁reinforcement
▁parish
▁god
sey
▁Ve
▁Hard
▁shall
▁Delaware
▁Such
▁chapel
▁explain
▁Eve
▁Mer
▁poems
▁legislature
ction
▁riders
▁marine
▁gust
▁Federation
▁embark
▁explore
▁Mrs
▁kW
▁dominant
▁quiet
▁Fi
▁flee
enberg
▁settler
▁Switzerland
▁cancel
ating
▁obvious
▁Prize
pen
▁shield
▁Ber
▁Tan
▁sisters
▁Rico
ich
▁excellent
▁Broadway
cat
▁reache
▁universal
▁spore
▁fur
▁frigate
▁Personal
▁electron
▁ignor
▁Shin
▁trouble
▁Plan
▁1901
▁manufacture
▁application
▁announcement
▁em
▁Juan
▁evacuat
▁exhibition
▁string
▁VII
▁quarterback
▁83
▁suggestion
▁Soul
▁ABC
▁nominations
▁organisation
of
▁subspecies
▁180
▁Glen
▁Baker
▁storage
▁Iraq
▁09
▁neutral
▁respond
▁Amy
av
▁impression
▁Baby
▁warship
▁casting
▁Grove
▁apply
▁merg
▁ban
▁1903
▁legac
▁bann
▁investigate
07
rac
▁Shakespeare
▁1902
▁arch
▁Leslie
▁striking
▁useful
▁Owen
▁fin
▁farmer
▁articles
▁Sha
▁compliment
▁Mid
▁predecessor
▁neighbor
▁vs
▁fixed
▁underst
▁stores
▁vast
▁drugs
▁adventure
▁Perry
▁theatrical
▁baby
▁stole
▁Ga
▁cable
▁Penn
▁altitude
▁yield
▁inde
▁Nixon
▁Dick
′
ith
▁biographer
▁blocks
▁mines
▁prize
▁ensu
▁Rand
▁Rain
▁Atlanta
▁profit
▁liquid
▁feud
▁Kurt
▁Actor
▁Jonatha
▁Israeli
▁liberal
▁Album
▁remarked
▁portrayal
▁Denmark
▁guid
and
▁Je
▁Base
▁circumstances
▁Know
▁reconnaissance
▁Baseball
▁incorporate
bridge
▁Rihanna
▁customer
▁battalions
▁dubb
▁Trust
▁sight
▁explor
▁realize
▁Friday
▁net
▁musician
ram
▁console
▁advis
▁conventional
▁leak
▁jet
▁Victor
▁emotion
▁Hudson
▁Johnny
▁Stan
▁readers
▁Gray
▁donat
▁Boe
▁trans
▁Abbey
▁ritual
▁displac
▁matters
▁rap
▁Mother
▁strengthened
▁friendship
tis
▁tissue
▁holiday
▁Campaign
▁planets
▁wine
ky
▁offense
▁Cole
▁researcher
▁Sk
▁hunt
▁Bal
rus
▁payment
▁Hills
lis
▁VI
▁Edwards
▁alive
▁EP
▁Mal
▁Communist
▁Arnold
▁Hor
▁Snow
▁revis
▁delegate
fo
▁bombs
▁Railroad
▁waste
oll
▁Type
▁Obama
▁Shaw
▁Jimmy
▁Ros
▁cinema
qualified
▁roots
▁Ab
▁Keith
▁Brit
▁heading
▁punk
▁Potter
▁Wayne
cc
▁steps
▁Kenne
▁Reserve
▁hook
▁Internet
▁mainland
▁Natural
▁tight
▁exposure
▁Rachel
▁x
▁duo
▁pioneer
▁proportion
ily
yan
▁Pearl
▁Inc
ode
rmies
matic
▁objective
▁cutting
▁Yankees
phy
▁external
▁Tracy
▁jobs
▁Hugh
▁Well
▁taste
har
ito
▁strain
▁Get
▁Rat
▁Allie
27
gon
▁bearing
▁Eventual
▁demolished
nt
▁expect
▁cook
▁empire
▁Peace
▁mobile
▁experimental
▁Impact
▁Birmingham
▁dancing
▁routine
▁examin
▁Drive
▁Universal
▁factory
bri
▁Belgian
▁conversation
▁constitutional
bro
osa
▁expense
▁reduction
▁Leonard
dium
▁Defence
▁uncle
▁pages
▁culminat
▁artificial
▁translat
▁attraction
▁sq
▁Den
▁banks
▁McCartney
▁expression
▁Morrison
▁Mont
▁Phoenix
ika
du
▁constitution
▁delivery
▁warn
▁prepar
▁coup
▁Lost
▁Our
▁sky
▁Ram
▁Gate
▁ports
▁manga
▁Social
▁Classic
▁mill
▁electrical
▁harm
cal
▁depiction
▁deliberate
▁crest
▁Boat
▁sitting
▁associate
▁Bobby
▁Connecticut
▁oversea
▁Secret
▁Ever
▁favourite
▁infection
ama
▁renew
▁Madagascar
▁Em
▁Var
▁meter
▁secretary
▁acoustic
▁Todd
▁employ
▁plate
hood
▁shirt
dra
▁notice
▁commenc
ged
▁105
▁mature
▁Rights
dom
▁Ontario
▁inherit
▁chas
▁cup
▁defences
▁Works
▁withdrawal
ó
▁compounds
▁aerial
down
▁Canterbury
▁knee
▁removal
▁placing
▁soldier
▁pitcher
tal
▁Jupiter
▁Still
ban
▁kid
▁Maya
▁Community
stra
▁authoriz
▁highways
lon
▁Kan
▁decorat
▁solar
lam
▁mechanical
▁Fleming
▁diamond
▁05
▁aftermath
▁campaigns
EFA
ena
▁Convention
▁magic
▁tube
▁Napoleon
▁Cro
▁Foreign
▁prohibit
rie
▁sat
▁Ultimate
▁imperial
▁invad
▁improvements
ological
18
▁prospect
▁Trans
▁Vi
▁Victorian
▁Windows
▁pleas
▁Boys
▁Vol
eb
▁compound
▁reverse
▁compil
▁gray
utstanding
▁06
rum
▁inhabit
▁Conservative
▁Kings
▁Unit
▁publications
▁publishing
▁relocat
▁Anti
▁refuse
▁cannon
▁amateur
▁decay
▁plain
▁requires
▁photo
▁07
▁Gary
▁garner
▁resist
▁Ja
tel
▁Greg
▁origins
▁Titan
▁cave
CE
▁jurisdiction
▁Vancouver
▁lover
▁Hal
▁accidental
▁fame
▁membership
▁trailer
▁Roll
▁Side
▁arrangements
▁Lion
▁Portugues
▁Swift
▁Sen
▁Wi
▁funn
▁reinforc
▁Marvel
▁bones
▁suppress
▁Champions
▁anchor
▁Administration
▁magazines
▁Hardy
▁Mountains
▁TNA
▁approaching
▁immun
▁Yu
▁react
▁racial
▁walking
▁strategic
▁tenure
▁insects
▁Village
▁Triple
▁failing
▁Champion
▁discussion
hen
▁μ
▁sang
▁Oak
▁Las
▁Alice
pur
▁rescu
▁Dog
ries
▁petition
▁Local
▁tubes
▁battlecruiser
▁Trophy
ef
▁volumes
▁forth
▁sum
▁intercept
▁putting
▁revolution
▁watershed
▁Girls
▁exploit
▁1893
▁tonne
▁competitive
▁Fish
▁Dwight
ean
player
▁1860
▁accomplish
▁grass
▁markets
▁listen
▁feeding
▁architectural
▁mushroom
▁specimen
▁Deep
▁Horn
▁Hampshire
▁Cu
▁Oliver
▁List
▁intervention
▁1896
▁trigger
lie
▁birthday
ement
▁supplement
▁density
bert
▁provincial
▁intellectual
▁Marge
▁guarantee
▁assess
▁exceed
▁disturbance
▁fault
▁Lin
▁li
▁educational
▁parliament
▁Edinburgh
▁Alaska
▁hydrogen
▁Collins
▁Trail
▁visits
▁Thos
▁Grey
▁Professor
▁NCAA
▁Sc
▁dispatch
▁explosive
▁Armenian
▁identical
▁accommodate
▁shallow
▁bone
▁Pakistan
▁anticipat
▁wire
▁Bernard
▁Carr
▁sung
▁Historical
ification
▁Howe
▁translation
▁seized
▁bare
▁attending
▁Years
ware
anime
▁voyage
▁Ana
▁Hans
▁muscle
▁creek
▁examination
▁Bat
ä
▁champions
▁Trade
▁1898
▁wheel
▁parody
▁ratio
▁assembly
tha
▁neighbour
▁Off
▁duration
▁dogs
▁JT
▁Charts
▁terrain
▁Roberts
▁Johnston
▁Province
▁Beck
19
▁automatic
▁condemn
▁medicine
▁Stock
▁Jacob
▁streak
▁productions
▁cartoon
▁curv
▁promotional
▁Wii
▁Books
▁trough
▁rifle
▁Ralph
uri
▁Sur
▁Argentina
▁Yorkshire
hitting
ives
▁dam
▁Hy
▁Virgin
▁ceased
▁web
▁jury
▁fortress
▁employment
▁advertising
▁Performance
▁Rio
▁mistake
▁conservation
▁bond
▁liner
oli
▁unclear
▁Lloyd
▁float
▁characteristic
▁persons
▁sending
▁fortification
▁magnitude
▁Craig
▁exclusive
▁350
▁Fe
▁output
▁Brothers
ress
▁Ste
▁photographs
▁Lang
▁software
▁slaver
let
▁Des
▁succession
▁wake
▁progressive
▁Jerry
▁Overall
▁Ag
▁Globe
▁drinking
▁Turner
▁distant
▁repli
▁drummer
▁tr
▁predominant
▁1899
▁blind
▁Ring
▁explanation
08
MA
igan
▁commitment
▁representatives
air
▁papers
idi
▁Subsequent
▁swimm
worth
▁mirror
▁Bennett
▁commentary
▁dealing
▁worship
▁proclaim
▁Celtic
▁imagery
▁Salt
▁reluctant
▁loved
▁Finland
q
⁄
▁lawsuit
▁Kate
▁biograph
▁electricity
mas
nes
▁monaster
▁daughters
▁dynamic
▁movies
▁structural
96
▁Helen
▁125
▁disband
▁bay
burg
▁Mayor
▁Voice
▁Bri
▁Jam
▁branches
▁Norfolk
▁pale
▁Gil
▁burial
▁expert
▁Grace
▁Mason
▁heir
▁repeat
▁cabinet
▁Burton
▁Judge
▁presentation
nautical
hold
ose
16
▁vary
▁Queensland
▁Euro
▁Heritage
▁activist
▁beats
▁flower
▁Cho
ister
▁Barry
▁license
took
▁kings
▁pen
iff
▁export
▁Blu
▁radiation
say
▁mask
▁eagle
▁turbine
▁Nicholas
▁Hawaii
▁persuad
mbar
▁atomic
▁exclusively
worthy
▁Mission
▁trend
▁Brazilian
▁recall
ire
▁dive
▁precipitation
ug
▁Rangers
▁pump
zy
▁undergo
▁orient
▁1850
▁essay
▁restore
▁Abu
▁Mag
▁Vincent
▁photograph
▁gender
▁Catherine
▁athletic
▁Davies
▁chase
▁Guinea
▁Services
▁pursuit
▁Medical
▁Harbor
▁devices
▁eastward
▁Emmy
drawn
▁Credits
▁Son
▁Syria
▁Sega
ret
15
▁grave
▁inscription
▁hole
▁phrase
bus
▁flowers
▁sheet
▁eligib
gle
▁Magic
▁platforms
▁Next
▁virus
▁contribution
▁Transportation
▁Che
▁Hughes
▁rent
▁anger
▁Training
▁beaut
▁Steven
▁burned
▁Sweet
▁instruct
▁Darwin
▁Ser
▁Shi
▁lyrical
▁ruler
▁hybrid
▁talks
▁Prix
▁admir
▁Tra
wi
▁1897
▁Micros
▁Metro
▁Beginning
▁Yellow
▁sentenc
▁survival
▁Vo
lor
▁mate
ect
▁copper
▁frequency
▁Oslo
▁destroyer
ora
▁improvement
▁discipline
▁Harvard
cast
▁Kane
21
▁Cameron
▁texts
ux
▁legislative
▁Bird
▁conquer
▁valuable
▁collective
▁Stra
OK
▁tip
▁conceived
▁Musical
▁samples
▁shut
▁Swiss
▁sugar
▁revolutionar
▁Moscow
▁sixteen
▁resolv
▁Angelo
ero
▁Farm
uch
▁initiative
▁commentator
▁mini
▁Pittsburgh
▁airfield
▁Tang
gh
ré
▁Gallery
mont
▁chord
▁Indonesia
▁voting
▁respective
44
atory
▁users
▁Luke
▁Tree
ob
▁parks
▁Protestant
▁Mil
▁Antonio
▁summit
▁Rod
▁Female
▁hide
▁steep
▁reliev
▁connections
▁photography
▁Pin
▁tactics
▁Beth
▁spoken
▁Susan
▁servant
▁Der
▁collaborat
▁Orange
▁scar
▁instrument
▁Indonesian
▁laborator
adi
▁confidence
▁Junior
wick
41
▁crystal
▁autumn
▁celebrit
▁Terry
elle
▁shaft
▁vi
▁southeaster
▁Ruth
▁Nova
▁puzzle
▁Dal
▁recommendation
mor
▁lo
▁airing
▁Bath
▁urani
▁Wallace
▁04
▁Neil
▁taxe
▁None
▁humor
▁attorney
▁Upper
▁Bu
▁root
▁scout
▁smoke
▁demo
▁Edition
▁presum
▁Liz
▁stuff
▁Rap
▁Section
▁fisher
▁Hope
▁Hi
▁signature
▁Ku
▁evacuation
▁fold
▁explicit
▁Bryan
▁burning
ight
▁roadway
▁Formation
▁Fer
▁melody
ites
cla
▁inclusion
11
▁Sho
SA
log
▁Ven
▁Common
▁Sy
▁Defense
▁Pink
aten
▁minority
▁Mass
▁Jefferson
ftermath
sson
chemistry
▁rocks
▁patron
▁Control
▁commanders
▁careful
lus
▁jaw
idae
▁Description
▁substitute
▁tru
hor
▁fate
▁Transport
▁Thing
▁tag
▁flash
▁sweet
▁occupy
▁programming
▁demonstration
▁harbour
35
▁Sheffield
85
chan
rich
▁Ur
Q
ien
▁fundamental
▁Larry
ori
▁experiments
▁Officer
▁voices
▁principles
▁educat
▁Security
48
gel
▁1895
▁riding
▁upgrade
▁package
▁recurr
▁fung
▁moon
▁volunteer
fe
▁forecast
▁volcano
▁mail
▁Clay
▁compromise
▁beating
iz
rin
▁illustrat
rom
▁steal
▁Past
▁Cyrus
▁Dallas
▁Pictures
▁gear
▁Male
▁lights
▁opt
▁Zero
▁Herald
▁Clarke
38
▁warfare
ogether
▁Bor
▁warrior
master
▁bombardment
▁approache
▁tempo
ris
▁rivalry
▁Stevens
▁participation
▁elaborate
▁convey
▁consult
▁Collection
28
▁boss
tan
▁administer
▁bio
▁cuts
13
▁Amendment
▁Room
▁modification
▁micro
maker
▁Malaysia
▁Austin
eau
▁traditions
▁Fund
▁inflict
▁carrie
form
zz
▁Kaiser
▁Rama
▁scandal
▁encourage
▁quot
▁remote
▁girlfriend
och
▁onward
▁victim
ologist
▁rebels
▁sings
▁kiss
▁Parsons
▁FBI
▁transportation
▁Child
polis
▁imprison
▁brilliant
▁Fo
tle
ort
▁Chelsea
▁calculat
▁Woman
▁widow
▁cyclones
▁Falls
▁institution
▁Pu
ón
▁Mix
▁Danish
▁carv
▁salary
ua
oo
▁Rogers
▁serial
▁Plant
▁Armstrong
▁Oh
▁deteriorat
▁tape
tter
▁expectation
▁grandfather
▁remark
OC
▁wrestler
▁recovery
▁noise
▁Wilhelm
burn
▁exclud
▁Fisher
▁Cathedral
▁Quebec
▁reforms
wan
▁habit
▁tooth
▁Studio
▁Fourth
▁significan
▁dinosaur
▁fossil
▁courses
pan
▁diverse
▁mytholog
▁bull
45
▁Cultural
▁Ivan
▁laps
▁revival
▁uncertain
▁borrow
▁vulnerable
24
▁Apollo
▁aft
▁priorit
20
▁dinner
▁advertisement
▁Half
can
▁Serbian
▁Petr
▁scores
▁Spider
onic
▁orange
▁Authority
stan
hr
▁Pam
▁pictures
▁Panzer
▁statistics
▁Stand
▁communications
▁licens
▁wage
▁Buffalo
▁Agency
▁conquest
▁03
▁formula
par
▁applications
▁variable
▁mixture
▁Tyler
▁blues
▁Orleans
▁descent
ā
▁Hunt
itis
▁Rhodes
▁Reform
ute
▁efficient
▁Baron
▁Utah
▁terminal
▁sacrifice
▁airline
▁unexpected
▁preserve
▁clothes
▁Guitar
▁lasting
▁Sue
▁opin
▁Sol
▁Wells
▁Pine
▁Stuart
▁Minor
▁outcome
▁chest
▁Meta
▁steer
▁Newton
39
▁Bang
▁conclude
▁Hol
▁Ter
▁cathedral
▁Justin
▁Constantine
▁tale
▁Picture
▁mock
▁drift
▁killer
▁1861
▁FIFA
▁Beat
▁Regional
▁cruise
▁Charlotte
▁CBS
▁widen
▁Cricket
▁bats
zo
▁descendant
▁installation
▁advocat
▁demonstrate
▁pm
▁1889
▁Richmond
▁contribute
▁saving
▁mood
▁Code
▁Spirit
und
▁Rad
▁kilometer
▁sculpture
▁Metropolitan
rat
▁wash
▁Sri
▁theories
▁squadrons
HL
▁Stars
awa
▁Want
▁trick
▁Muhammad
▁1894
▁upset
▁Bon
bit
▁Bulgarian
▁lit
▁Mega
▁sin
▁ensur
▁Spin
▁screenplay
▁principle
▁dual
▁scholarship
▁lifetime
▁celebrate
▁tours
▁processes
tric
▁Executive
kh
▁sailing
▁Scientology
▁destination
wich
▁Pete
▁Bible
▁1891
▁elite
Z
▁notic
▁disabl
▁confirm
▁diplomatic
▁heritage
▁rug
bin
▁Work
▁tea
▁Mor
▁playoff
ene
▁Brooks
▁empty
▁competitor
▁HD
▁segments
▁nice
▁decisive
ore
▁Fighter
▁Place
▁Cre
▁trapp
▁rejoin
▁physic
▁Freedom
▁YouTube
▁bowler
end
▁blam
▁reactions
▁coordinate
▁invest
▁1000
29
▁Gay
▁agriculture
▁Grade
▁millimeter
▁confusion
▁refugee
▁seventeen
▁recognize
▁Movie
▁golden
▁enhanc
▁divorce
▁devoted
▁Burn
▁1892
▁biological
▁Tor
▁Zone
char
▁disrupt
▁dwarf
▁telephone
▁ma
Y
▁accord
▁columns
▁barrier
▁parliamentar
▁Cardiff
▁Ta
bel
▁Register
▁requir
▁evident
▁Hand
▁grain
▁Typhoon
▁asset
oma
▁proof
▁Symphony
bal
▁scenario
▁measurement
▁Days
▁Start
▁bulk
▁Conservation
▁ramp
▁Kyle
▁error
▁pos
▁Les
▁lion
▁tribe
89
ain
▁arena
▁nose
▁Rub
▁rebuild
▁pin
▁precise
ulu
▁Electric
▁followers
▁Burns
▁cards
▁Nature
▁camps
▁timber
▁extinct
▁Danny
▁pregnan
▁quarters
▁infrastructure
▁Sox
▁Orchestra
▁Cavalry
▁pink
▁myth
▁Until
▁1800
▁operates
▁dimension
▁Ground
▁Ren
world
▁Cast
▁literal
▁rotation
▁observer
▁Come
▁commenting
▁writings
▁batt
▁Wisconsin
▁Hunter
lar
▁Actress
▁Kin
▁proceeding
▁Oscar
▁Watch
fire
▁Pal
nell
₹
▁ordinar
▁surge
▁challenges
▁ages
▁studying
▁assume
▁Jerusalem
▁ski
▁bears
reby
▁Shiva
fr
long
▁resort
▁Stein
▁impressive
▁Airlines
▁peninsula
▁Pra
▁Father
▁afford
▁Isle
▁Say
▁equally
▁statements
▁lesson
▁rely
▁Montgomery
▁censor
▁pet
▁clan
▁Leo
▁Sonic
▁census
▁Walt
71
▁dies
▁poison
▁absent
▁cash
▁stor
▁Marc
naming
▁crack
▁Mon
▁Nanc
68
rk
▁manufacturer
▁gang
ase
▁240
▁Char
▁variation
itch
▁Barnes
▁realistic
▁pupil
▁Pierre
mic
▁retail
▁fortune
▁ties
▁Donald
cus
▁Scots
▁Sean
▁oversee
uit
▁overlook
▁alert
▁Independence
therapy
▁Chapel
set
▁mineral
ope
▁explaining
▁Arch
lot
▁sword
▁Turkey
▁1888
▁fatal
▁blast
▁comprise
▁metric
▁Attorney
▁MacArthur
▁exhaust
▁disappoint
▁Miles
▁Sherman
▁Bow
▁gods
▁hostile
▁drain
▁autobiograph
▁Century
▁tough
▁spawn
▁speculation
▁Baltic
critic
▁wet
▁hills
▁Evil
▁Cam
▁hang
▁lie
▁Branch
eng
yne
▁Rosa
▁benefits
▁Chan
▁epic
97
sfield
▁1885
26
▁Cemetery
▁judges
ducted
▁01
▁Saturn
▁Draft
▁options
az
sbury
▁Gre
▁dependent
▁strand
▁Carol
▁Monte
▁vital
▁Czech
▁amendment
cho
▁auto
▁Resident
▁Raj
ert
ér
▁infant
▁doors
▁Nam
▁swing
▁dying
▁02
▁Ages
▁115
▁CE
ole
▁closure
▁rumor
▁Rear
▁galax
▁twist
▁hurt
▁prince
▁Min
▁Reich
▁tomb
grad
▁inning
▁Hearts
▁circular
▁concurrent
▁volunteers
▁pound
▁manuscript
▁romance
▁Reagan
gal
sley
graph
▁Tre
▁collections
▁Tribune
▁Article
▁Management
▁spark
▁editions
▁competitions
▁Thames
84
▁scrap
▁separation
▁Glee
▁Romney
▁belonging
▁suspension
▁Athens
▁distinction
iness
▁170
▁advocate
▁Barbara
▁doctrine
zer
▁electro
▁Organization
▁1865
▁intent
▁disagree
34
▁Had
▁bitter
dar
hy
▁Nu
▁fr
hall
bul
▁beliefs
▁Program
Tune
gy
wept
nix
▁Kill
▁manufacturing
▁Lock
▁Auto
atic
▁pav
▁homosexual
▁handling
▁Comedy
▁NATO
▁Action
▁sinking
▁blend
▁abroad
▁Walk
▁Representatives
▁myster
▁shortage
▁str
▁velocity
▁skill
chy
▁portrait
▁enroll
▁harsh
▁Nar
▁dust
▁universities
▁volcanic
▁continent
▁stroke
▁integrat
▁noble
▁lighter
▁remarkabl
lla
▁flu
▁Ri
▁medals
▁Leon
▁prototype
▁Robin
▁participants
▁Cyclone
aga
86
▁remov
cia
▁Tir
net
▁Got
pop
▁unveil
▁colours
▁interrupt
▁organisms
▁client
▁captur
▁possess
ira
▁Portugal
▁enable
▁Gal
▁cattle
▁usage
▁physician
▁sharks
▁comics
▁Op
▁relation
▁ear
▁Ernest
ink
▁Newcastle
▁Banks
én
▁Set
▁Shu
▁cameo
▁Shah
▁Ol
▁Constantinople
▁fl
owing
▁Shadow
▁readi
▁assessment
▁Drake
▁Fur
▁Veni
▁Reed
▁Alberta
▁mono
▁Personnel
▁Heavyweight
▁José
▁loyal
▁spaces
▁maps
▁Joint
61
▁massacre
▁450
▁Continental
▁strange
▁links
▁trait
▁enzyme
▁viewer
▁und
▁accessibl
▁Ge
▁demographic
▁screening
▁Laboratory
▁Nor
▁cheap
▁1864
ato
▁Liberty
▁variations
▁Affairs
▁millimetre
▁Normand
▁boyfriend
▁Cornwall
▁venture
▁ceiling
▁Ty
▁Ancient
▁goddess
▁Christians
▁Future
▁debri
▁Others
▁Record
▁rains
▁rider
▁admit
▁Pr
▁Tournament
▁choir
▁bore
▁batteries
▁bomber
▁speculat
aire
▁marking
aur
unt
▁ambassador
▁genuine
▁Standard
▁Marshal
iki
▁inquir
▁Commissioner
▁Gi
▁corps
▁guests
▁Ellis
▁Youth
ibility
▁indigenous
▁extract
▁easier
▁aside
▁Dale
▁Cena
▁Eight
tte
▁corporate
▁ballot
▁drink
some
▁104
▁remake
▁navigation
▁transmission
odi
▁threats
▁Legend
▁Link
▁consumption
nic
▁Low
ave
nant
49
▁Strait
▁Leicester
▁Friends
lf
▁Ye
▁definite
69
▁Marines
▁random
▁Fan
▁Career
▁sad
▁restrictions
▁Isaac
▁deputy
▁Meteorologica
▁egg
▁logo
▁Meyer
▁Mann
▁Christin
▁Bears
▁Ac
▁Boulevard
ath
▁resignation
CS
▁Malcolm
25
▁fulfill
▁scrapp
▁referee
▁mixing
▁Bud
▁Lower
▁Capital
▁transit
▁occurr
▁particles
▁Energy
where
▁vocalist
▁Hawk
▁Chamberlain
▁murdered
▁Dublin
▁Pedro
PA
ray
▁poly
lay
▁shadow
▁flesh
▁excess
▁111
▁allocat
▁pole
▁dreadnought
▁punishment
▁Yugoslavia
▁Julian
▁corresponding
play
98
▁Round
night
▁resembl
▁Mat
▁hid
▁breast
▁ERA
▁Make
▁1862
▁MP
uma
▁Archbishop
Hg
▁Electronic
23
hart
▁collision
▁Yard
▁sick
▁persist
▁Romanian
▁territorial
DOT
▁DJ
▁nephew
▁engineers
nna
▁organic
▁companion
▁Wonder
▁plates
▁angr
▁shipment
elli
▁Thor
▁Machine
▁Eddie
▁Bradley
▁Sport
▁viewing
▁Dennis
▁industrie
▁Opera
▁Guild
▁Was
▁rapper
▁threatening
fall
▁developments
▁observe
▁loud
▁dropping
▁kilogram
▁encounters
▁Where
▁vicinit
▁epi
▁Number
oul
▁Inside
▁pounder
▁Sex
▁corridor
▁valid
▁tune
pha
▁complicated
▁Serbia
▁stall
▁Historian
▁Political
rop
▁thunderstorm
▁Gor
▁Crystal
▁Rush
▁elevat
▁infect
▁Dakota
▁Morning
▁gathering
▁stern
▁convicted
▁consumer
▁measur
▁Kh
▁strikes
▁Joan
▁Eli
▁touchdowns
▁Pit
▁humanity
▁circulat
14
▁burst
▁Jake
▁championships
▁user
▁prayer
▁focuse
pin
▁Springfield
▁roster
▁tow
▁Para
▁nucle
▁comment
▁barrel
▁updat
▁Tommy
▁Angle
▁inaugura
eur
▁mammals
▁fat
▁Scar
▁Alliance
▁hail
88
▁Maine
▁fires
ii
▁fluid
▁Origin
▁pan
▁honest
▁Yan
▁Burke
▁mysterious
▁Mind
▁steadi
▁109
▁Kal
▁reconstruction
▁breach
▁congregation
▁Range
▁combine
▁Gibraltar
▁helicopter
▁ferry
▁mansion
▁metre
▁Wagner
▁domain
del
kan
▁Studies
▁Leed
▁Large
▁voters
▁Cincinnati
▁feathers
▁Montana
▁sheep
79
▁Ak
▁1840
▁tools
▁silent
▁Blake
▁Za
saw
▁emphasiz
▁Malta
▁Schuma
▁exterior
▁polar
▁Revolutionar
▁sentiment
▁specializ
brook
▁wonder
▁stepp
▁log
▁Tell
▁centered
▁desir
▁Author
▁Cher
▁Michel
▁stain
une
▁holes
mouth
hil
▁Lev
▁Fat
▁Taiwan
▁Hull
heim
▁gunner
▁Tigers
▁Parks
▁varie
▁Fear
▁Friedrich
▁knight
▁prestig
berry
▁speeds
▁Comics
▁permit
▁abolish
▁labour
▁mutual
▁Gill
▁spider
▁Ci
▁Too
67
▁Olivia
17
▁outdoor
▁stunt
▁sphere
▁fatalit
▁Serb
▁220
ria
▁invent
▁sack
▁Tin
▁Break
978
nan
▁1887
▁offshor
▁Vegas
▁Shield
▁Din
▁Antarctic
▁Arena
▁installment
▁Curtis
▁patent
▁filmmaker
▁prosper
▁Afghanistan
bol
▁101
▁Hop
▁Yugoslav
▁revers
▁echo
▁Steam
izing
▁varying
ila
▁locomotives
▁1863
▁VIII
▁AA
▁outstanding
▁generate
▁Madison
▁Josh
feld
▁trio
▁Mari
▁Circle
▁Twitter
▁genres
hem
▁Edmund
lum
▁Il
▁1886
▁Technology
▁Orton
▁Former
▁vers
▁Bear
▁propagand
▁migration
▁Gregory
▁enact
▁skeleton
tar
▁reviv
oon
▁gauge
ima
fin
▁mild
▁Poké
▁Millenni
▁teenager
▁fed
▁Gene
▁troop
à
ew
▁exploration
▁judicial
▁Brooklyn
▁Mercury
▁conspiracy
▁posts
▁atop
▁assassination
▁Princeton
▁faculty
▁Hit
▁mad
▁McKinley
▁reporter
▁Austro
▁decid
▁Iran
▁harbor
aging
chen
▁dissolv
▁grid
▁emission
▁witnesses
▁Milan
far
▁Lamb
▁Herbert
nor
▁submerg
▁Hubbard
▁anthem
▁conced
tting
▁intermediate
▁dri
▁Gra
▁Nation
▁Rich
ved
▁psychological
▁exceptional
▁publish
▁ob
▁smok
▁milk
▁Month
▁enormous
▁MLB
uro
▁zero
▁routing
▁magnetic
▁Urban
▁bombard
▁Holland
▁Buddhist
▁corporation
▁verses
▁notion
▁stability
▁nurse
ei
▁NASA
▁Solar
▁Buck
▁commend
▁Talk
46
▁coastline
▁declaration
▁1884
▁dock
gin
▁Market
▁acquisition
▁Glasgow
▁confin
▁Kir
▁Ted
rate
▁tender
rian
RC
▁disput
rick
▁Canucks
▁bench
▁flown
è
▁Sultan
▁cl
▁Count
▁fossils
65
kov
▁harvest
▁excessive
▁Gang
▁decoration
▁Devil
▁confused
▁insurance
▁detected
▁Computer
▁beside
▁allegation
▁martial
▁Pet
▁Theater
▁quit
pper
▁torpedoes
kovic
ij
▁Hood
▁winners
▁boost
tus
▁Smack
▁Jacque
▁uprising
▁rebounds
▁machines
▁violation
▁accelerat
▁mentions
OS
▁Fifth
▁sh
ska
▁ambush
▁Phillies
▁Ghost
ome
54
▁Theodore
playable
ison
▁worse
▁spur
▁rice
▁studios
▁adjust
▁Non
▁balls
▁Str
▁directing
▁gam
▁Ottawa
▁Gri
▁ash
▁diversity
▁regiments
▁Percy
naissance
avi
▁Mercede
▁Lauren
▁calm
▁cotton
▁complement
▁Westminster
▁Belle
▁sketch
▁settle
CI
▁Cool
▁remind
▁Mos
▁Total
▁collector
▁1877
▁quest
▁102
▁relate
urism
▁diminish
▁Tintin
▁Alpha
▁Train
▁prompting
rant
▁CEO
▁Denver
▁Cala
▁jersey
▁attribute
▁seeming
▁myself
▁conviction
▁Basketball
▁1876
▁Kat
▁donation
▁Mir
▁jail
▁Current
▁Vin
▁bottle
▁nationalist
▁Er
▁battlefield
▁Franco
▁comfortabl
ico
▁Nevada
▁punt
▁Manuel
▁deployment
▁outfit
▁hypothesis
▁Sword
▁Chuck
▁hatch
▁Ship
64
bank
shaw
▁Gothic
▁Albany
▁relat
▁rounded
▁intelligent
▁aggregate
▁aesthetic
oke
▁Colin
▁detect
▁Otto
▁hint
▁declare
50
art
▁Gas
▁Ronald
▁Strong
▁Gloucester
▁Mile
▁Mis
RS
▁agencies
ante
▁Brook
▁Tal
66
▁motif
▁ghost
▁Ellen
lim
▁revenge
bat
▁radius
iya
core
▁sensitive
▁receiver
▁Carlos
▁assignment
ensis
▁Emma
▁Official
▁whale
▁gene
▁conducting
▁rings
▁specialist
91
▁arguments
▁Sara
▁cemetery
▁Cox
▁Stage
▁indirect
7
▁Territory
▁Composition
▁Economic
33
▁Mack
▁Barcelona
▁linear
▁Churchill
▁enthusiastic
▁Sim
Brien
▁consequence
▁Chester
▁Mall
▁1830
▁Rath
▁subtropic
▁Anton
▁Dy
▁Devon
▁qualit
▁Canyon
▁Æthel
▁Marsh
▁1875
▁Lords
▁Cardinals
▁Foster
▁width
▁rebel
▁flame
▁municipal
▁Name
99
▁Hale
▁bra
▁Starr
▁Turn
vert
▁Geoffr
▁consequent
▁Michaels
hal
▁abundant
▁properly
king
▁Kra
book
zu
▁lava
▁masse
▁Parkway
▁cubic
▁Delta
▁Leigh
▁bowled
▁Duncan
▁Raymond
▁Bosnia
▁Planet
▁mud
▁borough
▁1883
▁Derby
▁instructions
▁continental
▁pine
ava
▁weakness
▁RBI
▁Has
▁Wings
▁Operations
▁crush
▁Weather
▁Waters
▁Store
▁southwestern
74
▁Eagle
▁harmon
▁successive
etti
▁Kara
bla
▁archaeological
▁possessed
▁Calgar
▁1881
▁tier
▁printing
▁coaches
▁hunter
▁detach
▁memoir
ł
nam
▁Mina
▁Northwest
▁Professional
▁Pitt
▁Members
cht
Down
▁sortie
▁yd
ado
▁leaf
▁Sciences
▁Blair
▁Labor
▁proxim
47
▁instant
▁hence
57
▁mast
▁invitation
▁presidenc
▁vegetation
▁Chad
▁Mak
▁Richardson
▁acquire
▁consideration
▁orchestral
▁Jamaica
▁crucial
▁consciousness
▁thanks
▁ministers
▁True
▁Lancashire
▁Powell
▁blockade
▁Henderson
▁delegation
▁button
SU
▁RNA
osis
▁1869
▁Desert
▁stake
37
▁DS
▁tendenc
▁Lie
▁laugh
rated
▁Zu
▁spite
stage
▁Que
▁induc
▁seas
▁190
▁landmark
▁Body
▁bag
▁prevail
▁worker
lium
▁compris
▁knowing
ois
▁1866
▁northeastern
▁manag
▁Ferdinand
▁resign
ali
▁230
mura
▁Veronica
▁guards
▁CO
▁Isles
▁woodland
▁detachment
▁Floyd
▁nervous
▁Hendri
uous
▁performers
▁Using
▁sailors
▁revealing
▁honors
▁boom
▁larva
87
▁modest
RA
▁consensu
▁corruption
▁Wellington
away
▁input
▁phenomenon
▁odd
▁authentic
▁Ger
▁Metal
stock
▁philosopher
▁Crawford
get
▁Palestin
▁Ir
mond
▁appreciat
ways
hand
▁listening
▁Springs
▁Aaron
gé
▁Site
▁canon
▁populat
▁Episode
▁Bass
▁Malay
▁Culture
▁consent
▁golf
77
▁surprising
▁hamlet
▁Sid
▁throat
▁Tucker
▁Poe
▁Truman
▁Viet
▁750
▁poverty
▁pot
▁Kid
▁Bro
▁dislik
▁eighteen
▁Def
▁lifestyle
▁arcade
▁Telegraph
▁kitchen
AT
▁Fischer
▁Single
▁dimensional
▁rehearsal
▁mechanics
▁Headquarters
▁XI
▁frontier
▁1873
▁innovation
▁ambition
▁Lone
▁Why
▁Solomon
▁Lead
▁interact
▁realm
▁Kor
▁Bru
▁1882
▁procedure
▁insert
▁Panama
▁Jet
▁internationally
▁1871
▁Bla
▁molecular
▁ensemble
▁Films
▁silk
▁stripp
▁pleasure
▁gr
▁Chile
▁surpassed
▁dome
▁Chase
▁Beij
ides
▁Cloud
▁objectives
ST
▁guitars
▁Artist
▁Punk
gni
▁Food
▁Heavy
▁1867
whil
▁Flanders
cap
▁whales
▁shopp
▁horn
▁peasant
▁LP
▁Mine
▁kit
73
▁tactical
000
▁overcome
▁acceptance
▁Adrian
▁reminiscen
▁reopen
▁Quest
ency
▁Commons
▁Kepler
▁percussion
▁Mov
▁processing
▁Watson
▁fierce
ø
▁overwhelming
tt
xi
▁relay
▁tasks
▁marsh
▁Bengal
ending
▁1878
▁Heaven
▁tributar
▁Dudley
▁Travel
▁erupt
▁Newman
▁Deputy
▁gu
▁memori
▁partners
▁unanimous
▁Mail
▁Masters
▁thorough
▁syndrome
▁Mun
▁utiliz
▁comprised
ER
▁McCarthy
▁Tai
▁Clement
▁headline
▁Cry
▁tap
▁Bern
▁Damage
▁Caesar
▁Trinity
▁Gibson
▁fragments
▁clash
▁Norse
▁Movement
▁pocket
▁loaded
▁fitting
▁privilege
▁elephant
▁Inn
▁Commercial
▁Region
WA
▁Hawaiian
bach
▁fix
▁immigrants
▁Steel
▁Mills
▁honorar
▁Palm
▁Luftwaffe
▁functional
ð
▁divine
mun
▁dirt
▁compar
▁prefer
▁complaints
▁statute
▁Expedition
▁genera
▁Thi
▁bath
▁homeless
▁Cle
▁ants
▁Burger
▁Tam
▁Leader
▁consequences
▁Mobile
▁Choice
▁feminist
sville
▁UB
moto
▁Rec
▁Bermuda
▁bars
refore
▁Hat
▁Notable
▁legitimate
▁raw
10
▁Adult
▁plantation
put
▁Lou
▁Kil
▁eruption
58
▁oak
▁Bee
▁lesbian
ree
▁qualification
▁conductor
▁pinn
▁Shelley
cin
▁emerge
▁Toy
▁Monroe
▁variant
▁Kerr
▁lemurs
▁sic
▁Contemporar
▁loyalty
▁Chu
▁Manager
▁caution
▁perception
▁Spencer
▁Monument
▁landings
▁reserves
▁filter
▁Monster
▁Nad
▁Logan
▁intact
▁adequate
▁depress
▁Combat
▁elde
▁rocket
▁pac
hl
▁pregnanc
▁Cop
▁Bun
56
▁1872
▁1868
▁teachers
▁Aguilera
▁Selena
▁Cur
▁Various
▁desperate
▁caliber
hin
▁endors
▁screens
een
▁Dai
▁duck
▁Hank
▁RPG
▁Engineering
▁manual
▁Chandler
▁coalition
▁telescope
▁kn
ú
▁propeller
▁Rev
▁batsman
▁eliminate
▁trademark
▁Cabinet
▁detective
▁astronomer
▁instrumentation
▁twentieth
▁Marcus
▁Woods
▁greet
81
▁spectators
ben
▁songwriting
▁Price
▁Sh
▁synthesis
▁objection
▁Flames
▁clip
▁realis
▁peaceful
▁Butler
▁Browns
▁slot
▁tram
▁Generation
▁liver
ept
▁engaging
▁renovation
▁meal
▁Phillips
▁bacteria
▁Griffin
fu
▁subsid
▁MVP
▁captive
mel
▁motivat
▁Reading
▁preliminar
▁cabin
▁Barrett
▁rally
▁horizontal
▁confrontation
▁Genesis
▁insufficient
▁divert
wy
kha
30
▁strings
BC
▁Knights
▁judg
▁reader
▁revision
▁Soviets
▁terror
▁Newport
▁Money
▁Colt
▁woods
▁graphic
ugg
▁diseases
erson
▁motorway
▁judgment
▁Pur
onia
š
▁preference
▁Maxwell
wal
▁roller
▁Adelaide
▁WWF
augh
▁Raven
▁duet
▁interference
▁Riley
Spot
arrow
▁chapters
▁texture
▁counsel
▁neutron
▁stance
▁Gro
▁intersections
▁Parachute
▁comparabl
▁Surrey
▁attachment
▁missile
held
▁attractive
▁wishe
▁cur
▁quantit
▁Essex
▁extraordinar
▁etc
▁Baldwin
▁Skinner
▁layout
▁passion
▁alarm
76
▁mathematics
▁Abraham
ground
jan
▁reactor
▁unaware
▁Plymouth
▁Chancellor
▁Cru
cum
▁warrant
▁depot
▁Madrid
▁Banksia
▁Regard
▁gallery
▁Legion
▁Page
▁Preston
▁Chamber
▁baron
▁Blo
▁Stoke
▁Hancock
▁blade
▁135
▁rope
▁Brigadier
tti
▁supervis
▁thickness
▁laud
▁accumulat
▁Edgar
▁declar
▁Lancaster
▁mac
▁Ny
▁auction
viation
▁locate
▁frog
▁Tunnel
▁Daniels
▁enclos
illo
ingham
▁civilization
▁runway
esh
▁machinery
▁favourabl
▁parade
ă
▁reliabl
12
▁lakes
▁merger
▁panels
lia
▁Sta
▁neglect
▁Jun
▁configuration
▁locomotive
▁conceal
▁127
▁Romans
▁Aviation
oka
▁Right
▁rookie
▁subordinate
▁Cuban
▁Florence
▁redesign
▁flaw
▁custody
▁teach
lop
▁clay
▁Model
ash
lag
▁molecules
▁Tales
▁Senior
ulation
▁confident
▁Foot
▁Publishing
94
▁resolve
▁Manning
▁defect
▁finger
hurst
▁Glass
▁incomplete
▁nominee
▁progression
▁Usher
▁Jeremy
▁Harper
▁currency
▁pier
tsu
band
▁Admiralty
▁lease
▁Heath
▁Andrea
▁blame
▁Twenty
▁grandson
gra
etta
▁Ned
▁weld
▁Vienna
▁pu
▁Nobel
cra
▁pronounced
▁Cra
▁Arkansas
▁Jennifer
▁triumph
▁Ltd
▁Circuit
▁Janet
att
▁Flood
▁Romania
▁beer
▁Seas
▁rulers
▁fertil
▁McCain
▁sibling
▁accommodation
▁Stories
▁View
▁Wu
rr
▁Barr
▁editorial
▁reef
nie
▁scorer
▁McDonald
▁pl
▁Coach
▁discussions
▁maneuver
▁atmospheric
point
▁VH
▁cream
lit
▁Swan
meter
▁obstacle
▁1879
▁riot
▁northwestern
▁merit
▁keen
▁Monday
▁Bowie
▁Motor
▁funk
▁devis
▁Caroline
▁Minogue
▁southward
▁platoon
▁Flag
TC
▁Lithuanian
▁update
▁cylinder
mark
▁Gabriel
som
▁Clan
▁Capitol
▁proud
▁deny
▁photographer
▁farms
▁bills
▁ascend
rod
▁ease
▁dawn
▁Orthodox
▁clergy
95
▁Card
▁discontinued
▁Perth
▁Sierra
ati
▁sediment
▁array
▁Newfoundland
▁Allmusic
▁drill
cid
▁editing
▁nineteenth
▁batter
▁Palmer
gram
▁Edmonton
vy
▁175
▁sporting
▁Sto
pol
▁postpon
▁employer
▁soap
▁Beautiful
▁file
named
▁Rail
▁Lynch
▁admission
▁correspond
▁Mirror
▁Motion
▁Industrial
mu
▁bout
▁thrust
▁Ark
▁floors
▁spann
▁Tiger
▁busy
▁Arabian
▁activat
▁Drama
▁northwestward
▁gravity
▁Nothing
▁prop
▁Task
▁Hammer
▁AC
▁steady
▁Found
▁Fen
▁besieg
▁Bos
▁prosecution
▁trap
▁theoretical
oni
▁ant
cut
▁corn
▁Continu
▁ambitious
▁citizen
▁Any
oria
▁recount
▁cooperation
▁arise
tag
▁instruction
▁Zoo
▁memorabl
▁Berkel
▁punish
▁cluster
EF
IT
▁ir
▁Diamond
▁necessari
▁Double
▁Spartan
▁coloured
▁conjunction
▁captivity
olo
▁Pri
▁Senators
▁magical
vel
▁latitude
▁spare
▁happi
▁jumping
ffer
▁Kon
▁Consequent
▁Intelligence
▁commit
▁ibn
▁synth
▁clerk
▁muzzle
▁irregular
▁photos
č
lau
▁planes
▁Louise
▁testimon
iac
▁reconstruct
▁Plaza
▁chess
▁App
▁extinction
raz
▁Edwin
▁nests
▁Cong
▁Protection
▁slip
▁compare
▁hyper
▁suburb
▁Spect
▁Armenia
å
▁Berg
▁tracking
▁wonderful
▁debat
▁hind
▁gambl
▁Calvin
▁mall
▁Tab
▁Combin
▁certification
▁antagonist
▁fears
▁Productions
▁Crew
▁Survey
▁terrorist
▁Thunder
▁SH
▁Syn
▁Fa
▁membrane
▁anonymous
ín
▁trophy
▁Chairman
▁disappointment
▁Th
▁AllMusic
▁persuade
▁Busch
▁Form
flu
▁Panther
ify
▁Online
▁Emily
▁refit
▁nights
▁JG
▁delet
▁Luis
▁welcom
ã
▁retire
▁copyright
ichi
▁270
▁Rhine
▁Cad
▁Spy
▁Leg
▁transformation
▁enlarg
▁mob
▁Yet
▁operator
▁Paramount
▁honours
onso
ender
uring
▁Garfield
▁patch
una
▁Maurice
ges
lob
▁Crane
ović
▁ironclad
▁thriller
▁icon
▁rumour
▁backup
▁clause
▁findings
▁Pas
tail
▁Comp
pot
▁mann
▁operas
▁Junction
▁Booth
▁Arctic
▁Guadal
▁draws
▁Formula
▁Laura
right
▁decree
▁Hanna
▁reserved
▁Peak
▁Qui
▁surfaces
▁reunit
▁metropolitan
▁maker
▁Holly
▁1874
▁shrine
▁Alien
▁loading
aku
CN
▁experts
▁1848
▁distract
▁intensify
▁erosion
▁Nicola
▁adaptations
▁Windsor
▁bullet
▁align
▁grants
▁nickel
▁Corner
▁Mongol
▁symbolic
▁undergraduate
▁Basin
▁chances
▁genes
▁ni
▁secular
▁app
▁generals
▁Poll
▁substance
▁colonel
▁tennis
ander
▁keeps
▁decommission
▁disco
▁Irving
▁controll
▁Hopkins
▁Gol
▁plastic
▁riff
▁Laf
▁lobby
▁Principal
▁Michelle
▁worried
▁Holmes
▁plutoni
box
▁reservoir
▁unhapp
▁Pierce
▁rape
▁Variet
▁modes
FC
▁specifi
▁oxide
ywhere
▁Stop
how
TS
▁vein
▁Hour
▁Partisan
▁diving
▁violat
▁intentional
▁drown
▁Sud
▁gland
▁reinforce
▁fake
▁topic
▁Martha
▁Arabic
▁Argentine
▁disagreement
▁Axi
hn
▁investor
▁Manor
▁Stalin
▁Global
▁geographical
▁Case
▁Turnpike
▁vampire
▁unlock
▁Block
▁derive
▁Look
▁contestant
▁tongue
▁Wa
horn
▁Luc
▁fusion
▁groove
ography
ternet
IAA
▁teenage
▁luck
▁mandat
▁tele
▁Stanford
▁compact
▁identification
▁Rhodesia
inus
▁Claire
▁Spiel
pon
ometric
▁puppet
▁pose
▁rec
▁uncover
▁puts
▁FM
▁Ru
▁diagnosed
▁errors
ami
▁Hipp
▁Snake
▁Marco
▁Willis
▁Presley
▁fox
▁Nichols
▁Gerald
wo
▁Imp
▁reflection
▁instructor
phon
▁Stefani
▁Paper
▁113
▁Iceland
hra
oque
▁Moor
▁electoral
▁Glenn
▁feat
▁SpongeBo
▁pyramid
▁naked
▁Guards
▁counterattack
▁evolutionar
▁funnel
▁garage
lee
▁haul
01
▁hectare
▁seize
▁Observer
▁generations
▁lineup
▁tide
lash
▁speaker
▁Đ
▁comet
▁Jennings
▁tool
▁pirate
▁corpse
▁Recreation
▁divide
▁....
▁Broadcasting
▁Bulgaria
▁Mach
▁Gone
▁210
▁Soundtrack
▁1851
▁Finals
▁Patriot
▁Raja
▁comprehensive
▁Warwick
▁sympath
▁Chapman
▁bedroom
▁organs
▁Chang
▁Beside
▁terribl
sham
▁bread
▁Delhi
▁bonds
▁reads
▁Vocal
▁waterline
▁enforc
née
▁NL
▁plead
▁coaster
▁Sing
NC
▁item
cles
▁Living
▁lodge
▁quote
▁Eu
ame
▁106
▁cu
▁Mk
▁colleges
▁lunch
▁Maxim
59
▁accent
▁doubles
▁Bah
▁unofficial
▁Serbs
▁monks
▁Kiss
▁pub
▁Singer
▁Universe
TV
▁Castro
cl
▁Kn
enburg
▁Bueno
▁mathematical
▁disk
▁centimetre
▁flags
▁Jeffrey
▁Quarter
▁108
▁Outside
▁await
▁Southampton
▁Hayes
▁compensation
▁Alternative
▁Dominican
ele
▁Evan
▁turtle
▁sacred
▁Pilot
▁Nathan
▁AL
▁Venus
▁Lightning
mol
▁Prussian
▁Fletcher
▁Berry
▁commemorate
▁amazing
▁Mas
▁Cave
8
▁tar
agh
▁Baptist
▁solve
beat
▁Shore
▁Porter
▁André
▁entertaining
▁Borough
▁Annie
▁neo
top
▁escalat
▁Patton
uli
▁eleventh
▁drainage
▁mat
▁Kenny
▁Nord
▁witch
▁wagon
▁Br
▁starter
hir
like
▁Jesse
▁165
leigh
▁promising
▁upward
▁shooter
▁Face
▁rotat
▁organize
▁Concert
▁Johann
▁Pirates
▁Ferrari
▁dorsal
▁denounc
▁informal
▁midnight
▁Syrian
▁Easter
▁mistaken
▁presid
▁backward
▁freight
▁Need
room
▁Bolton
▁Im
▁hanging
kel
xtant
▁mosque
▁maneuvers
▁Rhode
▁coffee
▁Qa
▁neuro
▁Eisenhower
▁expir
▁mint
▁collid
▁bassist
▁Pel
▁cats
▁missiles
▁contributor
▁Retriev
▁placement
nate
▁Artillery
▁diary
▁expell
ili
▁explod
▁propose
lumni
bon
▁unpopular
▁sophisticat
▁Nas
aker
oh
▁reprint
▁profits
beit
▁Rare
▁Gardens
▁Sometime
▁Close
▁112
ue
▁Aire
▁Rugby
▁Distinguish
PD
▁punch
▁foul
▁Member
▁negotiated
aba
game
▁Truth
▁Hip
▁Rhodesian
▁convincing
▁Tru
▁Bomb
borough
▁exciting
▁swamp
cro
▁teen
▁Vince
▁280
▁balanc
▁Treasury
▁flashback
nar
nik
▁Lodge
▁155
▁computers
▁storey
▁basement
▁fever
oi
▁consumed
▁fer
▁leather
nia
▁socialist
▁conscious
▁accurac
▁Pier
▁Pol
▁vol
▁Hear
▁choos
▁oral
▁op
▁drives
canal
▁Nebraska
▁imagin
▁EU
▁negotiate
iva
▁Warsaw
▁Saints
▁dragon
▁predecessors
▁forgot
▁Ferguson
▁silence
▁Reg
▁Lucy
▁Dodger
▁AIDS
▁Neptune
▁Avon
▁utter
nce
▁contend
▁Doug
uf
CA
▁Row
▁Sussex
▁procedures
▁limestone
▁Gaza
▁capabilit
die
▁manor
▁topics
▁hazard
▁370
▁Bangladesh
▁gase
▁barrack
SO
▁Wat
▁homage
▁Volt
78
▁Hispanic
▁Krishna
▁Columbus
▁relevan
together
▁Rice
▁Linda
▁tribal
▁Lan
▁Source
▁acids
▁cultivat
▁Vic
▁stomach
kie
▁Reynolds
▁Taxonom
▁marble
BA
▁goalkeeper
▁administrator
▁invention
▁Morton
▁sanction
▁Bio
▁insect
▁Cri
▁disturb
▁robot
▁Comic
▁cantata
▁illustrations
▁dispers
▁cow
▁vault
sex
poli
▁Scotia
▁Powers
▁choices
▁scope
iest
▁Franz
▁blown
▁zoo
▁suburban
▁Mai
▁Ming
▁miner
▁Hon
▁Places
eaten
chu
▁nobility
▁Ob
nu
▁limitations
▁seizure
▁overlap
▁Munich
▁Disc
▁speakers
90
▁bold
▁Lanka
▁mentor
▁torn
fl
▁incorrect
▁Compt
▁coincid
tron
ception
▁shipyard
▁Beyond
▁Lithuania
▁enforcement
▁constituenc
▁bin
▁103
▁imprisonment
dor
▁innovative
▁proven
▁twelfth
▁Pac
▁na
▁Siege
▁meta
▁referendum
vision
▁painter
▁hostage
law
▁shale
▁lemur
▁Eye
court
▁conn
▁Ker
▁Eigh
win
▁Costa
throp
▁suspicion
OR
▁Style
▁MI
▁Hebrew
▁hate
▁Popular
▁analog
▁crater
▁Plann
NT
▁poster
▁orbital
PC
eri
▁municipality
▁Minne
▁Dawn
▁namely
▁Associat
▁refuge
▁parasite
€
▁maturity
▁rectang
▁260
ties
hole
▁Lois
▁Hammond
▁refin
smith
▁commerce
▁examine
▁renown
▁Eugene
▁fortifi
▁commemorat
▁Derek
▁Sil
take
▁Rhys
▁NA
▁Chapter
gna
▁demon
mur
▁Sunderland
▁Blaine
▁Apart
▁Attack
▁Salis
sdale
▁penn
▁democrac
ulate
▁Volume
▁Athenian
▁Arn
▁Ot
▁safely
▁variet
▁Wide
▁hydro
▁1859
▁welcome
▁Robertson
▁Gamepla
▁Spa
▁Southeast
▁slide
▁chicken
▁Dart
▁Beast
▁amino
▁Maj
▁pap
▁keyboards
▁powder
fold
▁insult
▁discharge
▁Maple
▁characteris
season
▁genius
esque
▁Primar
boy
wel
▁scales
▁balloon
▁virtue
▁Sei
▁Cecil
▁diagnosi
aries
▁rendition
▁Midland
▁Net
ott
▁Remix
lip
▁Jin
▁Lex
▁vector
▁preview
▁subsidiary
▁atoms
▁protective
▁efficiency
▁binding
▁cod
▁Rapid
▁Hugo
▁dig
▁Fraser
▁Palestinian
▁Joyce
▁societies
▁Ré
▁decease
▁preservation
▁Canberra
▁triangle
▁Ze
croft
vet
▁Lesser
▁Jar
▁animator
LL
▁correspondence
ela
▁Hamburg
▁cement
▁mon
ult
▁Winchester
▁deficit
DS
▁1845
▁Tall
bell
are
burgh
▁pigeon
▁crowds
▁Rip
▁adoption
▁adviser
▁Woll
▁tyre
▁Engineer
▁murders
▁sink
rez
rock
list
▁acute
▁Willie
▁Danub
▁summary
▁seasonal
scu
▁mouse
▁Quinn
▁ward
▁axis
▁Lat
▁Jenna
51
▁Rep
▁Brighton
▁Arms
▁Math
▁Joel
▁Alexandria
▁liken
▁helicopters
▁sexuality
▁indication
▁Saw
▁amend
▁collaborator
▁fraud
tory
▁Bert
▁Dot
▁contrary
▁plug
▁131
sium
▁145
▁PS
▁breakdown
▁Lenin
▁Mana
▁Timberlake
‘
856
▁Holocaust
▁HIV
▁sprint
▁interface
▁Assistant
▁highlights
▁relax
▁152
▁trunk
▁thank
▁Kemp
▁emigrat
▁dose
▁Karen
▁poisoning
▁Tank
▁Racing
▁AP
▁Petersburg
▁Queens
▁Omaha
▁Care
▁Pack
▁heaven
▁sweep
▁utilit
▁Witch
▁excited
▁badge
▁brass
atus
▁flie
▁bite
▁availability
amba
▁excavat
wine
▁striker
▁Portsmouth
rup
▁Norton
▁solutions
▁Torres
▁Challenge
bee
▁determin
▁scream
▁Step
▁concentrate
opo
▁Bailey
▁Destin
▁Shar
▁Ramon
▁drawings
▁Inde
▁swim
▁Vel
▁Kay
▁1200
equality
▁incorporat
▁toxic
▁Toward
▁Information
rap
▁continual
▁rode
▁Kl
▁ancestors
▁intern
▁nominal
▁Wolverine
▁Wei
▁contaminat
▁Wend
▁calendar
▁Singh
▁Aircraft
▁fantastic
▁Dayton
arch
ashi
▁Elliott
▁Mori
▁Mul
▁hymn
active
▁senator
▁Gwen
▁opener
▁Forbes
▁performer
▁Given
▁Lars
▁Wick
ache
▁endangered
▁Change
▁suburbs
▁veto
▁Webber
▁Lynn
▁Sicily
▁Chen
▁Duchess
▁citizenship
▁skiing
▁Sul
▁relegat
lle
▁determination
▁Speed
▁stopping
▁comedian
▁concluding
▁gentle
▁Durham
▁ears
▁ESPN
▁plaque
▁Georgian
▁countryside
▁Austen
▁Hoffman
▁dug
▁generator
▁Fiction
▁trilog
▁1820
▁gospel
▁televis
▁SMS
▁Ode
▁Engineers
rel
▁Ant
▁Cl
▁Pepper
▁sympathetic
▁Ski
mbi
beck
▁announce
▁clearing
uga
stuck
▁im
▁boarding
▁Gardner
▁Mumbai
▁Fun
AC
▁alteration
▁terrestrial
▁Have
▁subtle
▁lab
▁hire
▁organisations
▁Data
owed
▁oz
▁Wang
▁cal
▁primitive
▁communicate
▁maritime
zen
▁workshop
▁Direct
▁Fil
▁ceremonial
▁watche
▁Peru
▁wrapp
FR
▁eject
▁vent
▁satisfied
▁suite
▁Crash
▁dominan
▁Jazz
▁reservation
▁implementation
▁Philippine
▁Pont
▁Bahamas
▁Corr
▁coral
▁dump
▁stripe
▁superstructure
▁keyboard
▁fi
▁interfer
▁Rise
▁Kam
▁quant
shot
▁Ara
▁divorc
▁Lac
▁consolidat
hang
▁Monica
▁Commodore
tial
▁fails
▁averag
▁Prussia
▁IX
▁Savage
▁Denis
▁narrator
▁Sad
▁charting
▁Angela
▁Pearson
▁northeastward
shima
▁Distribution
▁Tampa
▁Tur
▁1854
▁Guest
▁Fl
▁outline
▁Cruz
▁drops
▁clever
▁Jose
llen
stable
▁isotopes
for
▁consultant
▁Lopez
▁barn
▁jewel
▁saint
▁1857
▁Rovers
▁advertise
▁Iraqi
▁fu
▁juvenile
▁shower
▁businessman
▁Producer
▁frustrated
▁distress
▁motivation
▁exhibits
uda
▁Giant
elda
▁NME
▁submission
▁Dame
▁spar
▁augment
▁prominence
▁Private
▁Vir
▁Bran
▁Wong
▁resume
▁Newark
▁melt
▁Barn
▁shortened
▁morale
▁Diana
sistence
lly
▁Joy
▁precursor
▁Advance
▁torture
▁orbits
▁Meg
▁Hir
▁Lions
▁democratic
▁overthrow
▁median
▁Lar
▁thermal
▁McMahon
▁Eagles
▁Java
▁banner
▁Cut
▁antibod
▁buses
▁flourish
▁contingent
achi
bie
▁smart
▁immigration
▁Neu
▁Crow
rb
▁prediction
oun
▁Nan
▁farthe
▁Wilm
▁variants
lac
ographic
▁Table
▁chant
▁Kre
▁slopes
▁Joshua
▁Holden
▁Methodist
terim
▁Dana
▁farmland
▁descriptions
but
▁provok
▁imagination
▁hom
▁Environmental
view
▁Lau
▁Barber
▁Put
▁Gates
▁Diệm
star
met
60
▁encompass
▁tear
▁Cinema
▁burden
▁Sig
cott
▁worsen
▁inspection
▁patroll
dding
▁chronicle
▁Lyon
▁outlets
▁recreational
▁derivative
▁systematic
▁displacement
asco
▁comfort
▁graduation
▁scripts
▁Elder
▁chains
▁Ivy
anti
▁retir
▁Claude
▁doubled
▁restart
ridge
▁chip
▁Broke
▁Did
▁superhero
▁cord
▁replica
▁contradict
hara
DF
ifying
▁invite
▁owl
▁freed
▁compartment
chester
▁hell
▁Birds
▁overhaul
▁Phantom
sworth
▁dreams
▁Persona
▁Gospel
bia
▁Spitfire
RI
▁Mah
▁adventures
▁Neo
▁surf
▁Knowles
▁uncertaint
▁Kingston
▁Hannah
▁glider
▁Ashley
▁Sergeant
arm
▁Immediate
▁Allan
▁Zo
▁loves
UP
pole
▁enthusiasm
fan
▁caps
▁sovereignt
▁Reid
40
▁dedication
▁Mode
▁breakthrough
▁Rem
▁ideolog
▁brush
▁Writers
▁tales
▁roofs
▁brake
▁Yang
jun
path
▁Adriatic
▁hub
▁registration
▁manuscripts
▁profession
▁Exc
▁ballet
▁cancellation
▁Schools
▁Dover
PS
ritten
▁1858
▁Haven
▁spy
▁Mick
▁isolation
▁É
izz
▁landslide
▁McN
▁var
▁dull
▁constitut
75
▁Antille
▁orientation
▁Event
▁transmitt
▁bias
▁Lyn
▁spectrum
inal
▁Mini
▁sandstone
▁Sugar
▁Reviewer
▁stereotype
▁Cow
▁alternat
ema
▁abrupt
rah
▁Literar
▁Interior
▁Wheel
▁innocent
▁affirm
▁Individual
▁Broad
▁Wheeler
▁Corn
▁refusal
▁contemporari
▁den
▁corrupt
▁vow
erman
▁Mau
▁Medicine
idge
ayette
▁lung
guel
▁explorer
▁Fringe
▁gig
bot
▁alloy
▁Betty
▁bred
▁Hollow
▁Pike
▁affiliat
▁persona
▁dissent
▁Amazon
▁wool
▁swift
born
▁SAS
▁1812
▁Less
ES
▁kidney
▁Az
▁quantity
▁Balkan
▁gale
▁spiral
▁Presidential
▁320
▁deer
▁entries
▁constellation
▁Pick
lund
▁smuggl
▁unwilling
▁fare
aya
▁Left
▁charm
▁intimate
▁ministr
▁Limited
▁reasonable
▁Rey
vil
▁evacuate
▁Jen
▁Speaker
ovich
▁Jain
▁technologies
▁dia
▁forbidd
▁550
▁Cai
▁plumage
▁Pha
▁Agent
vor
▁Sm
▁XIII
▁insight
▁treasure
▁Rutherford
woman
▁Donna
▁polls
rog
▁Dre
▁grandmother
▁projection
▁nitrogen
▁Div
via
▁climax
▁Away
▁drag
▁medley
▁1849
▁rubber
▁prose
▁sued
▁jacket
▁cite
▁demolition
▁tables
▁offence
▁Visual
cri
▁rein
▁plaza
▁managers
▁Brock
▁Sebastian
▁Thorp
▁Rican
▁exceeding
▁affiliate
card
▁Made
▁Afterwards
▁Underground
▁improvis
▁testifie
asa
fest
▁swallow
tiny
▁Por
▁Julia
▁Evening
▁Hutton
▁Halifax
▁Crazy
rash
▁Faith
▁Oppenheim
▁generic
lt
▁assumption
▁tun
▁sac
ault
▁Horror
▁Metroid
▁Sharon
▁Vaugh
▁Maha
▁inadequate
▁digit
▁hypo
▁Rou
ova
▁violin
▁occurrence
▁casemate
▁Dynasty
▁Cod
credible
ucci
▁Tel
▁Path
▁polluti
▁Archer
▁Saudi
ctor
▁freestyle
▁Screen
▁inferior
▁Thailand
▁oppose
▁philosophical
wind
▁Carte
▁117
▁Wake
▁dramatical
▁bush
▁sitcom
09
▁MS
▁Level
▁frames
▁Erie
Craft
▁Drew
▁Gran
▁dwelling
▁encouraging
▁Freeway
▁hamper
▁tackle
▁motive
▁Gla
▁catche
elfare
▁Spot
▁WrestleMania
▁Wizard
▁dominate
▁embass
▁Trafford
▁Jets
▁Discovery
▁infra
▁Wade
▁rib
▁330
▁revelation
GC
hoe
▁185
▁ordering
eman
▁discard
▁Tina
▁timing
▁z
▁ARIA
▁leap
enne
▁criteria
▁troubl
▁joy
▁supervisor
▁prolong
icken
lli
▁Lakes
72
▁Hick
▁submit
▁McG
▁Bradford
nk
▁mess
▁clinical
not
▁digest
▁Tha
▁emphasize
▁rational
▁Pot
oco
▁cage
▁gills
▁Title
▁rep
▁hometown
▁Cope
93
▁proto
▁Norwich
ht
▁deplet
▁brutal
▁trumpet
▁faithful
▁Rag
▁Jacobs
▁Kur
▁warehouse
▁Jessica
▁Jamie
▁Fel
▁Must
▁helmet
▁Gris
▁Penguin
▁marker
▁Wave
▁robber
▁tract
▁Gould
▁Angels
▁Stewie
▁Boyd
▁Echo
▁tired
▁Negro
▁Greene
▁Ut
lets
▁Brittan
otta
▁Diane
had
▁observ
boat
ann
▁Shan
▁Liu
▁Dub
▁discrimination
▁Vera
▁Rochester
▁sparse
▁assign
▁Farmer
▁Being
▁eager
▁hitter
▁Giro
▁Grande
▁cricketer
▁Mit
▁Gustav
▁AU
rself
▁Gott
uchov
▁fins
▁blog
▁Weber
▁Von
▁constitute
▁Hur
▁pretend
ë
▁happens
▁flex
ace
▁Joker
▁Canadiens
cellular
▁Heat
▁curse
azi
▁Full
▁calci
▁Emine
GA
bru
▁Oil
▁poetic
▁Gillia
▁Shakir
▁Anders
▁beds
▁automobile
gno
amp
▁dolphin
▁Height
▁Hokie
▁Conan
▁114
▁archaeologist
▁iconic
▁Carpenter
▁650
▁Sleep
▁Brunswick
▁abstract
▁jungle
▁nesting
▁inevitabl
▁Happy
▁cease
▁Behind
▁Gan
▁Hyde
▁Wait
iti
▁physicist
▁CIA
cision
▁Expo
eum
▁Prison
▁Cornell
▁amid
▁confess
▁controller
▁1852
▁gesture
▁Match
nium
▁Structure
▁nationwide
▁Dome
▁mortality
▁Forever
▁Preparation
▁Cohen
▁confiscat
▁annex
▁Hindi
▁Clear
▁Darre
▁Wyatt
▁Color
▁Lance
▁Brett
fused
▁medication
▁purple
ž
▁unrest
▁destin
▁tiger
▁spontaneous
▁Sharp
▁sided
▁cheer
▁radioactive
▁Bede
▁regret
▁deadline
▁Dev
▁labell
▁lament
▁Kit
▁humid
igh
▁chick
▁Better
▁Anglican
▁Richards
▁merge
▁Rein
▁capability
▁121
▁Thursday
▁Verde
yama
▁Core
▁ho
▁Kai
▁colonist
▁revert
CL
tia
▁indoor
▁Leaf
▁Perfect
▁Fine
▁boards
▁ACC
cene
Reilly
▁1847
▁royalt
▁goaltender
▁fog
▁palm
▁polish
▁Mot
▁Roth
▁perimeter
▁mutation
▁Flash
▁Annual
eux
▁accomplishment
▁cri
▁mortar
▁Exe
▁naturalist
▁relieve
▁reproduction
▁foster
▁Volunteer
▁premise
▁Rom
▁Harbour
lett
▁monsoon
▁denomination
▁Memor
▁betray
▁Fellow
▁Milton
▁Technical
▁Clo
▁compatib
▁posting
front
▁Erik
▁operators
▁skilled
▁sensor
dia
▁Louisville
▁Myster
▁Cover
▁Recent
▁princess
▁Cer
▁imply
▁Mona
stad
▁SA
▁Ap
▁Concern
▁jam
▁devastat
ected
▁Vis
▁melodi
▁economical
▁Student
▁Lexington
▁recipient
▁periodical
▁1855
PI
▁Twin
▁Complete
▁Bil
▁lady
▁1846
▁hollow
▁Lebanon
▁drunk
▁reply
▁abundance
arian
HA
FL
▁Ern
▁combin
▁arche
▁Fernand
▁Kind
▁analyst
▁cottage
▁Damascus
▁Falcon
▁coronation
▁bail
▁Nazis
▁Brother
▁breath
mir
oggett
▁Aside
▁Ober
mine
▁viral
▁fence
▁barge
apoli
▁107
▁Humphrey
NG
22
▁concurrenc
▁humour
owski
▁Dry
▁stump
▁offspring
▁Rupert
▁enterprise
ecology
▁resid
▁assured
piece
ifi
▁Strike
▁Hastings
AR
ride
▁Hundred
▁unconscious
▁luxur
▁contractor
▁ram
▁Ran
▁devil
▁forget
▁ethic
▁Kiel
▁integr
key
▁Nolan
▁horns
▁ancestor
▁miniature
▁Coll
▁peers
▁Stockholm
▁Sci
▁Fight
▁victorious
▁stamp
▁resemblance
▁Hampton
▁Lea
▁ingredient
▁Socialist
dining
▁dioxide
slav
▁Speak
▁broadside
▁1832
▁diesel
▁Chetnik
▁frontal
▁doll
▁definitive
care
utter
▁tent
▁illustrate
▁dismissal
▁Juliet
▁ankle
▁trainer
▁cooler
▁Bent
▁lots
▁Halloween
▁Slam
▁Yama
53
▁Safety
▁Albanian
▁Lim
▁Julie
▁clusters
▁rubb
▁Fri
anda
▁reddish
▁bicycle
▁Sanskrit
▁heated
▁Specie
▁feedback
▁Covenant
▁Luck
▁nerve
▁crossover
55
▁oath
▁persistent
▁gravel
▁Language
▁pagan
▁Give
▁Fuji
▁Thirty
▁sovereign
▁corners
▁Hun
▁accusations
akh
▁Alt
▁retrieve
▁Fuller
▁Gear
kawa
▁shake
▁Lay
▁Bou
▁bike
▁Au
phag
▁Cubs
TA
▁courage
▁livestock
▁mating
▁Charter
lice
▁Mered
▁mod
▁IU
▁intensive
▁pa
▁Warriors
▁humorous
▁Eva
▁filling
▁Andre
▁Taka
obility
▁118
▁showcase
▁Worcester
70
▁hiatus
▁eighteenth
▁Doll
▁Cedar
▁remnant
zzo
▁Len
▁Arc
▁abbey
▁Brisbane
▁posthumously
▁dealer
▁cure
▁Use
▁128
▁empower
uan
▁particle
▁Eyes
▁mourn
wl
▁menu
▁Animation
▁Kha
▁boxes
▁Scientific
▁keeper
▁Approximate
▁cheek
▁dressing
▁elimination
▁backdrop
odon
▁Tsu
▁sounding
▁remaster
▁embrac
▁umpire
▁Massa
▁Raider
▁Ji
▁Election
▁smash
▁omitt
▁conven
▁camouflage
▁Yoko
▁Hag
▁heroine
▁pride
▁gut
▁Working
▁throws
▁aims
▁beache
▁EMI
▁pipe
▁analyz
▁Loch
▁Nag
▁hung
II
▁sleeve
▁degenerat
▁Yoshi
▁replay
▁Henri
▁Mou
▁limbs
▁defining
gio
▁Academic
▁dispos
▁Adolf
AF
▁Pil
▁Wildlife
asaki
▁logg
▁Beatty
▁sil
▁Select
▁Fir
▁profound
▁AI
▁metaphor
▁lord
▁slope
▁exercis
ncy
▁announc
▁Shackleton
▁mari
▁1853
▁recipe
▁calculation
▁binar
▁Winston
▁Fre
▁Yale
▁guerrilla
▁penalt
▁Ace
▁compose
▁renovat
▁AM
▁Supporting
▁Stern
▁elevator
▁justifi
▁tenant
stair
▁por
▁Harding
actic
▁lyric
weight
▁lineage
▁acknowledge
▁metallic
▁Crime
▁stanza
▁Keys
bird
▁makeup
▁Bard
▁melodic
▁ancestr
▁catalogue
▁Fra
▁Believe
▁fad
▁Ride
pet
▁Colber
▁scratch
▁stalk
▁Orlando
▁Casting
▁surgeon
▁tears
▁counts
▁clone
wyn
▁resource
▁statistical
▁molar
▁pistol
▁squa
dez
▁reus
crosse
▁Wilder
▁202
▁portraits
▁froze
▁Kapoor
▁thread
▁Numero
▁abortion
▁jealous
▁Prom
▁define
pil
nova
▁wildlife
▁Investigation
▁railways
▁Deal
eck
▁formats
▁Ada
▁Jur
▁Bergen
▁Persians
▁nobles
▁Bir
▁Transit
Cube
▁module
▁Galli
gau
▁surpass
▁beta
▁propulsi
▁Mol
▁adverse
tech
▁Seymour
▁Crisi
▁Solo
▁Baja
▁Dexter
▁gra
▁Lud
▁Shane
▁keys
lug
▁Pla
▁Cherry
▁Tara
▁solitar
▁unprecedented
▁Zi
▁Nai
▁commence
ddy
▁1841
▁Abd
▁Armour
▁Leopold
olithic
Neill
▁zinc
▁Oakland
SC
▁Jacki
▁periodic
gli
▁framework
▁listeners
▁bark
▁Smart
▁reporters
▁grenade
▁Dixon
▁comeback
▁aunt
▁Fey
▁comparative
RT
▁Knox
▁Sandy
uz
▁Coalition
LA
▁Welles
▁courtyard
▁hypha
▁brood
entity
▁Campus
udi
pology
▁cinematic
▁Albion
▁pile
MG
▁certificate
▁temper
▁Victory
▁Milne
aria
▁conform
▁republic
▁Poly
▁Viking
▁dishe
ée
▁Previous
mill
▁Hemingway
▁Troop
▁dragg
▁reclaim
▁Gore
hel
▁Blade
▁Arrow
vant
▁Ent
▁Magnus
▁Belgrade
▁enhance
▁statues
▁Carroll
▁1844
▁Charit
▁befriend
▁optical
▁onset
▁Erin
▁Sinatra
▁Cardinal
▁smell
▁pond
▁kidnapp
▁Tsar
employment
▁Wool
KO
▁patronage
▁happening
▁urging
▁lend
▁Animal
kind
▁novelist
▁Spur
▁gaso
▁Chin
▁composing
ozo
▁frustration
▁satire
▁overnight
▁plott
▁curricul
▁Students
▁confession
▁Haiti
▁attacker
▁realism
▁hotels
▁angles
▁integration
▁gallon
▁Kali
▁Bala
9
▁FC
eff
roll
▁Self
▁Than
▁Sum
▁Barton
▁supernatural
▁Kahn
▁weird
▁lectures
▁Troy
▁122
occer
▁Worker
▁Dad
▁pianist
▁Kannada
stat
▁chao
▁hinder
▁cheat
▁Estate
anus
▁integral
▁Sales
▁stiff
▁maiden
▁Dawson
▁Tub
▁Tele
▁undis
▁synonym
▁counterpart
▁Pradesh
▁Getty
▁Ferry
RE
▁overturn
▁contemplat
▁altar
809
VA
▁tire
▁Systems
▁turnpike
uka
▁Eleanor
▁mo
mut
▁Esp
▁Til
▁1790
♭
wald
▁Guam
▁Note
▁biology
▁Wednesday
astic
▁Rosen
▁summoned
▁MGM
▁Wisden
▁profitabl
▁Seth
▁facial
peake
▁Idol
▁supervision
▁Ang
▁wheels
▁McLaren
▁crazy
▁Bronze
▁hack
▁liberat
titude
▁Valentine
▁NC
▁bust
▁fairy
▁Plain
▁deity
▁congressional
▁maternal
dental
▁wise
▁poets
TO
▁gag
▁Rh
nica
▁Mala
▁laser
▁fond
own
▁facilitate
▁complaint
hop
▁Stor
kill
▁Survivor
▁receptor
▁trenche
▁mills
▁CM
rand
▁afraid
▁archbishop
▁investigator
wer
▁Present
▁Bois
▁Casa
▁legendar
▁persecution
▁fragment
▁Amazing
▁lecture
▁knife
continental
▁1776
▁Arabia
rim
▁tidal
▁asteroid
▁regulat
▁Sr
▁slipp
▁Era
▁Congo
▁chronic
▁pup
▁Gai
▁pillar
▁Supp
▁Telugu
▁idol
▁solv
▁heroic
▁riots
▁ve
▁Kids
▁Shark
▁Gy
▁counterparts
▁Guerrero
▁protester
▁Cara
▁moor
▁tablet
▁correspondent
rik
▁Federer
▁Blackburn
▁Ari
▁Brig
▁Brewer
▁swor
â
▁Communications
▁cop
▁retrospective
▁ge
▁awkward
▁sketche
▁Webb
▁pi
▁Hits
▁overwhelm
▁Traditional
lunar
▁Cliff
zar
uburn
▁associations
▁Clyde
▁jack
▁1837
▁Wimbledon
▁euro
force
▁admiral
▁elongat
▁Fast
▁sculptor
fal
▁reunion
▁Sheriff
▁continuation
▁Sn
pec
▁grace
acy
▁Beer
▁rendering
▁Touch
▁repuls
tim
▁flock
▁Miz
▁till
▁ladder
▁fungi
▁141
▁prosecutor
▁pad
mere
▁shade
▁drought
▁bulb
▁gravitational
▁inspect
▁sulfur
▁masterpiece
▁vacant
▁Pay
▁lac
▁Maggi
▁Chain
AM
▁Flower
▁Vick
▁steamer
▁prone
▁Zagreb
▁unbeat
▁Pad
▁hangar
▁sculptures
▁Vishnu
▁Monk
▁Webster
▁Batt
▁Advanc
▁dismantl
▁Tro
▁Gab
tip
▁dish
▁mimic
▁breathing
▁Gazette
▁handful
▁shutout
▁Fork
▁Conrad
▁partisan
▁ATP
▁discourage
▁incumbent
nick
▁affection
Å
▁Gerr
▁Trent
▁textile
▁Maur
▁Abdul
▁fraction
▁detection
phe
▁Biography
▁Juda
▁recreation
▁mound
▁vigorous
gas
▁Legal
▁Matilda
▁Sparta
chel
rama
▁bunker
▁ditch
▁Folk
▁flavor
▁plat
▁Guatemala
▁Broadcast
▁Support
▁132
▁collar
▁Shawn
▁138
CR
▁barr
▁screw
▁catalog
▁ineffective
▁bankruptc
▁prints
▁Orkney
ui
▁Dorothy
▁remixes
▁Hai
▁envision
▁scarce
▁gal
▁odds
hom
orial
▁devastating
▁hik
▁Tolkien
▁Priv
▁Trinidad
▁bug
▁stealing
▁diplomat
▁cry
link
anu
▁nutrient
▁energetic
▁traffick
ū
▁Voyager
▁Rin
▁reproductive
▁Bha
▁plots
▁verdict
▁immense
▁Crosby
▁1839
▁halls
▁116
▁fuselage
▁terminated
▁clade
▁ecological
▁endemic
EC
cant
▁Heinrich
bbl
▁strikeout
mani
DI
▁Sinclair
parts
▁technological
▁tragedy
▁mantle
▁embryo
dict
▁Syracus
▁depos
cula
▁broadcasts
▁Gaelic
▁Classical
▁spectacular
DT
▁intervene
▁Chesa
rail
▁vacation
▁Jill
▁Expressway
▁taxi
▁Legislative
▁viruses
▁Airways
▁infinite
▁Architecture
▁Hutchinson
▁consoles
isco
▁interven
▁Sesam
mme
▁Pluto
▁Kol
▁evaluation
SR
▁Khrushchev
▁iPhone
▁consume
usch
▁Providenc
▁summon
screen
▁enforce
▁pipeline
▁Felix
▁195
suke
▁su
▁boil
▁Vita
▁460
▁faint
▁Vision
▁emblem
▁notorious
▁suck
806
▁Flow
cola
▁Hel
▁Bf
▁Hep
▁Ain
try
▁bend
▁cope
tica
▁motorcycle
hos
▁Nin
enter
SB
iq
▁Lambert
▁unnecessary
▁Dorset
zh
▁valve
▁grape
▁practis
▁spray
▁Wembley
▁cavit
▁Herzegovina
▁pedestrian
▁Hib
▁Ely
▁planetar
▁awaken
▁Avenger
▁conception
▁unifi
aut
▁tobacco
▁Witt
▁millenni
ambo
rell
▁Krusty
▁Extra
▁diverg
▁Midway
itchfork
▁rats
▁Galve
▁monopol
▁stack
▁Dom
▁rag
▁Artists
▁tin
▁Representative
▁Element
▁pathway
▁compelling
▁Pond
▁Sixth
▁Ett
▁loans
▁Squad
▁Wyoming
▁discharg
▁uncommon
▁cruis
nat
▁Pole
▁Effects
▁critique
▁shapes
▁Southwest
▁1835
▁airplane
▁Elm
▁summ
▁merchandise
▁Spe
▁disappointing
▁Border
▁duel
cio
▁subplot
▁companions
▁noticeabl
▁curtain
793
▁gram
▁pardon
▁Leipzig
▁detain
▁congress
▁Abb
▁editors
▁Kel
▁repeal
LR
▁Mika
▁equit
▁Vernon
▁Ost
▁marginal
▁prostitute
▁Tide
▁Fighting
rud
▁Honey
▁committees
WV
▁Bab
▁NWA
▁Agreement
▁François
▁Est
▁Watts
▁Roe
▁Diva
▁vinyl
zel
▁mut
▁Germanic
▁Declaration
shes
▁behave
▁undertake
▁snake
nen
▁Himm
▁Wanderers
▁relegation
▁exam
▁Web
▁militant
32
iro
▁Mortal
▁treason
▁amphibio
CU
▁Warning
▁Journey
▁Shanghai
▁Randolph
▁Das
▁Slayer
▁autonom
▁Kr
▁Plains
▁reside
▁Empres
▁Zimbabwe
ull
▁Shannon
▁Boot
▁Cell
▁Bates
▁Ami
▁Spike
▁Clarkson
▁Lil
▁Lip
▁1799
SL
▁Croat
▁Ashe
▁tides
▁Offensive
▁Borg
▁Achievement
▁Cobb
▁Chemical
▁repris
▁container
▁rejection
▁Tracks
▁1838
▁Cock
jar
LI
▁cardinal
▁Aberdeen
▁pamphlet
▁verb
▁Lana
WR
▁Styles
litz
▁repetitive
▁melting
eh
▁copi
▁wolf
▁Alder
▁Tasmania
▁Goodman
finish
▁Smash
▁dialect
▁Taf
▁Twilight
▁spill
▁Tea
▁Crusader
▁bulkhead
▁outlin
etch
▁alike
▁Scene
▁Complex
pu
bourne
▁visibility
▁Diet
▁parachute
▁Egg
▁revolve
uxiliary
CD
▁discusse
▁plasma
▁Jump
▁furni
▁starv
▁tremendous
works
▁eruptions
▁Gat
tero
▁Barrow
▁denot
▁oblig
▁Kenya
▁Phase
lept
▁Bahrain
▁panic
▁precedent
▁Bayern
▁ignit
▁Aston
▁1829
▁supernova
▁Ville
▁Boone
▁Rana
▁Fran
▁Vladimir
▁Slant
▁surname
▁Railways
▁sperm
MT
enau
▁rebound
▁Warrior
icus
▁Clare
assett
▁Bend
▁Matsu
▁Parish
▁Charle
▁Characters
▁Trevor
▁Silent
▁exceptions
▁rematch
borg
▁305
▁Met
▁Booker
▁Bol
▁Looking
▁Animals
▁Shepherd
▁intimidat
▁Exchange
▁vowel
▁cheese
▁Davidson
▁Moreno
jin
▁Julius
▁moistur
▁Testament
▁lure
▁Rating
▁Bot
▁sparrow
▁AS
▁Lei
grass
▁alpha
▁fiscal
MO
▁Something
▁LGBT
▁artifacts
▁Rough
833
▁stint
▁stud
▁dot
▁Basil
▁summariz
▁XII
▁trunkline
▁cockpit
▁Parliamentar
▁MCC
powder
run
▁Dunn
▁globe
▁Carson
▁clinic
▁probe
▁olive
▁Institution
dell
▁saga
aged
rill
▁Geography
▁Landing
▁scroll
▁Rest
▁Ukraine
▁potas
▁Nicole
▁Detective
▁unchang
▁Messi
kal
▁liberty
▁marching
▁trench
▁shoes
▁Kaz
▁Glory
▁footballer
▁eponymous
▁Emergenc
▁relic
▁pension
▁Salford
▁aquatic
▁eclipse
▁moralit
▁1842
▁Kom
retace
▁manipulat
▁disposal
ulos
▁Smok
▁litter
▁pray
▁interr
▁Gr
▁spokesm
▁Killer
tow
▁inflation
▁mercenar
▁fountain
▁Said
▁reorganiz
▁obscur
▁Undertaker
▁conscript
▁Jesuit
▁Nigel
▁Chambers
▁outflow
▁anarchist
▁worm
▁mega
▁exotic
▁Beta
ED
▁Battery
▁Mort
SM
▁Ladies
tami
▁lip
▁Mara
▁Devils
▁rigid
ime
▁Ah
▁119
▁pigment
▁outward
▁disastrous
▁pavilion
▁Chess
æ
▁Micke
▁Duff
▁Glacier
▁Copenhagen
▁prosecut
▁patche
▁ODI
▁amidship
▁carriage
▁shout
escu
▁Appeals
▁Sign
▁inscribed
▁Northumberland
▁destructive
▁Dee
azar
▁Lt
▁slaughter
▁Presbyterian
abil
▁Swa
▁martin
▁obscure
▁Dreams
▁Bombay
wig
▁probable
▁boast
▁appreciation
▁san
▁sandwich
▁Cannon
▁sheriff
▁Boo
▁norm
▁1843
▁Dock
▁1⁄2
▁Regular
▁procession
▁guardian
▁Andrews
pit
▁attest
▁migrat
▁Lab
▁granite
IC
▁verbal
▁agenda
▁480
▁Prinz
▁Coke
▁dye
▁splits
▁renumbering
▁storytell
▁distributor
▁township
▁Religion
▁Metallica
▁database
lith
him
▁MC
▁robust
▁academy
NO
non
▁Yucat
inae
MB
▁graph
jima
▁Success
▁Vale
▁Walsh
▁Dru
▁mounting
▁Dust
hou
▁Aid
▁Breed
▁convex
▁Comb
▁410
▁unrelat
▁pp
▁Rivera
itus
yard
▁1815
▁Transylvania
▁authoris
▁Bosnian
▁USAF
▁synthesiz
▁static
▁coinage
▁Advisor
▁Cairo
▁cliff
▁Lines
▁Idaho
▁flora
GI
▁Sora
▁bubble
▁stellar
▁Elvis
▁sciences
▁Weston
▁otter
▁cylindric
▁Cage
▁Middleton
▁mercur
fried
▁Converse
▁institute
▁impacts
▁isotope
▁Noble
▁Eleven
▁Nickel
▁ultra
▁Kos
▁lightning
rna
▁Galaxy
▁Fac
▁Bour
oxide
▁imagine
dorf
▁graz
▁Ambassador
▁indie
▁files
▁Paint
▁cuisine
▁identifie
▁lighthouse
▁index
oper
▁shy
▁claw
▁Brooke
▁Isabella
▁Winnipeg
▁bounc
hoo
▁AIF
num
▁Nile
▁aide
zan
▁Jag
▁airplay
▁McCa
▁Iranian
▁Search
▁antenna
▁Ue
▁supreme
▁stair
▁Observatory
▁inherent
▁imminent
▁aristocrat
▁Ill
▁dub
▁Economy
▁microphone
▁Nico
▁translate
▁choreography
▁flatten
▁substrate
▁holy
▁columnist
lier
▁tutor
▁Ibn
▁Experience
▁Locke
▁rerout
▁ka
▁pressing
▁Enter
▁shin
▁Add
▁wetland
▁Relations
▁embrace
▁stronghold
oda
▁Commerc
▁NES
▁Herman
▁outskirt
▁hostilities
vat
▁Policy
wicz
▁dams
▁missionaries
▁pope
▁Neville
▁Bog
▁Noel
AP
▁baptism
▁accession
▁nude
▁mates
▁Tuesday
▁Fitz
▁Armor
▁Shot
▁builder
▁Letter
▁Leafs
▁nave
▁Physical
SP
fjord
▁Casino
▁Luz
▁Memphi
▁Malaysian
▁enjoyable
▁outage
▁Levine
▁diocese
▁depriv
▁passionate
ethanol
▁Progress
▁pr
▁Chat
▁realise
▁wan
keeper
cke
▁Stanton
▁Venetian
▁furious
▁Einstein
▁Platinum
juan
▁mascot
▁gem
▁Help
▁Europa
▁exert
▁oval
▁Shankar
▁Sounds
▁practitioner
▁pits
▁markings
▁Factor
▁Pill
▁1794
cover
▁Belt
lov
▁Bul
▁Sons
▁clips
rative
▁sophomore
▁Seventh
hō
hPa
▁Moss
face
▁Factory
▁Revival
▁Promotion
▁quad
chon
▁Smyth
▁primate
▁allegiance
aceae
▁Ox
▁Gam
▁Madras
▁crust
vell
ancy
▁Heroes
▁magnet
self
▁ego
▁Matthews
▁Randall
glades
drich
▁Mariah
▁downward
▁Influence
▁dissolution
▁Financial
▁stemm
▁Naka
idney
▁Gaming
▁reinstat
▁temperat
▁ox
▁trauma
lé
▁tan
▁Tudor
▁magistrate
▁Fields
▁1798
▁Alexandra
▁demons
▁Lad
▁broadcaster
▁Wil
▁poles
▁geological
▁Vermont
dong
▁Rotten
▁stallion
▁Lyrical
▁Godwin
▁guess
ista
▁Boom
visible
▁fiber
▁bind
▁Operational
▁Agriculture
llo
Ender
▁Cret
atch
▁Strange
▁appealing
▁850
▁Hold
▁Mons
▁Shock
▁Cartoon
▁slender
▁Habsburg
▁prolific
ago
▁necessitat
▁Illustrated
▁boycott
▁Pakistani
▁casual
▁astronaut
▁Av
▁Course
▁anxiet
▁heel
urance
▁chronicler
▁Bismarck
▁Marion
▁Wan
▁Earp
lav
▁prevalent
▁Lakers
▁slogan
▁problematic
▁classroom
▁Greenland
▁235
▁Mitch
▁canyon
▁propell
itz
▁erod
▁pseudonym
▁plateau
▁psychedelic
▁beak
▁Batista
▁spike
▁Barker
▁fringe
▁Brain
▁Dela
▁137
▁Ref
▁coffin
▁Chip
▁Gibbs
▁Character
▁codes
▁compress
▁Restoration
▁Graf
▁Kumar
▁Kami
▁sacrific
▁Doom
▁pig
▁painful
▁Holiday
▁unsur
▁boring
▁devotion
▁prescrib
asi
▁Serv
▁postseason
▁Locat
▁Merc
▁grammar
▁incarnation
nthology
▁Flor
±
▁Clarence
▁Bloom
▁cartridge
▁expresse
▁truncat
▁Rockets
▁Erle
▁retailer
▁terminate
▁sci
▁Walton
▁Lum
▁Harald
▁rabbit
▁Pix
▁Llan
▁governors
▁disappearance
▁Ble
▁Burges
▁commissioner
▁outnumber
▁Roch
▁trustees
▁clue
place
▁lizard
aq
▁Ono
▁manifest
▁interfere
▁distort
▁elaborat
▁retract
▁Moffat
▁Rainbow
▁Bag
rib
matsu
▁Ai
▁Enem
▁barrage
▁archipelago
▁1819
▁interception
▁hairs
▁Albania
▁spoil
▁Pig
▁beneficia
▁recognise
▁justify
▁pend
▁Vulcan
▁clearance
▁graves
▁ecclesiastical
▁swimmer
▁Amsterdam
▁asserts
▁portal
▁tips
▁SK
▁entertain
▁tragic
▁Cunningham
▁kin
▁complications
▁civic
▁conscience
▁Rot
▁staging
▁utilize
▁1814
▁uncomfortabl
▁Masa
▁Sava
hawk
▁rework
▁Ronnie
▁defendant
▁123
▁Goldman
▁Facebook
▁Bono
▁Groen
▁Rita
ND
bili
▁substitut
leut
▁oxidation
▁crude
gui
▁intra
ál
▁380
▁Quick
▁iPad
▁outpost
iel
▁overlapp
▁Describ
▁flexibl
▁lone
▁Guin
▁Wine
gie
▁AR
▁Luther
▁vitamin
▁Elector
▁124
▁Gin
▁Patricia
▁Fal
42
▁Shirley
▁Oldham
▁drastic
wide
▁Thomson
▁viabl
▁Bryant
▁screenwriter
▁analyse
▁Laws
▁underway
posed
▁wheat
▁sixteenth
▁Geneva
▁Rao
▁invade
▁Taunton
rad
▁Reporter
▁Congressional
▁Cartman
▁Weng
▁Scouts
▁Fab
▁charitabl
pod
▁Tr
gro
▁Zen
▁diploma
▁originate
oso
▁Moe
▁propagat
▁Breath
RO
▁Gaul
IA
▁Peggy
▁Shad
Ebert
▁aggression
▁obsolete
▁Landmark
▁Won
▁126
▁trends
▁anticipation
▁composite
nut
▁illusion
▁evaluat
▁Duch
▁205
~
▁sighting
▁Scu
▁Whig
▁Bruno
▁Hole
▁Trouble
▁Shear
lsewhere
written
▁Olivier
▁Dav
▁1810
▁Gir
▁amass
▁Rodgers
▁cater
▁Wir
▁Wise
▁touching
orium
▁NHC
▁Image
▁Dominion
▁Romeo
▁acquir
▁Rebecca
▁Nuclear
▁Carn
▁Frost
▁Fitzgerald
▁Colony
▁midst
▁inhibit
tine
ô
▁linguistic
▁midfielder
▁Plans
▁Wilde
DM
▁Resolution
▁nurs
istice
▁Salvador
▁endorsement
▁Naples
▁rod
▁Hair
▁Rebellion
▁Cycl
▁Everett
▁terrace
▁execute
▁Dickinson
GS
▁Braves
▁cone
▁Sophia
oa
▁Literature
▁feast
rought
▁Evolution
▁Bac
child
▁Taking
▁Comet
hopper
▁algorithm
ière
▁sur
▁redevelopment
cystidi
birds
▁facto
▁Alec
▁fingers
▁shatter
▁adjoin
▁Dio
▁monk
▁Tomato
▁fabric
▁malaria
▁Marlborough
▁rallie
▁Keynes
▁addiction
ango
▁Rus
▁illuminat
▁Jenny
▁theology
▁numerical
▁Medieval
▁lateral
▁Climate
▁Kot
▁Flat
▁Pioneer
▁Fortress
▁deepen
▁Coal
▁Psycho
▁Wilkinson
▁spear
▁Abov
▁barbette
rina
▁offend
▁McCoy
▁catcher
▁Relief
▁constraints
▁Census
▁1775
nock
▁Royalist
▁canvas
▁honey
kon
▁cooperative
train
▁Murder
▁Eng
gat
▁Theme
▁refrain
▁truce
▁HV
▁staircase
▁bodi
▁Highland
▁Majest
▁passive
▁implied
▁populariz
▁keel
▁eccentric
▁fauna
▁Canning
▁Driver
erina
▁Veteran
▁Period
▁necessit
▁225
▁showcas
▁Hornet
▁Beau
atta
▁compensate
▁Eg
▁pivot
▁Sz
▁Moses
▁downgrad
osphere
▁theft
▁guideline
▁1792
▁proponent
▁defendants
▁suffrage
▁sighted
▁vaccine
▁governmental
▁Clifton
▁Santia
▁Picard
▁Sarawak
▁licence
▁Cind
▁chloride
tner
▁Multi
▁Brussels
▁Timoth
▁acquitt
▁Cumberland
▁progresse
▁Certain
▁repertoire
▁Teen
▁Milwaukee
▁Payne
▁Satan
lain
▁Mart
▁Dirt
rma
▁casino
▁144
▁Mets
▁Stark
▁pod
▁McClellan
valu
▁disadvantage
▁PopMatters
▁Creation
▁comedic
▁excavations
akshi
▁Honours
▁raider
▁Borneo
▁sermon
▁disruption
▁ignore
▁Freeman
▁Isabel
▁MW
▁ITV
▁haven
▁crab
▁Highlands
▁OS
recht
▁Novel
▁epidemic
▁Legislature
▁Fowler
▁skier
▁pitt
▁gill
▁aspir
MP
▁mortal
▁axe
▁mammal
▁slate
▁susceptib
▁reprise
▁parrot
oftware
▁Avatar
▁feeds
▁hierarch
▁Mean
▁approve
▁Cant
scope
▁Secondar
fight
▁Mono
▁Shap
▁Ig
alagasy
▁1500
▁Cove
satisfied
▁Municipal
▁Stur
hana
▁scuttl
▁inhibitor
▁Outer
▁cannons
▁Bench
▁Rider
▁wit
▁sneak
▁pledg
quette
▁redesignat
▁cart
wear
▁embedded
▁Marty
▁Ranch
▁Flotilla
▁Biden
▁dash
grove
▁reel
▁Gau
▁Chopra
▁Chandra
▁vague
blew
▁Gl
▁fork
quil
▁Analysi
▁locks
ota
▁inheritance
▁Beaver
▁Parent
▁Audio
▁franc
▁plains
AD
▁Cul
mission
▁confirmation
▁piercing
▁epithet
ahu
▁Maz
▁Rank
▁Chaplin
▁nineteen
▁rhyme
▁spelling
▁Mam
▁sew
▁psychology
▁Terror
▁Cromwell
▁asylum
DP
▁breakaway
▁provisional
ural
nese
▁Compar
▁advent
▁tombs
▁1825
▁crane
▁contender
▁institut
▁deserve
▁firearm
▁Okinawa
rak
ī
▁Own
▁facilitat
▁Rule
▁recit
▁Lombard
▁stationary
▁selective
▁maxi
rising
▁Paralympics
tun
▁Lille
▁Sher
spinal
▁healing
▁resistan
▁condens
▁dim
▁incentive
▁comput
▁Arg
▁monetar
bow
▁envoy
▁Savoy
▁Davenport
▁Beauty
▁Nasser
▁draught
▁picks
▁lobe
cía
▁congratulat
▁fixture
▁demise
▁inmate
dog
nmi
stronomy
lap
▁Georg
▁merc
▁Nat
▁Saffir
▁Phillip
▁Cambodia
▁Paradis
▁rig
▁1804
▁restrain
▁masters
▁stylistic
▁Shen
▁buff
▁1789
▁rehabilitation
reafter
▁warming
▁Clu
▁herb
▁storyboard
▁Benson
uala
▁Tik
▁Patter
▁dictator
▁suspicious
▁1795
▁nut
MF
▁stimulat
▁Ok
media
▁municipalit
▁Irene
▁1824
▁Talbot
▁Gunn
mund
▁Komba
▁mould
ollywood
▁Š
▁Example
▁circum
scape
80
▁outlaw
▁donor
▁Eurasian
▁detention
▁Huff
▁petrol
▁Saga
ello
▁matrix
▁burrow
▁probabilit
▁lumber
▁168
▁initiate
▁Poor
▁spectral
▁minded
▁mason
▁Totten
▁missionar
▁basal
▁LA
▁lent
▁scrutin
▁morpholog
ID
illy
▁Fla
▁tenor
▁glaciers
▁Gur
▁Lili
▁Alb
▁kickoff
aka
▁Whedon
▁Antoine
▁clinch
▁Goebe
▁phenomena
plane
IR
▁Casey
▁Nike
▁Reverend
▁mural
iform
rov
▁Tau
▁1821
▁tumor
▁inundat
▁exaggerated
▁satisfying
▁synagogue
▁harass
▁resonance
EA
▁MacDonald
▁Thank
▁pie
▁Ton
▁Helena
▁Letters
uld
▁noir
▁glee
▁setback
▁Sale
▁Buffy
▁assassin
▁Townsend
▁folklore
▁leisure
▁Bonnie
▁Rising
▁Kanye
▁Kink
made
▁Bret
▁Colombia
▁creep
▁pronunciation
▁Gee
▁talents
ère
storm
▁Mom
▁Coming
▁canop
▁Sally
▁ceramic
▁hiring
▁Beech
characterization
▁Rings
▁simulation
▁treatments
▁Bess
▁Finance
ester
▁prohibition
▁daylight
▁surveillance
phone
NS
▁Chance
▁rhythmic
▁picking
▁Hamlet
▁productive
▁nail
rine
▁butterfly
▁Ek
▁recycl
▁1797
▁ambulance
▁niche
ivers
▁Graves
▁Try
→
▁Fry
▁ridiculous
▁Tate
▁Moment
▁damn
▁BL
CLC
▁Material
▁milestone
▁1805
▁stipe
▁Themes
arrell
▁simplifi
▁Aden
▁Toll
▁Griffith
▁Editor
▁Writer
▁1780
▁transaction
▁appointments
▁Colonial
‐
▁equation
▁Woo
▁Romantic
▁Malvern
▁astronomical
▁Vickers
▁Stefan
▁singular
▁soprano
▁thesis
▁Alamos
▁Pratt
▁senators
▁whit
▁stabiliz
▁reassign
▁logic
rigg
▁Prague
▁consum
▁Lam
▁Aber
▁Mauritius
▁Hogan
▁Zer
▁racis
▁banking
▁shame
▁129
tum
▁logical
omi
PP
▁Papa
▁Word
▁Slave
▁Ahmad
▁Jarrett
▁communicat
▁flotilla
▁loving
▁minds
▁Monkey
▁accolade
▁Job
▁Appli
▁HBO
▁raven
▁psycho
▁atom
flo
▁Glaston
▁Nadu
▁splitt
bha
▁Whale
▁Rookie
optic
▁Slav
▁wrist
▁indefinite
▁Oka
▁Grass
▁Antioch
▁earl
▁congestion
▁nightclub
▁Sanders
▁moth
▁Tat
▁Schw
▁Eugen
▁traders
▁Suffolk
▁financing
▁commuter
▁Stevenson
▁CA
▁Cooke
dition
▁applaud
▁Few
iagara
▁bump
▁Jew
▁eu
▁Kylie
▁Criminal
▁Mormon
▁Sang
▁Silva
otomac
▁advise
▁feather
▁Boris
▁sponsorship
▁Manitoba
▁Chrono
62
▁Roma
▁bachelor
▁ascent
▁Hanover
▁Chal
▁emitt
▁Yes
clined
defeated
▁stupid
▁Rowland
▁anyway
▁dys
▁Feature
▁Nassau
▁angular
▁Inner
^
▁Hawke
▁freighter
▁projectile
▁Vette
▁Sabre
▁revive
▁premises
▁enclosure
▁215
▁Commando
▁Honduras
▁Fiji
gula
omys
FA
course
▁decreasing
▁Fin
▁mistress
▁skat
illard
▁Io
▁Sakura
▁Multiple
city
▁sporadic
jur
▁consul
▁apprentice
ML
▁Keep
inous
▁overhead
▁mandate
plex
▁Hunters
▁Barb
▁Brady
bet
tention
bur
▁Katherine
heart
▁Summit
▁gradient
HF
▁Shell
yang
▁coincide
series
▁wavelength
▁modell
▁Rodriguez
selves
▁173
▁3000
▁Jaguar
▁Kell
real
▁tackles
rius
cephal
▁Epstein
▁SEC
hausen
iety
▁Lowe
▁Scheer
tempo
omorph
▁dislike
▁cultivation
llah
▁essence
helps
eller
▁Hind
▁Role
▁Hemisphere
▁Buddha
▁Radi
▁geographic
▁outright
▁excitement
▁plent
▁inject
teractive
▁Till
MC
▁tolerance
▁Scream
▁hood
ummer
▁Garrett
▁Goes
▁swell
▁minefield
▁Version
▁Uncle
anja
▁sheer
anto
PO
▁Wigan
▁Mao
life
orum
▁decorative
▁satirical
▁publiciz
▁wip
wen
▁Fritz
▁salmon
▁Byrne
▁Neal
ssex
▁Gei
▁telegraph
▁inconsistent
▁endur
▁ripp
pathy
▁Vit
▁Tyr
▁diversion
▁boot
92
▁voltage
▁Vor
▁boo
▁generous
quez
▁perish
▁bride
▁Byron
▁reasoning
▁Door
mini
gong
rff
nitz
street
▁vest
organ
▁Higgins
▁Animat
roid
▁Standing
▁parameter
▁Reaction
▁Dear
▁142
▁Dag
▁Remember
▁340
▁Strat
▁Paralympic
▁boots
▁Loop
▁reptile
▁Rumble
▁detonat
▁utilis
▁commemorative
▁capp
▁Exit
odont
▁prejudice
▁1834
▁reissue
▁Deb
▁Oswald
gone
▁limb
▁Coin
▁Klein
▁Poles
▁letting
bone
cule
▁bribe
▁Gru
ʻ
▁Hari
▁headquarter
▁rite
hm
▁290
▁Pound
▁Tran
▁lowland
▁Kang
▁Mata
▁premature
▁tanker
▁Vampire
▁Gul
▁Dodd
▁Amin
▁lib
▁Garcia
▁loris
▁Scale
▁penetrate
▁Orion
▁Carlis
▁concession
about
▁cake
▁Macdonald
▁theorem
▁Quatermass
▁centimeter
▁Circus
traction
fur
▁Bedford
▁bloody
▁traveler
▁Proto
▁Tomb
▁chromosome
▁Bomber
▁Nina
▁McCay
▁Confederation
▁rendezvous
▁Atomic
▁disarm
▁bolster
▁vertebrae
▁dip
Donnell
▁candidac
▁610
▁Terra
▁allusion
witz
▁Gandhi
▁cigarette
▁Northampton
▁Cruise
▁Cab
▁decent
▁Ambrose
tale
▁Crowley
▁tiles
▁Pap
▁Prayer
▁Manil
▁Atkins
autobiographical
▁Rockefeller
▁Wo
▁Myers
tat
▁phrases
▁Canton
▁vegetables
▁Ariel
▁Brom
▁Everton
▁Merit
▁Ars
▁Britten
▁seminar
▁rot
▁specialis
▁Cub
▁Twelve
▁unus
HQ
▁Internal
mara
ohn
▁Hack
▁Fle
hiro
▁275
▁estuar
▁ladies
▁republican
▁explode
▁Eliot
▁Marseille
▁slat
elo
▁marshal
ogan
▁Quaker
▁Marina
▁modify
▁Gamer
union
ikovsky
▁retriev
▁motto
▁Azerbaijan
raja
logy
▁formulat
▁clarifi
▁Miranda
▁Berger
▁Wol
ør
ecki
NI
▁Minh
▁skirt
▁scan
▁Reyes
▁Barre
▁Interest
▁murderer
▁Anatomy
▁Linnae
▁Cit
▁noun
▁Marriage
▁1828
▁Eddy
▁Dungeon
▁illustration
▁intervals
▁Mercy
▁facade
▁divers
▁Hereford
▁Belfa
▁Wie
▁Mandel
▁Petit
▁Rex
fill
▁Robot
▁Running
▁Buddhism
lein
▁Wen
▁Concord
▁Ranger
▁Bolt
▁autonomous
▁implies
▁AFC
▁unreleased
▁Unfortunate
ddle
▁belly
▁Ultra
▁Direction
▁Cory
▁reappear
▁Blind
▁Clem
▁Peterson
▁hammer
▁Milky
▁MacFarlan
mbient
▁Karnataka
▁Peck
▁pipes
▁146
▁Robb
▁worry
▁Raid
▁pok
▁expenditure
▁vanish
▁jumps
▁chimney
▁Megan
▁mor
▁Northeast
▁invertebrate
▁retro
▁distribute
PG
▁Buchanan
▁Pride
▁surplus
▁Toby
▁Odin
▁Epi
trop
bree
▁phosphor
▁Cau
▁pleasant
Connor
▁libraries
oj
▁fifteenth
▁Kubrick
▁spine
▁Cotton
▁hearings
▁Bram
▁choral
▁Breckinridge
▁Kerry
▁Aero
▁inappropriate
▁goat
▁Ludwig
▁articulat
▁enrich
clus
▁fragil
AE
▁lords
▁Bau
▁chat
▁1816
▁operative
▁Weaver
ario
▁Pul
▁shuttle
▁Mozambique
▁delicate
▁Save
▁addresse
▁brave
oven
issa
▁expressway
▁villagers
▁intermittent
▁hemisphere
▁genome
▁smile
▁Leng
▁beef
▁Eden
▁Flynn
▁moons
▁grabb
▁wax
church
▁Built
▁158
▁Hum
▁deception
▁manoeuvre
▁geometr
▁OK
▁assisting
▁Savi
▁seller
▁realign
▁Purana
▁Lara
SK
▁Timor
▁troubles
▁adorn
▁Appeal
▁pornograph
▁commut
▁conspicuous
▁Af
▁Heather
liberation
▁insane
▁Wesley
▁MA
▁Chor
wak
▁seals
▁747
▁Cali
▁Thousand
▁Morocco
▁rever
▁regulator
rig
▁Bald
▁vacuum
bill
▁Ord
▁spinn
▁Classification
ablo
▁Mayer
▁mathematician
▁Havil
apa
▁masculin
▁Gall
▁choreograph
Scan
▁Gloria
urassic
▁macro
▁alphabet
▁Nordic
▁Peng
▁Button
▁syndicat
▁Opening
▁148
▁posters
itor
▁ambiguous
▁Revenge
▁rehears
▁candle
▁rodent
600
▁151
▁disguise
▁cleaning
lect
▁Bug
combe
▁Emerson
▁bizarre
▁hydraulic
▁superb
ail
▁tariff
▁Mae
ija
▁Trondheim
▁Bacon
▁excavation
▁Ö
pul
▁lavish
▁Hou
stability
▁revolv
▁Salem
▁Saigon
▁Rowl
▁Napoleonic
▁Vatican
▁Study
▁Consider
▁Infinit
bels
▁Conn
dated
▁Avi
▁Trial
gang
▁absurd
▁Connor
▁Bolshevik
▁void
▁expose
▁tortur
▁Olg
itra
▁tally
▁migrant
▁tactic
▁impedance
▁wheelchair
▁Coleman
▁prequel
▁cautious
▁Think
▁Adi
▁Pauline
▁Bonapart
▁contention
▁listings
▁Demon
fort
▁tense
▁Kyo
▁lamb
▁excuse
▁moist
▁182
shack
▁symmetr
lang
▁Cald
▁Citizen
▁bathroom
▁Anime
▁Handle
▁Fram
▁Badge
▁coloration
▁clutch
▁plaster
▁tunes
ibi
▁mg
foot
▁triangular
▁Buckingham
▁expressions
▁morphological
uction
▁classmate
▁Charlton
▁graphical
▁customar
▁Philharmoni
▁Nicaragua
▁Chet
▁2017
▁ECW
▁Khmer
▁vir
▁paternal
▁warmer
▁posit
▁alienat
▁cliffs
▁Golf
▁Marx
▁Polo
▁Chlo
plan
▁Mani
▁Strip
▁Tarant
▁Lester
▁Om
đ
chem
▁Environment
▁Sep
▁Thirteen
▁nominate
▁desk
▁Access
▁Kun
▁Cain
Italia
▁Monitor
▁Leno
▁inaugurat
▁spokesperson
▁haunt
▁Bachelor
▁Zan
▁BA
▁voluntar
▁Buzz
▁Brun
▁barb
▁Harriet
▁Dubai
hello
▁203
SV
▁plural
▁holder
▁Mod
▁dungeon
▁Kant
▁earnings
fleet
assi
▁synthetic
▁Natali
laine
▁contempt
▁Watt
▁Militia
found
oba
▁Versa
▁quarry
▁glove
▁Pun
▁vapor
▁exacerbat
▁enduring
▁subscription
▁lean
▁Rescue
▁Vig
▁coordinator
vre
▁programmer
▁Ou
▁Flyer
▁commissioners
▁spun
▁Tale
▁Judy
▁grind
▁kits
▁impair
case
▁fission
▁staple
▁constituent
▁snakes
▁registr
guchi
▁SM
▁messenger
phen
▁disregard
▁legislator
▁plagu
etto
▁Hence
▁niece
▁Certification
▁Frontier
▁Sudan
▁princes
▁psychiatric
▁310
▁pulse
▁Activis
▁Lod
▁hoist
▁tentative
▁underside
bir
▁evolve
▁Regina
▁390
▁highland
▁Holt
▁Michele
▁syllable
▁bestow
▁Thom
▁Accolades
▁wireless
▁Janeiro
loo
ción
·
▁phylogenetic
▁Sisters
▁orchestrat
▁shareholder
▁bleeding
▁Shrew
nard
▁exploitation
▁Tao
BO
▁Macedonia
▁1818
▁Persia
vik
▁reproduce
▁Chrys
▁innocen
▁Fruit
▁Consul
▁supportive
▁Boss
SI
▁toilet
▁Ukrainian
zur
▁Travis
▁Scandinavian
▁severit
▁Et
▁Hydro
▁Parade
▁Kap
▁arguabl
▁demos
▁Brent
▁reggae
▁exports
walk
▁caste
▁Damon
▁Bieber
swick
▁Jericho
▁Critic
rish
▁Jutland
▁Gale
asia
liness
▁Zhang
▁Carlo
▁Nice
▁Midnight
▁hormone
▁Tob
▁aria
PF
▁Santos
▁localiz
▁Crimson
▁grasp
▁foreigner
▁Aya
▁disguis
▁Waterloo
iri
zhou
▁absorption
▁pitche
▁Samantha
upp
▁Galileo
▁Shepard
ggy
▁Bei
oku
▁pelo
▁possesse
▁snout
▁mutiny
▁Reconstruction
▁fade
▁tapes
igne
▁QF
▁traverse
▁Stafford
▁glacial
▁orphan
▁organism
▁Virtual
▁Credit
▁RAR
▁Dragons
▁aging
▁totall
▁pat
▁convict
▁Coco
▁degrad
▁pepper
▁soup
▁Atari
▁Edi
▁Cir
▁Ard
▁torch
▁pest
ET
▁foe
▁regent
▁pneumonia
▁apple
▁Eno
▁blunt
▁nano
▁Maiden
▁discs
▁symphon
▁NW
▁inflat
▁Santo
▁wield
▁applicant
▁vacat
▁Libya
▁Terminal
▁overshadow
▁Pee
holm
▁Clifford
▁grab
▁Joann
▁attach
bernat
▁Rams
▁EC
▁dur
ledge
▁rift
▁berth
▁RCA
▁Cath
▁Inspector
▁Gram
▁slim
▁ranch
▁McL
enstein
▁Bean
manship
▁Religious
▁Read
▁perfection
▁tetra
▁partition
▁sweat
▁Ep
ynopsis
▁Danc
▁batch
▁Amor
ador
AU
▁inventor
▁noon
▁Navigation
▁turbo
▁Fourteen
▁substances
▁luc
▁apologi
▁Coral
▁monastic
▁Peel
enthal
▁Cay
Malley
▁Slo
▁AFL
▁Soldier
▁Doyle
▁Confederac
▁intro
▁133
▁Ecolog
▁Bron
▁440
▁Specific
▁affinit
▁pseudo
acti
XIV
▁alcoholic
▁reunite
▁undermin
Rankings
▁breeder
▁McCl
qa
▁Hiro
▁Dion
▁Salon
▁206
▁practic
▁topping
wold
umble
org
▁Bury
▁dismay
▁racist
▁spherical
▁Physics
▁codename
▁Poole
▁radiat
▁Forrest
▁Wulf
▁Collier
gne
▁ancestral
▁Bruins
rava
tler
▁elegant
▁Venezuela
▁everywhere
▁Stevenage
mania
▁unavailable
▁Maritime
TB
▁biblical
▁Into
▁whistle
▁Hermann
anta
▁Lemon
▁Meadow
▁radial
▁aisle
▁consecrat
▁upload
▁erotic
▁radi
▁grief
▁simplicit
▁Gerard
nus
▁Pant
wave
▁decompression
▁undertaking
▁coordination
▁640
▁regulate
▁Lowell
▁shores
▁playwright
▁Laurie
▁Friend
▁Clause
▁retaliation
▁blank
▁Politics
▁Higher
▁Giovanni
▁explosions
▁grip
▁Barney
▁Istanbul
▁unfortunate
▁compell
mma
▁AAA
▁please
▁Tipp
▁Programme
▁ethical
▁Jedi
▁monkey
öne
▁Requi
▁Congressman
▁Him
▁plague
script
strom
RD
normal
▁subway
▁Slovenia
PR
saurus
▁Afghan
▁Rifles
IM
▁preferr
▁discount
▁nun
▁Rud
▁Lover
▁reformer
43
▁Polar
øy
▁Kendrick
▁Atlantis
hardt
▁Czechoslovakia
▁withstand
▁implications
▁plunder
▁Kul
▁pulp
▁tilt
▁Macedonian
▁anybody
▁quadruple
▁Grammar
▁ration
▁skirmish
▁electronics
▁Northumbria
▁damp
▁Kamp
▁swear
▁intrigue
▁sake
▁Vikings
▁Burt
▁Nun
▁Crusade
▁Patrol
▁Suzuki
▁Oval
▁disorganiz
▁Shō
MI
▁Pleasant
▁Paulo
▁Milk
▁cognitive
▁angel
▁pairing
zko
▁201
▁Braun
▁minorities
ía
idian
▁Norris
▁Sche
▁Archie
▁Mansion
verse
▁Fann
▁Gala
▁Reservoir
kkinen
▁penetrat
▁holders
▁compulsor
▁Jerom
▁heighten
63
▁optimistic
▁Contest
▁rack
▁Exhibition
▁Padre
▁Kappa
▁Miya
▁doom
dhar
▁homeland
▁urine
▁Lutheran
▁juveniles
▁1827
▁196
▁295
▁cartoonist
▁Traffic
buck
▁cusp
▁Tol
▁activate
tled
▁NK
▁Huron
▁organizer
▁ideological
▁1777
▁intake
▁cadets
FX
▁Harrier
▁Brownlee
▁NH
▁134
kowski
▁deflect
pont
▁Citie
▁incubat
reach
▁Benedict
▁impose
▁Cochrane
▁searche
▁unfair
▁Saskatchewan
▁Avery
▁Alpin
▁carriages
▁Priest
▁attendant
▁Grow
▁urgent
▁grassland
▁Confession
▁Berk
▁mare
▁MPs
▁duke
▁Sacramento
▁MIT
▁ornament
▁anarch
▁Sell
▁fracture
▁Trump
▁acquaintance
LC
▁Gui
▁extraction
otype
▁heredit
▁Ashton
▁prophet
▁canals
▁Mond
▁Boer
▁Blow
▁Hebride
▁drinks
▁Williamson
▁Blame
▁Hitchcock
▁inspire
▁Piper
▁hatred
▁Malone
▁Pru
▁rid
▁Azore
▁AT
▁Engine
cane
▁Recorded
▁Wilco
▁economist
▁Seward
▁Informer
▁venom
▁Mercia
▁Thru
wulf
▁breakfast
▁Elle
▁Tax
▁Dow
▁Rules
▁exhibitions
▁morph
▁contrasting
▁strat
▁fundrais
▁charming
▁Alba
▁equilibrium
▁McCorm
opus
▁Krato
▁electromagnetic
▁Sac
▁flap
▁Deva
▁sanctuary
▁Auckland
▁Schneider
▁parodie
▁Hak
▁AG
▁promoter
▁pawn
▁conferr
▁bab
▁Arcade
▁Clap
onym
▁Bonn
ña
▁Flo
▁sting
▁Divine
▁successors
▁Sabbath
▁Canar
AL
▁restraint
▁Invincible
▁Mello
▁groom
▁federation
▁antic
▁Tier
▁alleg
▁Purple
▁zombie
▁Jenkins
▁Khalid
▁Anniversar
▁Extreme
▁interactive
▁Northwestern
▁Texian
▁timeline
▁abolition
▁slash
ogenic
▁tricks
▁Mysore
▁influenza
▁Presidenc
▁1826
▁Carnegie
▁Cord
▁Armament
▁Ul
▁Kei
▁flute
NZ
OP
VO
Á
iko
neuve
▁integer
▁horizon
mbo
▁Mira
▁imitat
▁discretion
▁overrun
▁pigs
▁Hyderabad
▁Como
▁Angu
▁Nest
▁1817
▁councillor
vill
▁abdomen
▁Cult
▁Haynes
▁Kesha
▁Thanhouser
▁Scharnhorst
▁recruitment
▁shoreline
iah
▁Sejm
▁adher
▁Mud
▁Move
▁Odd
▁Dresden
▁circus
▁Filipino
▁149
▁airlines
▁490
▁Bone
▁alpin
▁proton
activity
▁resent
▁156
▁Flora
▁Drum
▁Stirling
▁vulture
▁Conway
▁incredibl
▁thrash
▁taper
▁Baden
▁Hooper
▁660
▁straightforward
▁Samoa
▁respirator
▁tweet
▁Mare
▁Lori
▁bailey
▁Willow
▁comply
▁Slavic
▁Industries
▁thrill
▁Tak
▁sensation
▁chemist
▁Regent
agi
▁Publications
▁confusing
▁Were
BS
▁Hansen
▁Piano
▁Sag
sborough
▁ACL
▁synthesizer
▁musket
▁Rebel
▁Evidence
yx
steen
▁Statistics
▁vivid
▁Alma
▁Rhythm
▁Provincial
▁Wor
▁147
CP
▁Hang
▁consort
space
▁tam
▁Katy
▁Grin
▁136
▁Crescent
▁Porto
▁mold
▁buyer
▁1803
▁Russo
▁Trench
▁Meliss
▁obligations
▁cycling
▁Typical
berger
▁Eurogamer
▁Liberation
imo
iyah
virus
▁CNN
▁admitt
▁satisfy
mil
▁Una
▁Levin
▁Hob
▁reconcile
▁bays
▁midway
▁Dante
▁Kawa
▁Hawks
▁arid
▁Pict
▁implant
▁Tail
▁Laurent
▁gent
▁glory
▁1811
▁communis
▁Lore
▁pour
lysis
▁translations
▁Bright
▁vassal
▁420
▁eternal
▁1823
nelli
▁toad
▁Sonn
▁Henson
▁Finch
▁Superior
▁Isa
▁Francesc
lair
▁twins
▁Text
▁convenient
▁proclamation
hard
▁feudal
▁neighbourhood
▁stunning
amine
▁Toulo
▁overflow
▁Spark
ène
▁Hartman
▁Daughter
▁Elephant
▁conifer
▁viewpoint
▁Yorker
▁delight
▁shak
▁basket
▁Mull
▁Rainfall
▁Gallagher
▁redevelop
▁Cheshire
▁Tcha
▁Escape
▁predation
▁Calder
▁Indo
ego
▁1791
500
▁extinguish
▁Soap
▁glad
▁USSR
▁Fortune
▁confluence
▁Roland
▁revisit
▁Mersey
▁legion
▁Hurle
▁Toyota
▁HMA
▁chef
▁disgust
▁oust
▁treatise
comb
eastern
▁assertion
▁raft
ê
▁Aboriginal
▁assassinat
anga
bony
▁Diamonds
▁Morale
▁helm
▁Russ
▁influx
▁relocation
▁fluoride
▁Haas
▁salv
▁Officials
▁Lotus
pati
▁Sheridan
▁Hom
▁crawl
▁takeover
oro
▁LS
▁offset
▁prizes
▁Popp
▁Whitehead
▁Gut
▁abnormal
▁Nobod
▁specifications
▁Sabin
▁drunken
▁solved
▁Oric
▁Google
▁neuron
▁Cascade
▁Thur
▁stabb
▁Myst
▁porch
hief
▁139
▁Zeppelin
▁refitt
▁Pie
ñ
▁Theory
▁geolog
▁appreciate
▁Macbeth
▁Bella
▁anatomy
▁actresses
corn
midst
▁spectacle
divid
▁153
▁Index
▁Orient
▁calibre
lift
▁SF
▁Darkness
alzac
▁Weapon
▁Camden
▁Flint
▁Dec
▁taxonomic
▁inauguration
▁plea
▁painters
▁hp
▁1783
▁travers
▁Romance
▁Herb
▁saxophone
▁Spokane
▁shelve
▁Hazel
▁Loud
▁ST
▁Rouge
▁Reach
▁chill
▁Pav
▁royalist
SS
▁archer
▁immers
▁Mott
tuition
▁Truck
▁preach
▁NSB
▁Root
▁judgement
▁approximate
CF
▁superficial
▁linger
▁edible
▁Ike
▁lens
▁Triangle
eaux
▁Carbon
▁Ulys
▁Fried
▁Rei
▁Mysterio
▁α
▁Riot
▁Plate
isman
▁fraternity
▁Räikk
▁Autumn
▁matur
▁writ
▁Weiss
▁botanist
▁scal
▁Doc
▁sour
elic
FF
▁Guns
▁carnivor
▁Byrds
▁surgical
▁Gotha
▁Wish
▁finaliz
▁Rifle
▁moderniz
▁Cruiser
▁crow
▁Wehrmacht
▁Shank
▁Nationalist
▁skeptical
glass
▁filters
eschwader
▁worshipp
▁needle
▁thinn
▁Aqua
▁Mangalore
▁1813
▁abbot
▁cutter
▁consonant
▁linebacker
▁borne
▁lithi
▁breakup
flow
▁Barkley
▁161
▁furnace
▁pun
▁Suther
bacterial
▁430
▁Katrin
hine
▁Lap
▁semifinals
aylor
▁Custom
▁precaution
▁denote
▁click
ün
▁salvage
▁Wilhelmsha
▁Product
▁docks
▁Millwall
▁Wiggin
icular
▁Rica
▁rage
▁smallpox
sea
illes
▁Pony
▁pottery
▁occupant
▁unidentifi
▁lethal
▁sensitivity
▁Gaud
▁GM
▁Arriv
▁hawk
▁GDP
▁bog
▁Chilean
▁Shelby
lemish
▁magnificent
▁surreal
▁disapprov
enham
▁occupie
▁Bolivia
▁Cyril
▁affiliation
▁Baghdad
▁Elliot
▁Doo
▁litre
▁Dictionary
▁proportional
▁Hawkins
▁carpet
▁nasal
▁Pasha
▁Rum
VE
▁tern
▁Banner
BN
▁163
luxe
▁pathogen
▁speculate
▁reissu
▁Jal
opping
▁friction
▁Mesa
▁Cornish
▁Domestic
▁Yun
▁optional
▁induce
▁vertebrate
▁aristocrac
▁skyscraper
▁Score
AW
ugh
▁Reader
▁geography
▁Scapa
ß
▁Companion
▁denial
▁Birth
▁Wire
▁arbitrar
▁Kru
▁nuclei
rem
▁lifespan
▁flirt
▁rewrite
▁Gwyn
▁Dunder
▁Mifflin
▁subdivision
▁gum
▁immigrant
▁Sister
▁Universit
▁herald
▁capsule
▁Basic
▁Yar
hime
kai
▁negotiat
▁applie
▁coma
▁Destroyer
▁entrepreneur
▁hostility
▁Marvin
▁Radiohead
centennial
▁backstor
▁rower
▁Luka
▁Alberto
▁packaging
▁Deer
▁Marketing
▁Cyprus
▁VanDerWe
enko
▁resurrect
▁Wanna
▁touche
▁Session
▁lobbi
▁Sah
lik
▁Gong
▁143
▁transverse
NP
▁Split
▁Coulth
▁timeslot
▁Bole
▁supplier
▁Poli
illi
▁Sylvest
bag
▁robin
▁lungs
▁ratifi
▁Torchwood
▁Yankee
bau
▁Steeler
▁Spaniel
▁precipitat
▁Pula
▁crashe
▁premium
▁advancement
▁blu
▁Gallan
▁Ricky
▁server
▁Boyle
emost
▁Plateau
▁unsign
▁Amanda
▁cadet
▁Feel
PEC
baum
▁Robbie
▁annexation
▁Virgil
▁Gret
▁disability
▁Valve
▁Worth
▁Dress
▁Mate
▁drowning
▁Nottingham
uni
▁Scor
▁Lup
▁survivor
▁succumb
▁Sit
▁Publisher
pitz
▁BB
tress
▁toxicit
▁stealth
▁Tulsa
▁301
▁humanitarian
▁wisdom
▁monkeys
▁Episcopal
▁Shop
▁McCo
cock
▁deserved
▁Cabo
▁verifi
▁abduct
▁Archives
▁dialects
▁Sat
▁Extension
▁pilgrimage
nberg
▁Amir
▁Effect
▁Hercules
CAF
▁Gateshead
load
PL
▁engraving
▁bunch
metry
▁gentleman
aux
▁Ramsay
▁Sovereign
aro
▁technician
▁Naga
▁prototypes
▁Tornado
▁Favre
▁booklet
▁notch
▁conspirator
break
▁stretche
flower
▁Print
igo
▁nationalism
▁criticize
▁Seal
▁Omar
▁Ruf
▁Merchant
▁1802
▁deputi
▁synthesizers
▁segregation
▁magma
position
▁Map
▁erratic
▁bun
▁UNESCO
▁inadvertent
▁upright
▁quo
▁Yong
▁gym
ldom
▁167
onne
▁Upanishad
▁gatehouse
▁Eaton
▁Thanksgiving
▁Lep
▁migrate
▁accusing
▁Frankfurt
▁Experiment
mbra
▁snap
▁Bey
▁Moran
lai
▁Fountain
▁Rodrigue
▁Slip
▁muster
▁cruel
anne
▁Sophi
▁Zam
anna
▁enrollment
hether
▁Ulster
▁Algeria
▁swords
▁Kosov
▁pann
▁Emanuel
▁façade
▁Resources
cci
▁Abbott
▁Johor
▁Belarus
▁peer
▁unload
▁Kitchen
▁recorder
Fix
▁Territorial
▁freez
▁capsiz
▁clad
▁Jakarta
▁Downtown
▁forage
▁Drug
▁Sita
▁Spock
state
▁Valeri
▁indicator
▁curl
loud
ocene
▁Colour
▁lust
▁beetle
▁mediocr
▁Movies
▁interceptions
▁Nirvana
▁hut
▁CP
▁Orr
▁Gruppe
▁inventory
▁Ida
▁automat
part
emia
▁sect
▁loot
▁Malaya
▁Woody
▁relie
fic
▁occult
▁chocolate
▁turnover
▁Trojan
▁Juno
▁Runner
▁Bungie
FB
▁brewer
▁Reign
▁clashe
▁infamous
▁mist
▁Progressive
▁Fermi
▁1778
▁inexperienced
▁ecosystem
pala
▁ID
sleep
▁Devi
▁Havana
▁yellowish
iana
ophone
▁Fairbank
▁Wash
▁email
▁Hama
BE
▁Baba
azza
▁René
▁bidd
mobile
▁injection
▁subfamil
hak
▁Hamlin
RL
▁Rez
▁maid
▁aspiration
▁Moh
▁displeas
▁elbow
▁1822
▁Luca
▁peculiar
▁forgive
atu
▁connector
addock
▁apologize
▁560
▁Hoo
▁UBS
▁concessions
▁Reef
▁shoe
▁sonic
▁artefact
▁Canne
▁BAFTA
▁pastor
▁tailor
stick
▁alumini
▁renounc
▁Sawyer
▁Rodríguez
▁tuberculo
▁adjustment
▁disciple
▁sync
▁Beverly
▁sculpt
▁theropod
▁snail
▁Ninja
▁Manga
▁Fantastic
▁Winners
▁Noah
▁Hamm
▁meditation
▁unite
▁Dynamic
▁Nik
▁geo
step
scale
▁Oz
▁Leone
▁Pola
▁renewal
▁Stru
▁Severn
▁Cort
▁chancel
▁entit
▁Buccaneer
▁repell
▁dignit
▁veil
▁Müller
▁fielder
▁Massacre
▁equator
▁404
▁Cla
▁Heli
▁exclude
▁landowners
▁stranger
abel
chet
▁bargain
▁interval
▁evoke
ibald
▁Lisbon
▁fledg
▁illegitimate
▁Pose
▁Dramatic
▁Keller
▁Arbor
▁Falkland
▁Nikola
▁slid
ket
bay
▁Mask
▁Helm
▁testify
naut
▁Eich
▁cutscene
▁recaptur
will
▁feminine
scribed
▁rabbi
▁254
▁default
IP
▁fatigue
▁waterway
uto
▁warns
▁celesti
ç
▁alumin
acious
▁Lincolnshire
▁Unknown
▁Harlem
▁cliché
▁wolves
▁Sims
mei
lake
▁bolt
▁disturbing
hab
▁Ellie
▁Gator
▁Gross
▁Timbaland
▁garb
▁amusement
▁Speer
▁Argu
▁gorge
▁Plum
▁Nigeria
▁dusk
▁Rim
▁Darius
MX
▁Different
▁Xeno
▁Terrace
▁Kart
worm
▁Appear
▁Levi
▁hilarious
▁Ravi
▁salarie
▁Legends
▁Gel
▁Má
▁sewer
▁imag
▁conflicting
TE
▁Keats
▁Leth
HC
▁Gorge
▁Lae
▁Issue
▁Rafael
▁178
▁busies
▁Icelandic
▁peat
▁Augusta
▁Bulldog
▁Account
▁experimentation
hav
▁blanket
▁Hide
iš
▁photon
util
▁Oiler
▁scent
▁Abyss
▁Johannes
▁Treasure
▁Horace
▁sentimental
▁forensic
Hz
uta
▁chancellor
TI
▁pennant
▁Apache
▁Killing
▁Sumatra
▁hyena
mind
▁erroneous
▁Lot
▁nett
▁Magna
▁Alfons
▁farewell
▁Hobbs
▁incorporation
▁Qing
▁Wilfri
▁rockets
▁Passenger
▁Dyer
istan
▁Severe
▁Olaf
▁Fol
new
lace
▁Cherokee
▁eminent
▁gallerie
mpton
▁Zhu
▁blessing
▁futurist
▁snapp
▁traveller
▁Hogg
▁Luna
▁Inch
▁Push
▁intricate
▁Notes
▁Sinai
arab
uel
▁Invasion
▁NS
▁Philosophy
bade
▁simulat
▁genital
▁Fighters
▁Nails
▁Barlow
▁Jacket
▁Piu
▁embodi
lessness
▁horribl
▁outlook
▁mole
▁anxious
unconstitutional
▁obey
ME
▁Billie
▁predictable
▁Sau
▁revok
▁archives
▁Quant
▁chorale
▁174
▁Lockh
▁bent
▁vacanc
▁Inspir
▁Clair
enz
▁formidabl
▁tattoo
▁Hä
▁Dangerous
83
▁inaccurate
▁processor
mé
▁Browne
▁Clara
▁Phan
▁Rogue
▁Cou
▁sage
GM
▁Perkins
▁Bry
▁textbook
▁subdu
▁Christie
▁Helms
▁Isla
▁Bin
▁hyp
▁Mohamm
▁pom
trans
▁Loyalist
ubble
▁Meet
▁Hulk
wad
▁troupe
▁patriot
▁deposition
HS
▁Downe
tium
▁discontent
▁reproduc
chal
▁Alamo
▁Burnham
▁procur
▁Canon
▁Prop
▁whip
▁popula
▁Somme
▁inspector
evich
▁banish
▁Scranton
▁unfavorabl
▁Elements
▁Alison
sonic
▁Drop
▁Sanchez
▁Brezhnev
▁spines
▁Abi
▁Eck
▁Epic
▁logistic
▁Cadet
▁Whil
▁Blitz
▁154
▁Ask
▁Olympia
vocation
rain
apest
▁Android
▁Paleo
▁Agnes
▁infectious
▁sergeant
▁Amber
▁Abrams
▁Belize
▁McCool
▁Phi
▁digging
▁doorway
▁gloss
▁ruthless
▁citation
▁Xi
▁pon
▁relativ
breaker
▁Aki
▁SG
inary
▁quarterfinal
▁Schwartz
▁Cran
▁Dahl
▁foil
▁chaotic
▁Tool
extraterrestrial
▁sauce
▁mosaic
▁peripheral
▁Question
▁thermo
▁soar
▁arrow
▁Leav
▁Chili
▁mechanic
▁teaser
▁bridgehead
▁Thr
▁vibe
▁interlude
▁Slovakia
▁theological
▁exclusion
▁unfold
▁tech
▁Officers
▁Irwin
ruk
▁Oryzomy
▁Briarcliff
▁serializ
▁Exposition
▁Avalanche
▁defines
▁mice
▁magnate
▁Brendan
▁transcription
▁balcon
▁Believ
▁213
▁butter
▁captainc
▁Keating
▁dispens
▁PSP
making
▁posture
▁Semi
▁Thai
▁Trip
▁Neighbour
▁Atlas
▁1770
▁courthouse
▁Bavaria
▁Smithson
▁garde
▁tit
▁Dash
▁narrat
▁Larkin
▁Alf
▁Sepi
▁covert
▁164
▁believer
▁Wel
▁wilderness
▁Rocket
▁sweeping
▁Caledonia
▁Carrier
▁banana
lab
▁equations
▁assemble
▁cyclo
▁Yog
▁Paters
▁nonsens
ete
▁traps
▁mitigat
▁clarinet
▁Tomorrow
▁Stro
▁navigate
▁Strategic
▁Maud
▁Samus
▁renumber
▁versatil
▁Flu
▁lifeboat
▁Gad
▁Favorite
▁turbulen
▁Chick
lich
▁renewable
▁entrust
▁Willamette
▁convective
▁Oriental
▁libretto
▁Gavin
▁refurbish
▁287
WI
DR
▁Location
▁Sla
▁turmoil
grave
▁magn
▁recipients
▁beast
▁finalist
▁rector
▁Hiroshima
TM
▁Judith
vulnerability
▁Shetland
▁Thriller
▁SI
▁parkway
bara
▁Opposition
▁Barbados
▁Anzac
▁diabet
▁citadel
▁Kerala
▁redeem
▁Disco
▁157
▁Relationship
▁Montenegro
unda
▁ribbon
▁Ante
▁envelope
▁Greenwood
▁Geoff
▁historie
▁Serge
▁cassette
GB
▁Pod
▁selector
▁Monaco
▁metro
▁Maru
bourg
▁Photograph
▁Micro
▁reconciliation
▁Kensington
▁Cash
▁Dogg
▁obsession
▁Travers
▁cock
▁1788
▁Marg
▁Giles
▁takeoff
▁Meeting
▁Motors
▁taxa
▁signatures
▁irrigati
▁satisfaction
nh
▁183
▁Rah
▁Rwanda
▁fool
▁Kraków
▁deport
▁implicat
▁canoe
▁1600
▁astrolog
▁Host
▁psychiatrist
▁Everybody
▁interspers
▁Djo
▁rudder
▁Priestley
▁warbler
▁Uranus
▁Ballar
term
▁spurr
▁Sati
▁Werne
▁torrent
▁inward
▁dent
▁Toro
▁brawl
▁Frey
▁trim
▁fractur
▁Ei
gricultural
BT
▁muscular
▁cab
▁rebellious
nsky
▁spinner
▁222
▁Rais
▁mitochondri
▁Valu
rchaeological
▁saddle
▁avenue
genesis
▁Eat
▁sabotage
▁earnest
▁Rodney
▁Royce
▁vibration
ultimate
▁pants
▁Plus
▁Kick
▁Slow
▁mobiliz
▁fuse
▁Greco
▁treasur
▁Sellers
▁Wear
▁Observation
▁encouragement
▁Pilgrim
▁obsess
▁likelihood
▁steward
▁ventures
▁adolescent
▁sustainable
▁entrench
▁Mercer
▁crypt
blus
▁Conni
▁straw
▁advoca
▁Playboy
▁007
▁Jonas
▁Croft
▁Sigismund
▁Fate
ewski
▁activis
▁liberti
▁Aur
▁nightmare
forementioned
▁imitation
▁Monmouth
▁Lydia
▁Twins
▁Sioux
▁soloist
▁forcibl
▁Bain
▁litera
▁Coba
▁Abbasid
▁Slea
▁Forum
▁Crush
▁lance
▁consultation
▁Geo
▁Cour
▁Kala
▁forehead
▁curious
▁198
▁pronoun
▁Sutton
heat
amo
▁din
▁Aurora
▁Quintan
▁insurgents
▁dove
▁cripple
ologne
▁transplant
▁Ipswich
▁stereo
curred
▁developmental
▁Burma
SH
▁Odyssey
▁Botanic
▁theorist
▁Ng
▁Bride
▁recession
▁Hab
▁discriminat
▁Ala
▁entertainer
▁crusade
lew
▁Sé
▁hopeful
wn
▁Gregor
▁standout
▁classify
▁rim
▁Pent
▁Arti
▁Constitutional
▁>
▁187
▁Tyne
▁yell
▁fumble
▁podium
▁Kirby
▁suffix
▁Dug
▁cosmic
▁quartet
izer
biographical
▁Ustaš
▁McA
▁virgin
▁Sterling
▁Semit
minster
▁GB
▁Roche
▁thumb
▁530
caine
▁Rae
aru
kau
▁Homicide
▁Rollins
▁pelvi
▁prehistoric
▁manifestation
▁Cott
bah
▁archaeolog
esi
▁Clive
▁applicab
▁gateway
▁integrate
▁eyewall
▁maple
▁diffusion
▁Monc
▁Hertford
▁flipp
▁Kiev
▁diagram
▁Mist
kle
▁Drummond
▁Béla
rkham
▁competent
▁Goal
▁foc
▁beard
tai
▁communal
▁finalists
▁interrogat
see
▁177
▁considerations
▁Velvet
dependence
▁Livingstone
▁Pull
▁greenhouse
▁Landi
▁Becket
▁Burr
▁Isis
▁Scholars
▁satisfactor
▁Jorge
acci
▁Feeling
▁analogous
▁imprint
BR
▁Jab
writer
▁cinematographer
▁Guang
▁Creative
▁apparatus
▁unreliab
▁Cary
▁Sloan
▁GameSp
▁wag
▁Guevara
ctus
▁dictat
▁Characteristic
▁mythic
▁Friedman
▁Thorn
▁planner
watch
▁differentiat
eater
▁protocol
▁Mei
▁Mikhail
▁shit
▁Tribe
▁villa
▁USC
▁Jardine
▁cube
▁Ramse
▁odor
thesis
▁Signal
▁pent
▁purported
▁Carlton
▁taxonom
▁López
▁Prof
▁Arlington
▁swarm
▁Passion
▁vine
▁Roc
▁quarrel
SCAR
▁Feed
▁concussion
▁participant
▁tug
▁receipt
▁Habitat
▁penis
▁improvisation
▁swo
▁headlining
▁Lew
▁pill
▁Fairfax
▁Bound
▁bankrupt
▁Population
▁Pool
▁pasture
▁exempt
cenic
▁Amal
▁Brahmin
▁Himalaya
▁nomad
▁solub
▁pore
▁Cause
▁Congregation
kamp
▁Gem
aghan
▁bikini
▁Clash
▁Midwest
▁Medina
▁Strauss
▁chariot
▁Monsters
▁Trenton
ević
▁Sak
▁melanchol
▁improper
▁beloved
▁Lima
▁esteem
▁parodi
▁perpendicular
▁evaluate
linger
▁Tactical
▁Sarato
▁Tibet
▁jar
▁Anglia
▁Clown
▁Mess
▁Skin
▁Dunstan
▁Göring
▁Fr
▁Attempt
▁arrows
standing
▁unop
▁gallant
▁Abe
▁Penny
▁cinematography
▁Thatcher
▁comb
▁manipulate
▁Iroquoi
▁Horton
▁impass
▁minimize
▁Earn
ggs
▁Elias
▁Fanny
▁Holli
eger
▁Pavilion
▁Eb
▁legitima
▁Portrait
▁Stamp
▁Pérez
▁Seneca
▁Ringo
▁Volk
▁bastion
▁Rockwell
lhoun
▁titular
▁autism
▁crying
▁booth
▁Kitt
▁quotation
nai
▁Goldberg
▁silt
market
▁tackl
▁sniper
▁AV
▁senat
▁Martín
▁Labrador
girl
▁Competition
▁Reason
▁gangster
▁evaporat
▁McGill
▁bodyguard
▁reasonabl
▁WS
nitive
▁deduc
▁Ryu
▁Titus
▁Hoover
▁Chau
Ø
▁Aristot
rque
bbe
▁refut
▁privacy
▁Gesta
▁stamps
▁organise
▁angels
▁Butter
▁wards
▁dan
▁patriarch
▁Sant
▁Often
▁Emerald
▁Pana
▁Nero
▁Marathon
▁whal
▁Byzanti
▁Tibetan
▁Tunisia
▁obes
▁signify
▁enthusiast
▁unconventional
▁dear
▁vicar
▁401
▁delighted
▁166
Or
▁profess
▁Toledo
▁scare
▁Farrell
▁Hopp
▁Should
▁replenish
▁Mimi
▁Hobart
▁statutor
gard
▁Royale
▁Elsa
▁nursery
▁Entry
▁Ships
▁Temp
▁catapult
▁banquet
▁PR
wara
▁capitalism
LP
ovo
▁Measure
ager
▁375
▁handheld
▁shocking
cote
▁pedal
▁flour
▁Carmel
▁shad
RM
▁Antan
▁neon
▁unfamiliar
▁catalyst
▁POW
▁Stephanie
▁Commanding
▁Date
▁Rox
▁collegiate
mart
▁mobilis
closed
osaurid
nich
▁rental
▁590
▁Ear
▁joking
▁Monarch
▁GT
▁1781
▁biologist
▁prophec
▁crocodile
▁Luxembourg
▁Fool
▁Speedwa
▁Rabbit
▁polygon
▁precious
▁Johans
▁Muk
mates
▁mythological
▁171
▁buzz
▁Paw
linda
▁collaborate
▁Punjab
▁lime
▁wander
arri
▁Lob
▁Nate
▁Stranger
▁awful
▁prank
uche
▁Coaches
▁showrunner
▁Organisation
▁Tourism
▁Person
▁slab
▁thwart
▁supremac
caster
▁Dinosaur
▁activation
word
▁handsome
▁Alexandr
▁tipp
ondo
TL
▁Ishi
▁Koda
urus
alo
▁Donkey
stellar
▁Mahl
▁Lug
▁777
▁repetition
▁Ric
▁Mama
▁bundle
▁Chair
▁Hubert
▁gamma
rush
▁distortion
▁Fifteen
arrington
▁Reginald
▁Desmon
▁Mead
▁mandible
▁jamm
▁Falun
▁funnie
ovac
▁restriction
▁banker
elecommunication
▁162
▁ordinance
cruz
▁Coronation
base
staff
▁MiG
oux
▁heath
liga
▁rebell
▁mutant
▁Flair
▁Visitor
▁McGovern
▁Baxter
▁1787
▁pH
▁cel
▁470
▁Piece
▁Marilyn
nwall
▁Bottom
centric
▁unsuitabl
ragg
▁liaison
CO
▁sacks
▁uncredited
gren
AG
▁Picket
▁streaming
ogie
ike
▁Cent
▁Patriarch
▁correction
▁narration
▁Millar
▁Funk
▁Josef
▁Naruto
▁domes
▁Zar
▁Mouse
▁Normal
▁Rudd
▁annoy
▁Uprising
▁König
▁capitulat
▁Amateur
▁despair
▁condom
▁refuel
▁Appalachian
▁ecosystems
▁Dunde
▁Nelli
▁dec
sboro
▁Mili
▁Bournemouth
▁Lichtenstein
▁newcomer
▁furnish
brand
▁demot
▁categoriz
acre
▁wig
paw
▁ostensibl
▁Sarajev
▁Fro
riot
▁liquor
▁Buddy
▁Sunset
udd
▁longitudinal
▁Kut
▁Hello
▁Lund
▁AJ
▁secession
▁telegram
▁lonely
▁waist
▁entail
▁scripture
▁Saka
▁Ibrahim
▁Soft
▁Tweed
▁Cass
▁Ead
▁leaning
▁brig
▁stipulat
▁Lorenz
▁Chop
ON
▁fiancé
owitz
▁Rossi
▁Pure
▁Buster
▁Marcelin
people
▁provocative
▁Zoe
▁accompaniment
▁molecule
mosa
▁Thornton
▁Underwood
eva
assa
▁Buy
▁Maverick
▁π
▁Mitsu
▁socio
▁chin
▁rotate
won
desirable
▁mediate
▁accumulate
▁orthodox
▁antigen
▁endless
▁shrink
▁revolver
▁Lansing
▁greed
gill
▁Birthday
▁XX
▁bak
▁stela
▁node
▁Alps
laden
llion
▁Newspaper
▁Speech
▁Wag
▁labourer
▁Somer
tree
▁Faust
hari
▁Paraguay
▁Chaos
▁Ole
▁RAN
ecker
▁photographic
▁finite
▁humiliat
cetic
▁eradicat
▁1700
▁Laz
▁colorful
illon
▁Dob
▁Shim
▁Flags
▁q
▁Brill
hammer
▁Richie
▁indictment
▁ZX
▁Pawnee
▁Yel
▁Meat
▁Rayno
▁scann
▁Rust
▁Satellite
▁Pyramid
▁Depot
▁broker
deck
▁Mughal
▁Hann
▁juice
▁Picca
▁grasse
PB
icide
▁liabilit
▁Perl
▁Pleisto
▁Gemini
▁sociology
▁regrett
▁239
▁conspir
▁grung
▁sponge
▁cyclist
▁Harlan
▁Laden
▁Fell
▁Vogue
▁CH
▁Citizens
abad
▁imper
▁Phonograph
▁dune
▁harden
LDS
▁Latino
▁Handel
▁Innocent
▁Blanc
▁950
▁rediscover
▁localization
oughton
▁Hyp
jø
▁Mosque
▁ACE
▁Chennai
▁Scho
▁Jenner
▁Shakur
▁attendee
▁Wherea
▁Grave
▁fixtures
▁Ave
▁stature
▁doctorate
▁Honour
PM
▁typ
▁Sco
▁invader
▁disposition
▁0000
▁Pocket
▁paperback
▁levi
▁Pembroke
▁Kla
▁Amman
▁Gentlem
▁Omega
▁Gilmour
▁Candy
▁Lamp
▁Carp
▁Mesopotamia
▁volatile
▁hardship
▁popp
▁Yeah
odor
▁pledge
▁Nant
▁Tripoli
▁slop
▁Hurt
▁Results
▁rip
▁Solid
▁catastrophic
yō
▁granddaughter
spiration
cutta
▁Carmen
▁token
▁Drav
▁Brandenburg
†
▁Torre
▁lips
▁patriotic
▁superstar
▁Vu
▁Geological
▁pertain
▁append
▁outlet
honorable
▁Hook
▁seaplane
▁forfeit
▁Marcel
▁Audre
▁Itza
▁Whitman
▁LM
TT
▁Apu
eta
▁cylinders
▁Spice
▁XXI
▁Words
▁dissolve
▁plume
▁hunger
▁induction
▁wishing
fiance
shell
▁obligation
ardo
▁Confi
▁Irvine
▁Bypass
▁Roberto
▁supersed
▁bald
▁passport
▁Prelude
azoo
▁Ballad
▁modernization
▁glacier
iale
vir
▁Decade
▁Million
▁easter
▁empti
▁Lox
▁Philipp
▁194
▁semifinal
▁Annal
▁sultan
▁hepat
▁Sgt
▁Voyage
▁Thunderbirds
▁Ticket
▁Waff
▁mammoth
▁Barric
▁Jod
▁Casp
▁buck
jack
iscography
▁Defensive
▁Platt
▁Etymolog
▁bully
▁meadow
▁courtship
▁intoxicat
▁Spectrum
▁indict
▁bosse
▁Gent
jah
▁1779
▁Centaur
▁TARDIS
▁identit
▁Wadd
▁reiterat
▁Fashion
▁Vot
▁Pir
▁glasse
▁semester
▁Babe
tosaurus
▁Diocese
▁Xavi
▁1660
▁shilling
▁fuck
vig
fowl
▁yoga
OT
full
▁sap
▁betrayal
▁Beatrice
▁spearhead
mount
▁meaningful
▁dormitor
▁antibiotic
▁frequenc
▁Hatch
▁Log
▁Bale
▁prob
▁VC
▁Conner
ench
▁toxin
▁Throne
▁Maker
▁Triton
▁Portable
▁Hilt
▁thigh
▁Capt
▁Sexual
▁XL
▁Edda
▁Jude
▁reluctan
▁Alley
▁Butterfl
MAX
▁Zeus
▁MLS
▁Cowboys
▁Bure
▁pause
▁namesake
▁octave
▁Liv
▁usurp
hampton
▁Pretty
▁Burnley
▁instigat
▁Horizon
erne
▁cerebral
▁Robe
▁Twist
▁Rudy
▁discontinu
▁737
▁Grim
▁Burgo
ær
330
▁238
▁parishe
▁Maw
▁Baird
▁jockey
▁pectoral
ollegiate
▁Nut
▁Pain
▁172
▁Journalist
▁Counsel
▁Filmfa
▁brigadier
▁Wah
▁workforce
▁Gap
▁uneven
▁popul
▁Cav
▁Madame
▁Depend
▁halve
▁Stead
▁liter
▁Zeta
▁potent
hat
▁String
▁slit
▁uplift
river
▁Kho
▁Stakes
▁plung
▁Oriole
▁perch
fusion
▁Rudolf
▁Zhou
▁Panic
▁Doubt
▁reconsider
▁Thin
▁chroma
kirk
▁vocabular
▁plank
▁Ramirez
▁Nissan
▁bang
chez
▁reelect
▁yacht
dden
▁Jade
▁Sham
MM
BCS
▁Pusa
▁Gig
▁Easy
rouse
finger
▁Mariana
▁Sigma
▁annihilat
▁accuse
▁Criticism
▁232
▁Fresh
▁Pei
▁alkali
▁braver
▁optimis
▁lodging
▁Audi
▁accumulation
▁harness
▁boxer
▁Cumming
▁Hotspur
▁Marxist
▁SP
▁Wainwright
▁Bengali
▁Gilliga
▁Lunar
▁Junta
▁gunboat
▁Treatment
▁Cancer
▁AB
▁Bowman
▁saints
▁Mob
▁conceptual
▁Alive
▁frost
▁playful
▁terrac
▁Suite
▁Patti
▁polio
▁Fill
▁Natas
▁Leaves
▁Hilar
▁Impress
▁birthplace
gia
▁sickness
▁Beg
▁wardrobe
▁Rosenberg
▁169
▁residenc
▁Gros
▁Rival
▁Freak
▁phosphate
▁gimmick
▁Ayr
▁guinea
▁outspoken
▁schizophreni
▁Brode
▁petrel
▁freeze
▁Simmons
▁interrogation
print
▁archiv
▁fluctuat
▁schooner
▁famine
▁Abbot
▁Problem
▁lounge
▁spa
▁apologiz
▁correlat
▁lawn
▁Kelley
▁Batavia
▁VT
▁Sán
▁Epsilon
▁allud
▁setlist
▁Hillary
▁disembark
▁540
▁chew
heid
▁whisk
▁Elk
▁wrap
vascular
▁Dolphin
▁Soldiers
▁paratrooper
▁lining
▁720
▁Soccer
▁Katie
▁192
▁useless
▁1774
▁proposition
▁Gomez
▁Shearer
▁Portal
▁NDH
▁Hare
▁Teddy
▁Mafia
▁ventilati
▁recess
▁obstruct
▁Oakle
▁Amtrak
▁confesse
▁Target
▁Prairie
▁roam
▁Yi
▁mortars
▁Rowan
riel
▁transparent
▁cul
▁Wors
▁Luton
▁Quint
▁harmonic
▁Revolt
▁Caen
▁Boult
▁munition
udge
▁vintage
▁lessen
▁inclination
▁Morrow
▁mixe
▁Ethan
▁Gord
▁Elen
▁listener
▁miracle
SW
▁uncon
▁Humber
digenous
▁lipid
▁Honda
▁767
▁Drag
▁Puritan
▁Beauchamp
▁Wreck
▁Sihanouk
▁Rabau
▁Strom
▁motte
▁Kuch
▁shootout
100
▁Jeanne
▁robe
▁slam
▁cute
▁Nepal
know
▁begg
▁aggregator
pography
▁foal
▁reintroduc
MS
▁rub
▁expulsion
▁plaintiff
▁Maybe
▁Soto
▁680
▁Excellenc
▁Directions
▁Thought
▁newborn
▁Mathew
▁theologian
▁tuning
▁constrain
▁Afro
strum
▁Historia
eche
▁dwindl
▁institutional
▁mash
▁Rodden
▁Whi
▁Anark
▁font
athi
▁falcon
▁Ptolem
▁ceasefire
▁Lily
▁steril
▁tab
▁Darry
ntiquity
▁prostitution
▁179
▁CT
▁migrator
▁Merlin
▁deliveries
▁excerpt
▁Gardiner
▁Mustaine
▁Klingon
▁Braathen
▁Olympus
▁styliz
▁injunction
▁Hume
▁Mutual
▁techno
▁Bit
▁MR
▁Alexio
▁sanct
▁delaying
▁sidelin
▁Controversy
▁Kwa
▁Falk
muni
hai
▁Mozart
▁Elton
▁reorganis
▁Nagasaki
▁Hector
▁thriv
▁kidnap
▁Carta
▁degradation
▁Ichi
▁Coventr
▁terrific
▁dopamine
▁Sikh
▁trash
ules
▁basalt
▁eyed
▁monumental
▁wedge
▁incapab
▁libel
▁Theodor
▁accelerate
▁westerl
▁Pak
▁angri
orax
alia
▁Kalam
▁Krist
▁Practice
▁Spee
AB
▁Cost
▁Angola
▁Garb
▁Fatal
ingleton
▁Kafka
weep
▁Rubin
▁Pino
▁Dil
▁ravag
▁Trio
▁Laurel
nose
▁launcher
▁printer
dgehog
assel
▁Pug
▁Frog
▁Choir
▁Nightmare
ART
arium
▁stingray
▁Papua
▁Process
▁ket
▁resentment
▁mastering
▁sampling
▁silicon
▁nocturnal
▁presenter
▁admirer
▁Afterward
▁amplifier
▁Welch
▁181
▁Og
▁2020
▁184
▁assurance
▁SE
inen
▁splash
▁pinfall
▁geometric
▁symbolize
▁discourse
▁alligator
▁quarrie
▁cloverleaf
wash
pyr
▁Glo
onovan
▁LC
▁Goddess
▁oceanic
▁hare
▁emit
▁Kramer
▁Hamel
▁sensibilit
▁Deck
▁Counter
▁Goodbye
▁sorr
▁CG
▁meso
▁Justinian
▁Salmon
▁Telescope
▁Dodge
▁uphold
▁unacceptabl
▁Matter
▁Lub
▁Method
▁laughing
▁lengthen
▁padd
▁invalid
▁resurgen
▁prospective
neck
▁recommission
▁harp
Pro
300
▁Realm
▁Uruguay
▁Squ
zik
▁prefix
▁manipulation
▁anterior
▁rogue
▁Maid
birth
▁howitzer
▁consistency
▁Radical
zbo
▁superintendent
▁unsee
DB
▁bagg
▁hover
guard
▁Verdi
▁Elgar
▁Vla
▁Tay
▁Otis
pool
▁Estonia
▁Pompe
▁blockad
▁freak
▁endeavor
appa
α
▁fatt
▁vain
▁assure
▁relocate
▁stirr
▁simulate
▁Terre
▁distraction
▁crustacean
▁spice
ortic
▁Active
▁foliage
dike
▁Murdoch
feldt
boron
▁PPV
▁equat
▁invok
▁curtail
breaking
▁Terri
group
▁owe
▁retaliat
▁mainline
▁differentiate
credibilit
▁landlord
cuff
▁disperse
▁setup
▁Eduard
▁gull
▁188
▁Chant
▁Domin
▁emulat
▁moat
▁pony
▁Antwerp
▁Benn
▁hastil
▁Dent
▁Tape
▁pett
▁Renault
▁Gage
▁Whitb
▁Luigi
▁kidnapping
▁Chevrolet
▁Resistance
eppe
▁chalk
▁Encyclopedi
▁obituary
▁Editing
▁excellence
▁Middlesbrough
▁Embass
▁Peach
▁Sense
▁axle
▁peripher
▁176
▁Ezr
▁Megadeth
▁shrub
▁Mycena
▁crushing
▁Birch
▁Paine
▁Tillman
▁Diocletian
▁Nobu
prop
▁homolog
▁disillusion
▁Taliban
▁Merry
spor
▁wett
▁Bethle
▁commando
jak
iger
▁Hussein
▁luminosit
▁cues
RVN
▁Rib
▁picnic
phosph
▁CAP
▁differential
eadle
▁Mew
▁eve
▁gable
▁Neumann
▁capita
▁Frei
▁Rab
▁posthumous
▁cyclonic
▁Beds
▁Philippe
OL
▁heroin
▁Denny
▁invasive
▁Barrier
▁traitor
▁520
▁cremat
▁Leave
▁bon
▁Goeb
▁Eliza
▁stumbl
▁spoof
▁corrosi
▁metabolism
▁Superintendent
▁replie
▁Sustain
▁Māori
▁Geolog
▁controllers
▁Jules
▁Amar
▁warp
▁Mercian
▁Andria
▁stark
▁germ
▁undermine
▁obverse
▁estrang
▁fascist
▁contenders
▁reconcil
▁Produc
DL
▁trapping
▁shortstop
▁voluntari
▁Teacher
▁disclos
▁gaze
▁recapture
▁evade
▁Yemen
▁coerc
▁Rhino
▁Therm
▁Mecca
▁Jolie
▁splinter
egean
▁flick
palli
▁pharmac
▁Grange
helm
▁Henrik
▁nerves
econnaissance
intestinal
▁consolidate
▁shine
▁Elect
OF
▁Briggs
▁Might
▁Holm
▁Yasu
▁FIA
šić
undo
anza
▁voter
führer
▁Britannia
▁Chicken
▁aircrew
pack
▁Camill
▁ode
▁Via
▁dean
▁marr
▁assent
dour
▁segregat
▁delta
▁Townshend
▁beverage
charya
▁emulate
arc
▁Hannibal
yuki
▁amusing
▁iconograph
▁multipli
▁outsider
▁neat
▁Zappa
▁reclassifi
▁Nell
▁diari
▁skeletal
▁exposition
▁Chong
▁Lucia
▁Hammersmith
▁herds
▁229
▁bayonet
▁1760
▁Pagan
▁Lilly
▁Reeves
¥
▁Adel
bald
iefenba
▁qualifier
▁Dubrovnik
▁execut
▁Clock
▁indulg
▁Bauer
blad
▁Klaus
▁rhetoric
eye
▁nud
▁Object
▁robotic
haus
▁grim
▁Dove
▁Trace
▁Civic
berh
▁interacting
▁Syndicate
▁defunct
▁Advertis
▁incidental
▁EA
▁Kriegsmarine
▁Ganesha
▁Cinque
▁blaz
▁Mosley
▁Flame
forth
▁treasurer
▁synonymous
▁Cush
▁rust
▁portfolio
▁marvel
wright
▁stab
match
▁Ducks
▁Naz
▁Explorer
afore
▁frighten
▁Forth
▁Laguna
▁solicit
oscop
▁Dunham
▁Forward
▁Instrument
▁Coen
▁addict
0
▁Conquest
▁distrust
▁preface
gă
▁Stud
▁Parry
▁Dong
▁bootleg
▁Shak
▁Vehicle
▁flare
▁Console
▁Stamford
▁reversal
▁Federalist
amma
▁Curie
▁incursion
▁285
▁Sasha
laid
▁Pale
▁rink
▁Duck
▁sailor
keeping
▁Heid
rmitage
▁Sumne
▁waterfall
▁Pend
▁alias
▁Manner
▁Elite
▁Learning
▁Cyber
▁Jared
▁Haw
▁Sanctuar
▁Trigger
▁Kruger
▁Whitlam
▁coherent
▁Dominic
▁Significant
▁1782
▁Spit
▁fascinat
▁summaris
▁anomal
▁Rahman
▁causeway
▁Rig
▁Galile
▁adversar
▁polariz
trium
▁businessmen
▁Brant
melia
▁SquarePants
▁Nanse
▁Nadi
▁scaveng
iza
aeus
▁Finding
▁mystic
▁engrav
▁ordain
▁recreat
▁Dul
vez
▁botanical
▁Alepp
▁Settlement
▁bearer
▁Plata
▁concerto
▁rainforest
▁Nikki
▁Jaws
▁Dickens
▁Talent
▁staunch
▁rearrang
▁Corridor
▁woo
uca
▁savage
▁logistical
arital
wang
♯
▁Publication
▁gastro
OM
▁Rural
ophore
▁Carrie
▁Content
▁Revelation
▁Musi
▁Slovak
▁cub
▁Advent
▁Cancella
▁Preservation
rio
▁encompasse
▁Ionian
▁wh
▁devotee
▁980
▁Dockyard
▁Cheer
▁attire
▁duct
▁Mortimer
▁Strand
▁Collector
▁verge
▁styl
▁translator
BI
▁Incident
▁encircle
▁Aztec
lordship
▁fireplace
▁cyber
▁Dwarf
▁Bom
▁Poult
▁Cambria
rdnance
▁vicious
blanc
▁rigorous
▁Ewing
▁robb
▁Aubrey
▁Scandinavia
▁Schi
▁Melody
▁convenience
▁Drink
▁Ryder
▁Yahoo
▁pilgrim
▁Charm
▁Imag
▁resupply
▁Anatolia
▁leopard
▁Chemistry
▁truss
▁Rockstar
▁Darlington
▁Lumpur
emann
▁Linden
▁fabricat
▁undoubted
▁disgrace
tach
▁gown
▁Slavonia
▁186
▁justification
▁metabolic
range
▁Tac
▁Dawla
▁Brough
▁228
urrell
▁Alexis
▁flavour
▁unemploy
▁Pry
▁squirrel
▁humble
▁mule
▁disintegrat
▁Cobra
angelo
▁Arj
▁Mich
▁observator
▁laz
▁microscopic
▁Harvest
competence
▁Seek
▁Weinstein
▁doubling
onde
rlock
▁Asylum
▁Burnett
▁Kip
▁mya
▁PM
▁deform
▁jewellery
▁NR
ethyl
▁puck
▁purity
▁thunder
▁hijack
▁Sahara
▁Chew
▁witche
▁Hazl
▁NJ
▁Île
▁Deir
.1
▁Barbi
▁analys
metric
▁arous
▁relentless
▁208
▁910
▁Weinberg
▁Convoy
▁Pear
▁Bronx
▁Sirius
▁filing
▁Biblical
▁disuse
▁camel
RP
▁lesion
▁Chitt
▁DLC
zio
▁Battleship
▁immortal
▁apex
▁Variation
▁capitalist
▁nectar
▁electorate
▁Erich
▁vernacular
▁Riding
▁Floor
▁diagonal
▁vulgar
lene
▁Curse
▁irritat
▁Montagu
▁Churches
ifolia
▁Trick
▁Clean
▁Saunder
▁theoriz
▁wav
▁Poo
▁caudal
・
▁Tap
racula
▁headache
▁Alta
▁Whigs
sound
ć
▁Miley
hoff
|
▁Sibeli
▁Gom
▁Ledger
▁Wagga
▁bur
▁Vukov
▁Countie
▁Romano
▁polit
▁encod
▁directional
ş
▁Marquis
▁muc
▁duplicate
▁martyr
▁Orb
▁Copa
▁closet
▁shrubs
▁Vista
cour
CT
▁Tyrannosaurus
EP
▁Redding
▁Gretzky
boro
▁Hate
▁rarit
▁González
▁Colon
▁Teach
▁Peterborough
▁Stacy
nutrition
▁Poet
FK
jić
iden
▁meteor
▁Holst
▁cello
▁Dardanell
▁Maratha
▁KC
▁Famits
hest
etz
▁pesticide
▁dare
▁Avro
tape
▁Megami
andi
mpo
▁discredit
oyle
▁217
▁tick
wheel
▁Athlete
▁Hung
▁Styl
▁Biscay
▁Provisional
▁Treb
▁Prose
▁prosthetic
▁fascinating
▁Liszt
▁Svalbard
▁Bring
▁Broncos
▁Blyth
hei
▁internally
▁Holding
▁enslav
▁daring
▁caricature
kam
▁retake
cidic
▁740
▁Clerk
▁Gregg
▁Wilkes
▁Bullet
▁Disease
▁Companie
▁acceleration
▁Osborne
▁Brave
moor
§
▁Establishment
▁roost
▁Howell
raptor
▁Champ
TH
▁Foley
▁Bize
▁ventral
▁insignia
▁frustrating
wark
▁Defender
▁159
▁helpful
▁Trials
▁Prisoner
▁sincere
▁Uganda
▁Sacred
▁regroup
▁inconclusive
▁compli
▁bruise
pac
▁spit
▁Capon
▁Klan
▁Concerto
▁Cosim
▁Quinc
▁nebula
bacteri
▁SummerSlam
▁Catch
▁deficiency
hiko
broken
▁recreate
▁Owing
▁announcer
▁commodit
▁mortgage
▁Zor
▁Susquehanna
▁Swing
▁streamlin
▁Kitty
▁252
▁Kathy
▁Sixteen
▁minus
▁Savanna
▁ramm
▁Minutes
▁Nau
▁slick
▁abbreviat
▁Yuan
▁Templar
berries
▁216
▁Bolet
▁scrub
▁Pep
▁fig
▁Isma
▁Desp
disqualification
▁211
▁Lovat
▁Barrack
▁Novak
▁Myth
▁battl
▁elliptical
▁paramilitar
mata
▁preacher
▁hedge
▁coarse
▁Resort
▁vegetable
▁Associates
PN
▁challenger
ocytes
▁Filmography
satisfaction
▁venerat
cyclic
▁Schmidt
▁Maure
▁threshold
▁Narayan
▁feminism
ruff
▁rushe
▁Forge
cluded
▁tile
▁Moldavia
roma
▁deaf
▁Bai
▁abolitionist
cong
▁alga
▁psychic
▁knockout
▁titani
▁Polk
▁Bets
▁Muir
serrat
▁Jess
▁Chalukya
▁symmetrical
▁pastoral
▁1758
▁Zion
▁turf
▁Transformer
▁AOL
▁Mamluk
▁CB
▁Wet
▁262
▁comrades
SE
▁broaden
▁Idolat
▁Raim
▁Wicca
▁Gann
▁montage
▁Krajin
▁AFI
iffle
▁Königs
▁Concept
▁tonal
▁Illustr
ulf
▁salvag
nthus
▁circa
▁diagnostic
▁dresse
▁Camel
▁excell
▁monologue
rchaic
▁Worldwide
▁Adler
▁reputed
▁poured
▁Bute
AO
ο
igny
taka
▁sue
▁agitat
▁honeyeater
egger
▁Gne
endorf
▁Ladisla
▁scramble
▁contradiction
rix
▁Setting
▁Beaufort
▁mangrove
▁boulder
▁collaborative
▁winger
▁Organ
▁siding
▁Comment
▁stairway
▁Worst
▁remarri
▁249
tight
▁sensational
FP
▁meander
ryū
▁ransom
▁Stick
▁SD
▁incisor
anarivo
lute
▁β
▁shouting
▁bored
▁Tanak
▁analyze
▁Bowen
▁washing
CG
hatham
▁Terminator
▁Ayu
▁Gaddafi
▁Lava
▁Gail
▁Kro
▁Cosmo
▁violate
▁Paige
▁unpai
▁Ayles
urg
▁Punch
▁Ballet
▁symphonic
▁mystical
▁hospitaliz
▁uneas
▁impairment
▁Tok
▁algebra
▁Tennis
forgettable
▁Bavarian
FS
▁Allman
▁infringement
▁Lange
▁impersonat
▁Wheat
▁Tad
buster
▁barrister
▁255
▁incidence
OD
adena
▁Nikolai
▁transformer
▁Sutcliffe
▁Workshop
▁switche
▁Prophet
▁compliance
▁amphibians
▁interstate
▁Morse
▁Colle
▁Wildcat
iche
▁Octopus
▁shrimp
▁skate
▁moss
▁tapp
NU
zig
▁Gian
▁Fleetwood
▁volley
▁adherent
▁colloquial
▁Sylvia
▁Marcell
▁Claim
▁IB
▁brew
▁controversi
▁mapping
▁Roby
ilia
▁litigation
▁glorious
▁collier
▁Schles
▁sunset
▁Hud
tex
▁Raz
▁Bharat
▁Chene
amer
▁hipp
▁bland
▁protector
▁Zap
▁Phylli
▁Brick
▁imaginative
▁hypothesiz
▁Jubilee
▁conclusive
▁Detachment
▁Bohr
▁hesitant
▁Contact
▁IRA
▁regeneration
▁minigame
▁Countess
▁AH
▁760
▁Christi
▁Grenad
uart
▁Froz
▁Kolk
▁Andromeda
▁Haakon
▁Steele
▁Araf
▁devoi
▁scenic
▁Indra
▁protrud
▁Beethoven
▁Housing
Salle
▁recuperat
▁Benz
▁snowfall
▁dairy
▁tabloid
▁Miner
▁nomenclatur
▁orchestration
▁lamp
▁reflective
aifa
▁wizard
▁Rousse
LF
▁arthropod
▁dictatorship
▁Deutsche
▁breech
coat
▁Rother
▁Ernie
▁grandchildren
▁322
▁Lask
▁Sato
▁Exchequer
pm
▁Glorio
▁510
▁Zealander
▁Gibbons
▁carbonate
▁caretaker
▁Initiative
▁prevalence
ennington
▁Louv
▁Woodward
▁enquir
▁Stu
▁tolerat
▁cooperate
▁Yuki
▁Usual
kiss
▁youthful
▁Refuge
▁Sentinel
▁325
▁strategical
▁yes
▁Keyes
gaard
380
▁Been
▁coconut
▁xeno
▁Judah
▁SC
▁Covent
éza
τ
▁privateer
▁Faulkn
▁malfunction
▁enamel
▁Platoon
▁Zachar
▁combatant
lux
▁Spaniard
uple
▁Find
▁Ev
cius
▁Vine
▁Silence
idia
flie
▁posterior
▁Gravit
▁avatar
▁Macka
▁Anselm
▁Corpu
▁trophi
▁Argyll
▁Kasa
▁Simeon
▁Except
ulet
▁McNamara
▁brightness
▁Hunting
▁Knick
▁Marquess
▁locality
▁Martinez
iga
▁gall
▁Cable
▁concurr
▁forceful
▁Supporters
▁Snyder
witty
▁Coleridge
▁Thoroughbred
isto
▁midfield
▁343
▁psychologist
▁Kah
▁sway
▁BS
nnes
▁Vasa
▁cosmolog
▁Seminole
▁remedy
▁hoard
▁Puck
▁alley
amble
action
▁lecturer
▁lattice
▁awesome
▁immature
▁Bali
▁dispersal
▁XVI
▁Confucian
▁Preventi
▁residue
▁Lun
▁Fossil
▁suspense
▁Fender
ebeest
TF
▁Thief
▁ratification
dew
▁Coaster
▁Libyan
▁annoying
▁reactivat
▁Sai
▁certainty
▁Figure
▁reminder
▁Reuter
▁Alternate
▁proprietor
osta
▁Genetic
▁Celebration
▁pacifi
▁relent
▁Merri
▁Burg
▁seiz
▁Mariners
▁Yuri
▁filament
▁Patty
▁Hazard
▁Amo
▁Bold
▁Bordeaux
▁breaker
▁BK
▁flux
▁unpleasant
hook
▁abusive
▁Gujarat
▁unauthori
▁Stream
▁Uttar
▁lik
▁Prem
▁Facult
▁bamboo
▁excommunicat
ça
onte
▁221
endra
_
▁gorgeous
▁212
▁Blink
▁Caliph
▁Kau
▁Grossman
▁Stevie
SX
▁Juventus
▁Turing
▁EPA
▁Roz
▁Beebe
▁exemplified
▁fenc
▁substantive
▁penetration
▁Moresby
▁Kathl
ticus
▁commemoration
▁ioniz
▁outrage
▁chronological
▁Robbins
▁Hail
▁Sparrow
▁temperament
icolor
▁Introduction
plat
▁Tasmanian
▁Malawi
▁Abel
▁Siva
▁Brin
▁Costello
▁enrag
▁Korn
▁inverted
▁overture
▁substitution
▁butcher
▁serpent
▁accredit
▁Dollar
▁Khar
▁equalis
▁Felip
aille
upon
▁Eh
▁Arran
▁unsettl
▁encircl
▁Municipalit
▁spotlight
▁amphetamine
▁Tactic
▁sauropod
▁USAAF
hri
▁Naomi
▁Bernie
▁Memoir
▁replicate
▁Oasis
tsch
witch
▁Amb
▁judicia
▁Mussolini
▁lamps
▁abdom
tria
▁trustee
▁deceiv
▁Scientists
▁Graphic
▁Sunshi
▁Copper
▁casualt
▁234
▁redefin
fil
▁chaplain
▁paleontologist
▁Assyrian
▁parole
▁Bak
ór
▁caucus
ymouth
▁Hasan
SF
▁Hutch
▁unification
▁María
▁ironic
relli
▁Kav
▁Worcestershire
▁interpreter
▁Scarlet
▁Rhe
▁chestnut
dome
▁Trey
▁Aj
qi
▁atheist
▁Shuttle
▁Rutger
▁Shooting
▁spatial
Ó
▁Fay
FI
▁choreographer
▁avid
▁pinch
▁Ecuador
▁Sif
▁inverse
▁Tensei
▁191
▁drumming
▁Stay
▁Operat
▁christen
▁Tann
carbon
▁Alban
lane
▁Brennan
är
▁Dixie
▁emphasise
▁Jungle
▁turkey
▁Æthelr
▁surveyor
▁preaching
sraeli
▁Schen
▁Pow
▁Loha
▁Staffordshire
▁quota
▁Harley
▁omission
▁offseason
▁dumb
▁Simone
▁Offa
▁Leah
▁Mirk
▁rugged
▁Hermi
▁Scratch
▁Harmony
▁cuticle
▁governorship
▁UC
▁lump
▁Gibb
▁ROM
▁ACT
▁Greyhound
▁Chinook
auré
▁189
▁Roh
▁Laugh
▁dissident
▁dysfunction
▁Chel
▁reactiv
▁mycologist
▁inflammat
▁baptis
▁Esther
▁disabilities
▁Bé
▁Keen
ouf
uzzi
▁firework
▁unfit
hit
▁quasi
opter
▁Furio
▁fiftie
anger
ulco
▁Melina
▁Byrd
▁GamesRadar
agan
hof
▁outfielder
▁lute
▁Gilli
▁illustrator
▁fend
▁Loft
▁realization
▁sunn
▁Wedding
▁apocalyptic
▁donate
zong
▁Occupation
▁Bluff
▁730
▁Kaga
▁Boycott
▁Harri
▁Liao
▁Lieber
▁Tonga
▁Coat
▁Disaster
▁Nurse
▁Winsl
clock
▁Huntingto
renal
▁trajector
▁Manufactur
aliphate
calf
▁guild
iente
▁equestrian
unga
▁Pendle
▁Fairy
iello
resumption
▁Muppet
▁lockout
▁Władysław
▁earthwork
▁Sevasto
▁403
▁Frederic
▁devote
▁swap
▁teache
▁extravagant
▁subdivid
▁encore
▁Parr
▁temporal
▁Marle
OA
▁757
▁Swami
EX
style
▁instinct
▁Lütz
▁Ahmed
▁detector
▁grateful
▁Improvement
▁Jessie
▁specify
▁Latvia
▁Viz
opia
▁Valencia
▁Fig
▁mollusc
zek
▁Exile
▁zoologist
▁Threat
ković
▁Gaston
▁Anarch
▁compass
▁reorganization
▁Krue
▁Crater
▁Nhu
▁vegetarian
▁unspecifi
▁Crook
▁630
▁Madness
▁shp
▁lense
▁Enric
▁Sheen
▁zebra
▁mudslide
▁ambiguit
▁395
▁Mendelssohn
▁Hatfield
▁arbitration
▁Stella
▁weekday
TU
tze
▁Amherst
eira
affe
pulsion
▁Leadership
▁logarithm
▁Ricketts
▁Tiberiu
▁Streep
▁Skanderb
▁dwell
▁Islanders
▁Predators
stronomical
▁Occasional
jet
▁Peruvian
▁stray
▁Riga
▁melee
▁Propert
▁evok
▁Smile
▁HC
▁199
▁stalemate
inck
▁initiation
▁fugitive
▁Beaumont
▁breathe
▁Cesar
▁209
▁salamander
▁Imagine
▁conserv
▁Prescot
EM
▁UFC
▁seismic
ophile
▁Bremen
▁Hague
▁Bloc
▁Carnival
▁goth
▁Saul
▁Benny
arity
▁appropriation
▁Elisabet
elina
▁Partners
ancing
hog
▁arranging
▁Fatimid
▁Parthian
▁Debra
harto
▁Brund
▁Thal
taku
▁Chak
▁Watkins
▁umbrella
▁livery
▁Prospect
▁Viscount
▁exemption
▁231
▁glam
▁secre
▁nitrate
▁realignment
▁cannabi
▁Thro
▁Teres
▁Aug
▁dorman
▁upbringing
▁Chola
▁Stag
▁Engel
▁Packers
▁Zahir
▁Tramway
▁Schur
▁Slim
▁crease
▁psi
▁Columbian
▁banknote
▁Weekend
▁rapping
EW
▁Pact
▁Honolulu
▁electrifi
▁Palla
▁elector
▁quell
▁bracket
▁Sunny
▁prevention
▁victor
▁Nathaniel
▁McGregor
▁Parkinson
▁Anglesey
▁Acap
▁Crean
▁Geographic
▁Dragoon
▁octagonal
▁thorn
▁Biology
▁Sharma
▁Ethic
▁incompatib
▁Protect
▁parcel
▁toppl
aternity
▁contentious
▁Siberia
▁reaffirm
▁Ceylon
▁glimpse
▁corvette
▁Kuwait
▁Jamaican
▁deviat
▁Stratford
▁Olive
▁refreshing
▁gran
▁Tavern
▁seleni
▁Troil
▁Limit
▁Nimoy
▁Pember
hama
▁unimpress
▁pearl
▁Frankenstein
्
▁Jug
▁Anthology
▁Jensen
▁412
Arts
knot
▁Cream
▁alleviate
▁Domingo
awi
▁shortcoming
▁overhear
▁Astros
▁evict
▁abort
▁rigging
▁novelty
▁Levant
▁likeness
▁repay
▁sprite
▁compensat
▁Holliday
▁Yum
▁Nug
▁Tico
▁Dir
▁procedural
▁Ramayan
▁DiBiase
▁Yamato
▁670
▁Concorde
▁Tun
▁devout
▁ovation
under
▁carvings
▁Jai
▁Gillingham
▁Plin
▁Helsin
▁denie
▁Sherwood
▁shorten
▁transmit
▁Sick
▁Constance
▁infiltrate
▁Fuck
▁bishopric
▁Ál
rgent
▁compression
▁veer
▁butterfl
▁Eternal
▁Javan
▁Galactic
▁Batgirl
hp
▁Updat
bracelet
▁feasible
▁Kier
▁vibrant
▁ligament
▁Crawle
▁loft
▁tolerate
CLA
▁autops
▁blackmail
▁XV
▁CW
▁Kuo
▁chieftain
▁lemon
ynthia
▁echoe
▁Seinfeld
▁nois
▁Cassi
▁gait
▁flip
rana
▁Buc
▁ferment
▁Garra
▁shipwreck
▁Hatter
uria
▁Perse
▁Salo
▁safeguard
▁Composer
▁Blackpool
▁dad
▁Acre
▁Manual
hasa
▁blonde
▁weaving
▁Lack
▁Tito
▁ultimatum
▁spire
▁Orbit
▁Metz
▁Malmö
▁McCall
▁Grill
▁disqualifi
ò
atorium
λ
▁Yoga
illary
cherry
▁620
▁expressive
▁intriguing
▁pandemic
▁math
▁Alleghen
▁bount
▁lame
▁frank
paint
▁modernist
▁Gonzal
▁Berkshire
▁assimilat
▁Wichita
ikh
Game
▁nuance
scot
▁Heinz
▁Trap
▁Permanent
▁courtesy
▁dubious
▁parasitic
▁coli
ense
▁Tong
▁1763
▁Check
wife
▁Camera
▁electrode
▁goodbye
▁Tear
alone
▁stigma
▁TF
▁McGee
▁bulge
▁carcass
protect
▁Sadle
▁Cavendish
▁Demi
▁Marr
kota
Ž
▁Sargent
▁LW
▁Mitsubishi
▁Sibu
▁Ready
inski
▁disciplinar
▁claimant
▁ruff
▁exhaustion
▁unpublished
▁inventive
enia
▁McLean
▁glowing
▁Famous
▁820
▁ounce
▁265
▁taunt
▁hungr
▁oboe
▁Vega
▁Daleks
▁supermarket
▁pact
▁Ravel
▁picket
▁227
▁minimalist
▁dodo
▁DR
▁Chev
▁Knea
▁directive
▁pageant
▁Celebrit
▁kingship
▁355
état
▁locker
▁Danzig
▁Barbaros
▁Miracle
▁template
▁consorti
▁Veda
▁Conception
▁495
▁termite
▁archive
▁prologue
▁Launch
fancy
▁Communication
▁Tory
▁enhancement
▁Magdalen
▁Python
▁Constable
▁Ruff
▁lynch
▁Haze
lemu
BSD
▁Worm
▁educate
▁cohesive
▁stimul
▁conformation
▁slain
▁Remain
▁197
▁830
▁isolate
▁Deutschland
▁Breton
▁inconsistenc
▁233
▁Juvenile
▁auditor
▁grill
▁Chun
▁Poker
▁Baptiste
▁sorrow
▁Björk
▁docking
▁Gabriell
▁subjective
NR
▁Theobald
▁excursion
▁Didd
▁Lago
▁Tuscan
eval
▁Maroon
▁endure
ichell
ragon
▁Barrymore
▁Burlington
▁Guadeloupe
▁campuses
▁Nemes
iensis
▁Inglis
▁Darling
▁alto
hildhood
▁Turtle
▁hatching
▁Monastery
▁Creat
▁273
▁ponder
NE
▁ethno
▁Waller
▁Hesse
▁operatic
mbrella
raj
▁galact
▁Tuc
▁incite
▁Stratus
▁Violet
▁outrag
▁atrocities
▁pedestal
▁harassment
▁contractual
▁oxidiz
▁Swin
▁charismatic
▁Lorraine
▁wandering
▁papa
▁Trou
nape
▁drone
▁rave
▁Reggi
▁Garrison
▁infrequent
▁ornamental
▁Quar
▁tramway
▁Symphoni
▁Rowe
▁Regenc
▁Kuni
▁Leopard
▁IPC
▁224
▁relinquished
▁naive
▁deadlie
▁festivit
▁Rabbi
▁amalgamat
lah
▁rigg
▁organiser
▁Welcome
▁referenc
▁Bigger
ucer
▁skeptic
▁Ira
▁ammonia
▁phyl
▁Blackstone
▁Moose
▁Bridgwater
▁wildfire
inho
▁Terrier
linka
▁Berth
burne
▁PT
▁Raphael
▁rainbow
▁figurine
ctive
▁Eul
▁legg
▁970
▁Stack
▁Hub
▁Bann
▁fibre
▁amaz
▁characterize
▁adulter
▁Stret
▁synch
▁TA
▁rangefinder
▁spaceship
▁Dual
▁1300
pei
▁tribunal
▁Haf
▁customiz
hau
▁subtitle
▁defi
▁unpredictabl
▁Walli
▁Bowers
▁Yeoman
▁237
▁Cassin
▁arterial
▁slump
▁educator
▁embarrassing
licia
▁Zombie
▁reboot
▁Jacobite
▁pencil
▁Lem
▁cumulative
▁tub
▁Assessment
KA
▁eclectic
▁920
▁aerodynamic
asim
wei
▁Longhorn
▁Lama
▁Krab
orrell
▁Merck
▁Igbo
▁allude
▁Corneliu
▁colonization
▁Caucasus
▁unearth
▁Libert
▁urina
▁preclud
▁raccoon
▁tractor
▁Mackenzie
▁365
▁unarm
▁193
▁crusader
▁Leyte
▁cabbage
▁McKe
▁traumatic
▁puff
▁Investment
▁stunn
▁endowment
▁Thé
▁Beirut
ciant
▁canine
▁Horner
▁870
▁UM
▁Corv
▁laborer
▁Zee
▁Tribute
▁Icon
▁McAl
▁Franciscan
stern
▁Kry
▁moult
ready
▁Photo
▁derid
▁paddle
▁Immortal
▁Aver
▁fortunate
▁Crab
▁standardiz
▁slum
▁squid
▁Vanessa
deroga
▁bob
▁Climb
▁ulcer
▁resettl
▁Cambodian
▁Carrick
▁Gambi
▁divergence
ollock
▁Fit
ohl
▁Motown
▁Silk
▁dilemma
▁Dao
▁fist
▁cultivar
▁tsunami
▁Pleas
▁570
▁Kristin
▁256
nonymous
▁prairie
▁Romani
▁Patch
▁Calvert
▁watt
ariya
elberg
valona
▁HP
▁Fest
▁dart
▁Bohemia
▁oct
▁Cure
▁commentar
▁sinister
▁Anjou
ël
▁ultraviole
ubblegum
▁Wikipedia
▁dilut
▁Gamma
▁Bá
opatra
▁Soma
▁signalling
▁pollinat
▁Crittend
▁hopeless
▁Separat
▁genealog
▁drap
▁unaff
▁dictionar
▁Conte
▁Oceania
▁corpus
▁Debora
▁diffuse
▁Electro
▁downfall
▁Caul
▁Sector
▁strait
Sullivan
▁negat
▁Important
▁Scholar
▁Vanderbilt
▁Cristin
▁Richter
▁Gree
▁Freddy
▁monograph
▁impetu
▁Diesel
▁Melville
▁Frus
▁Gare
▁Estimate
▁expansive
▁shipbuild
▁runoff
▁Pepsi
▁dop
▁trimm
zol
▁Cog
▁Weir
▁Soli
▁Erica
▁flatter
▁bait
▁espionage
▁McGuinn
▁launches
▁darken
▁fullback
proof
▁demolish
▁Archive
▁antelope
▁Aggie
▁Duty
▁Bourne
▁Granada
▁baptiz
▁Blonde
▁Nora
▁Novi
DO
▁heraldic
▁Whistle
▁Fremantle
film
▁northeaster
▁enlighten
▁pierc
▁airship
▁unify
▁Wand
▁sens
EG
▁Amid
▁comedie
▁Politb
▁Milo
▁Connect
▁Lamar
▁Brod
▁cruci
▁253
ugher
ijk
▁Euclid
▁Boi
▁sonata
▁Triumph
▁supplant
▁Deca
▁provoke
▁peacekeep
▁appall
▁antisemit
▁salvo
▁Fellowship
▁Río
HT
▁firefighter
beau
▁Trustees
▁Nitro
rax
amí
brush
▁tomato
▁sloop
▁Reno
▁Mountaineer
▁Holby
enos
incorporated
kovsky
▁confinement
▁quirk
▁Cola
▁persecut
▁curiosit
▁resurfac
▁219
LT
zone
▁Steiner
▁haunting
▁Emirates
▁Solidar
▁Ismail
▁Zach
▁Atta
▁Chaco
etirement
▁Rabi
▁Sev
▁shotgun
▁204
▁etymolog
▁fucking
▁Germain
▁Pyr
▁690
▁223
▁bead
▁Este
▁freelance
î
▁Daddy
▁bacon
▁chopp
▁bounce
▁disengag
▁globul
▁Ricardo
▁orchard
'
▁Gilchri
▁Lehman
▁User
ả
▁1786
▁thrive
▁Kangaroo
▁Pentagon
JN
▁deteriorate
▁symboliz
▁Jacqui
▁reckless
▁Ivor
▁overcrowd
▁Approach
nski
▁seam
▁kisses
▁Vida
▁embarrassed
▁optimal
haven
▁Blanche
▁Cork
▁Rut
iol
▁Carleton
▁curator
▁Ō
▁Herodotus
▁Banda
▁Gio
éli
nstall
▁Theresa
atore
▁asthma
▁Purdue
▁marathon
▁macaw
▁Evolv
semite
▁phylogen
▁Valle
version
▁Dill
▁impractical
▁centraliz
▁carnival
▁sock
▁centenar
▁Farr
▁allocation
▁Columb
▁1750
▁redemption
▁empirical
▁Lacta
▁Hid
▁Viv
unn
▁Prost
▁Happen
▁prim
▁sept
▁Wap
▁Lecture
optera
orious
▁Kennel
▁bisexual
▁Suit
▁Simba
▁Kazu
▁McKay
▁cess
▁Brahma
▁garment
▁necklace
vinsk
▁industrialist
▁Koch
▁Ediso
▁Allah
▁basidia
▁Performing
▁Architects
▁Pollard
▁tavern
▁Essential
▁acquaint
▁polyp
PFA
▁viola
▁allele
▁skinn
▁roundabout
▁Kama
▁Sheppard
magne
▁Maharashtra
▁siz
▁Hotch
▁Hil
▁Mast
▁Mihail
▁punctuat
▁cellar
▁Mustang
▁candy
cluding
▁Indie
▁Boro
▁Somalia
▁Opu
liche
▁Mitt
▁starling
▁Æthelber
▁Terran
▁plausibl
▁Could
▁Airfield
▁dockyard
▁narrate
▁207
▁gigant
▁disseminat
▁stimulate
▁comical
▁Sundan
▁heterosexual
▁Bhu
chemical
▁documentaries
thorpe
▁translucen
▁complicat
▁refiner
▁Rai
▁Quay
▁Bourbon
▁Reuben
▁soften
▁feeder
▁cleric
▁fir
▁Syd
▁Joss
▁Shang
▁CF
▁Hagen
▁Gramp
▁GRT
▁hydroelectric
▁Meteor
▁Pearce
▁griev
oloph
▁Panhandle
▁doi
▁carpenter
▁Tid
▁grandparent
▁Warfare
▁cruelt
▁Yam
▁consolidation
▁Adolph
▁genocide
▁goalscorer
DC
▁revamp
▁methodolog
▁Wander
▁imitate
▁combo
▁statesman
aegu
▁sir
▁Judici
▁Kurtz
▁Posse
▁Putn
▁penguin
▁Enlightenment
▁Radcliffe
▁magnesi
▁Sagan
▁Lemur
▁Hymn
▁churchyard
▁CSI
▁injustice
motive
▁respondent
▁Dillon
▁looting
▁evad
ckel
▁wove
▁Purcell
▁embarrassment
▁empath
▁stereotypical
▁Donagh
rises
▁Folio
▁ingest
OW
▁lagoon
▁Advocate
▁Debbie
▁Vander
▁245
▁Ciara
ceps
▁Khán
▁Arundel
▁asexual
▁Butcher
iddh
▁waiv
▁fledgling
▁methan
▁Devin
▁bandmate
▁makeshift
▁Bunny
▁feasib
▁inflammation
▁pulmonar
▁intrinsic
▁Trafalgar
▁Jama
▁Pamel
▁strife
▁distill
▁Saddle
▁McMa
▁Rie
koff
quist
▁Ethel
▁509
▁Gren
▁Vikram
▁Schwarz
▁Arbit
▁Expansion
▁Insurance
▁avenge
▁Listen
▁Hunger
▁Seyd
▁214
▁terminat
▁Johan
jiang
▁aboriginal
▁transcrib
▁Thessaloni
▁RN
▁geologist
▁Prefecture
▁243
▁Sino
▁Gera
wire
▁Aria
▁Radar
▁IP
▁Iris
▁sore
▁Registr
▁Kop
onroy
▁Pote
▁Antiquit
▁loyalist
▁loom
▁transcend
odrome
▁oversight
▁890
▁mixtape
▁Passage
▁Poetry
▁laughter
▁Fleur
usha
▁HM
▁disdain
▁discrepanc
▁afflict
kmul
▁Craven
▁Bless
▁dominion
OG
▁Quent
▁Saladin
oslav
▁Experimental
▁BMW
▁impulse
▁seduce
▁Amanita
▁UFO
▁405
▁Mohawk
▁choruses
▁Ethiopia
▁shepherd
love
▁cockatoo
▁PBS
MU
▁overrid
▁poloni
frith
stoke
▁salute
▁Nuremberg
▁Burgund
▁Nank
▁Oliphant
▁epileps
tada
▁Shut
▁resurrection
▁bloom
▁Vengeance
▁southwestward
▁Claudius
▁postulat
▁Alvin
▁fluent
▁café
▁rearguard
gham
▁cheerful
▁hobby
▁Hof
▁Lavigne
▁subgen
▁pant
repair
▁dynast
▁perennial
▁Groh
▁transmitter
▁Masl
▁Brawl
▁Sequel
▁345
▁irid
▁derail
cek
▁Raptors
▁Maximilian
▁confer
▁anthropologist
▁prowe
▁imperfect
▁spec
▁Demo
▁Moderate
▁Kubic
lüch
▁Format
▁tandem
▁sensual
▁Roo
▁behavioral
▁Guatemalan
▁versa
▁Constant
shock
vington
▁wholesale
▁sledge
▁McDonnell
▁tuft
▁Ypres
udski
▁amber
▁Ritz
▁airframe
▁Anita
intang
▁Massey
▁ordnance
▁Guthr
ailing
▁Angie
▁Mora
▁usher
200
▁authoritarian
▁Martyn
▁Troll
VR
▁accessories
▁Lyric
▁McEw
▁vendor
▁Yak
▁Graduate
▁clipp
▁intrusion
▁Hayden
▁Fah
▁Guilt
mplain
▁beans
▁Farrar
▁Delegate
▁overdose
▁Powderfinger
omination
▁Vilnius
▁Rage
▁Slater
▁Dei
▁Neck
▁Stat
▁fresco
▁embroil
▁880
▁taxon
▁speci
▁Rudolph
▁hypothetical
▁Molly
▁polo
▁orphanage
▁Osaka
▁313
▁Joachim
▁Armag
▁Plantation
▁Freemason
▁Claudia
▁Related
▁combustion
▁Paley
▁Kipp
▁Wig
▁Rimsky
▁implicit
▁Cartwright
ZA
▁Coward
▁Abbas
▁neural
stadt
▁Blanco
▁Riel
▁Sera
WG
▁warhead
▁Cress
▁flush
▁Shrine
tooth
▁repel
sexual
▁Uni
▁constable
▁Pang
▁pixel
▁ninja
pedia
current
▁abdicat
▁reneg
▁Magi
▁couch
zuna
plate
▁Vil
▁elevate
▁brace
▁Revenue
▁Moltke
romo
▁materializ
▁1785
▁Oda
cino
▁calculate
▁SN
▁Timber
▁Beckham
dair
mpossible
▁Genoa
▁probation
dust
▁Tapp
▁soak
▁Castil
▁Friendship
▁Sharpe
▁hurried
▁Cine
▁aggravat
kaku
▁WB
▁Gett
▁Penda
▁embellish
▁Krupp
▁Regulation
▁aviator
▁Decline
▁Garnet
▁Ribb
ddington
felt
corp
▁subscriber
▁Halper
▁antique
▁enjoyment
▁unlawful
▁locat
▁Ames
maid
▁adhere
▁5000
▁Poems
▁Tanner
▁fasc
▁prerogative
▁recitative
camp
▁Vedd
▁disconnect
▁Roa
vitz
▁GE
LO
rification
zalea
WF
nalytical
note
▁Shipyard
▁unjust
▁accustom
▁selfish
▁buffer
▁Nur
▁penetrating
▁revitaliz
▁chlor
▁lectur
illaume
▁exclaim
▁Lawson
▁fetch
ân
▁Alek
▁palat
▁Salami
▁allowance
▁lightweight
▁Rally
▁Lynd
▁Consumer
▁poignant
▁Fabian
▁Wadi
▁Scheme
▁Korsakov
▁Arlen
breast
▁Colonie
▁Ella
▁viaduct
▁Mash
ydd
▁Lung
▁Liber
▁Lamon
▁JAL
▁Macmillan
▁obstruction
▁Timm
▁perceive
▁unleash
▁admire
dhya
▁shave
▁Edmond
gata
▁rehabilitat
▁clown
▁pharmaceutical
▁inversion
▁diver
▁embroider
lou
▁Stela
▁Benton
▁Thorne
▁Deliu
▁Mog
▁Hanson
oides
▁sprinter
▁Hooker
▁caldera
▁Metter
▁Cates
▁Begin
▁predominate
▁Cavalier
▁bestseller
▁Colling
▁medicinal
entary
▁Download
riva
▁confid
▁Bradbur
▁suppose
▁Inquirer
▁punctur
▁precinct
▁Fife
▁Pulitzer
▁Medici
▁Sheila
▁Hinde
rank
▁blockbuster
▁Haitian
▁skies
▁foreshadow
▁Drawing
arter
rex
▁960
▁Decla
vick
▁voicing
▁overpower
▁Flores
▁friar
▁Kaufman
▁CPU
▁endeavour
▁patien
▁kinetic
▁Mendel
nah
▁Conserva
▁Subway
ppler
▁Epir
▁Ajax
▁Cagney
▁Pił
oshi
▁breakout
▁brutalit
▁oppression
▁deportation
▁Schulz
▁Cassidy
▁checkpoint
▁palette
▁workplace
▁swelling
▁Malik
▁Leban
▁galley
▁Does
▁Belmont
▁gentry
▁Kilda
▁Blum
▁designate
▁Sack
▁buildup
▁580
▁dignitar
▁Martian
LM
ς
RU
akan
▁patri
▁Pia
▁Swi
▁Cisneros
▁Formby
▁Montoya
▁polymer
▁Ell
▁Brut
▁deter
▁ample
▁Jarvis
umbo
▁visa
▁Blast
▁NAAC
▁rainband
▁Dat
▁secretion
▁Pensa
▁Superstar
▁commune
ì
▁pygm
▁Linn
▁Protocol
▁Quadr
▁holotype
▁279
epp
VP
▁moniker
▁Gladston
▁Term
▁Aerosmith
▁Conflict
▁Amnes
tank
▁Giusepp
▁warmth
▁forerunner
▁lull
▁artisan
fen
UR
▁souvenir
▁functionalit
▁anecdote
▁244
▁stipulation
▁Archaeo
eopardy
▁Rajinikanth
▁Alto
▁Leto
▁Tek
EV
▁Colomb
▁tyrant
▁Glover
▁brow
▁Opinion
esda
▁Marian
▁vigil
▁286
▁Tyson
▁restructuring
▁Bucharest
▁elastic
▁Gert
▁Ridle
▁buoyan
▁salesman
Leary
▁Tension
▁novella
rvik
▁Cameroon
▁Addis
▁sunsh
▁Hasbro
▁Vance
hose
▁Nea
▁Principle
▁Gillan
▁Mulan
Murray
▁Lesnar
inois
▁gestation
▁Ruk
▁1650
losa
▁Goodwin
▁Shoot
MJ
▁Taj
▁Pohl
▁Nagar
▁applause
▁meticulous
▁Derrick
developed
▁graceful
▁Cora
▁endow
▁mosquito
▁roar
▁redundant
characterisation
▁Mermaid
▁Hodge
▁Plato
▁Tamaulipas
▁Hawthorn
▁Shatner
▁allott
▁Colise
▁Liga
▁overboard
▁Livingston
▁Gonzalez
▁unlimited
▁stagger
▁Lowland
▁Dj
appella
▁bending
▁Corona
▁Rijeka
▁avail
astille
▁Merrick
▁Huski
▁Karaba
▁ornate
▁expend
▁seater
▁Atherton
▁navigator
▁delightful
▁crescent
▁lawful
▁vocation
▁filmmak
▁Tribunal
▁cosmetic
▁excret
conical
▁artery
ference
▁perpetrator
▁reflex
▁deviation
ș
▁Strasbourg
▁airstrike
▁Statute
▁Swimming
▁audit
▁motorist
▁Wife
▁kilowatt
▁Goss
▁pollut
▁cemeter
▁Laser
▁contraction
▁Tamar
▁Mojo
▁Yuko
▁baker
▁optimiz
▁Tung
▁gossip
EI
▁actinide
▁nostril
▁tempt
▁torment
▁ugly
▁eas
inaw
ATA
▁perpetuat
▁trek
▁Restaurant
▁Fries
▁Document
▁dismount
▁Surface
vsky
▁paradox
▁Contra
▁Kea
▁Yeats
▁242
▁Curt
▁Nie
▁999
bred
▁Chancer
▁XXX
▁Developer
▁MacLeod
▁Freud
affron
▁Kana
▁Henriett
▁Hallow
▁Skelton
▁Kimi
BU
▁Bresl
▁Ape
▁decompos
▁resultant
▁321
▁tortoise
▁Wooden
▁Stanisław
▁forecastle
▁overpass
▁pic
▁Democracy
▁rebuff
▁218
▁sorcer
▁condemnation
piracy
▁Suburb
▁creditor
▁signall
▁Recovery
▁Fami
▁Dupr
▁Palau
▁bundl
▁Coordinat
▁relinquish
▁silhouette
▁intercourse
▁tungst
▁840
▁McNeil
▁Cycle
▁Benoit
▁Belarusian
ε
▁Module
COM
▁Archduke
▁unorthodox
▁corroborat
▁fascination
▁spectroscop
▁Amp
XVIII
▁suggestive
▁Reiss
▁hydroxide
▁wicked
ffluent
▁Hershey
GL
▁Drown
▁knot
▁irrelevan
gru
▁bureaucrac
NL
▁Phoebe
▁Smithers
▁Duan
▁457
▁decipher
▁Loyal
▁impeach
▁Tenn
vur
▁Encounter
▁wren
▁autograph
▁punches
▁Beacon
▁exo
gawa
▁Skagen
▁Tron
▁Katz
▁Nguy
▁epoch
▁Loma
ı
▁Jervis
▁junk
▁ovar
▁discern
▁fertiliz
ASP
▁Moravia
PW
▁Waste
▁Discuss
▁fancy
▁Viceroy
odine
▁organist
▁inspirational
▁Vicar
ν
▁Lantern
▁Damn
▁headmaster
▁Fift
▁Ascension
▁Eyck
ulli
▁Miocen
▁caravan
▁browser
▁Bedouin
▁Sammy
▁Blur
▁jerk
▁milligram
▁Glad
▁Monty
▁Domitian
adine
aveston
▁Ziggler
▁horizontally
▁Rashid
▁Dalmatia
▁eccentricity
▁stabilis
▁Roach
▁Novo
▁Please
▁Contract
ulenc
▁Sven
▁indifferent
▁dissuad
▁demonic
▁Condition
▁detrimental
▁Doh
▁Bail
▁Ferris
kun
▁Ayyubid
▁Pipe
▁Anger
▁altercation
▁taboo
▁Ghana
▁Bakr
▁apprehend
▁skirmishe
▁Madura
▁outrageous
JP
▁Jinnah
▁Tejano
▁bud
▁Emde
FT
▁Playoffs
▁multitude
▁Quartet
▁Reck
▁iteration
▁Candi
▁Pavel
▁purge
▁Territori
▁ascertain
▁Kuro
vious
olecular
▁Krasin
▁embankment
▁Centennial
▁Bogdan
▁Publish
▁Colf
▁Wallachia
▁fictitious
▁strangl
▁dipp
▁Charge
▁seabird
▁Obi
▁Mongolia
▁Cortex
▁countdown
▁caesi
▁Brunei
▁Kashmir
▁clam
▁Cutler
▁Jagdg
▁Contador
▁classifier
▁coincidence
▁endorse
▁Colombian
▁manifesto
▁Wit
▁graffiti
▁cough
▁Risk
▁idle
▁Screenplay
ature
▁infiltrat
▁tectonic
lung
▁envelop
▁Affair
vah
valent
▁Jordanian
▁leftist
▁Asher
▁Associate
▁Bayard
▁Andrei
▁auditorium
▁eulog
▁Rav
▁Lyndon
▁Quagmire
▁Phine
▁Kiri
▁serpin
▁offender
type
ksha
▁Cullen
▁inaccessib
▁miser
▁airliner
▁squeez
▁crumbl
▁Gunner
▁coil
sław
▁Hilda
▁Preliminar
▁grocer
▁251
▁refrigerat
▁immoral
▁gritt
▁hardcover
▁Harrisburg
▁790
escens
▁glaz
▁Mental
▁curb
ueller
▁chim
▁Weight
pipe
▁Brodie
▁specification
▁Jimi
ticle
▁impoverish
▁Alarm
▁Deco
▁Haig
▁Simple
ý
▁Mauna
▁Knockout
▁splendid
restrict
▁hesitat
año
▁laureate
▁Igor
▁memorandum
ountries
▁Wight
hetti
▁OH
omyce
▁accusation
▁Held
▁stresse
IBM
▁formulation
▁Pontia
▁herbivore
maru
▁shrew
▁Thrace
▁keyboardist
▁walker
▁medalist
▁Varah
▁blurr
▁Babcock
▁appease
▁Alvarez
▁Brotherhood
▁Molotov
▁Zak
▁magician
▁signifie
▁kara
filtration
▁phall
▁espous
▁nostalgi
▁Contrar
▁buoy
▁Trilog
▁farmhouse
▁pinnacle
▁Sudden
▁bleak
▁Nür
▁Tristan
▁Shake
▁sustainability
▁Javi
▁fol
winter
▁Keel
kesh
▁Medica
▁converge
ofor
▁converse
▁Godfrey
▁uproot
▁uneventful
▁Hartle
OE
▁waterfront
▁KG
▁botan
▁heartbreak
▁Sicilian
▁horrifi
▁protract
culture
▁Wynn
▁Jock
▁Teenage
ccoli
▁MSN
▁cardio
▁misleading
▁edict
▁courtroom
▁Mahan
▁Rø
▁Tatsu
▁loser
enheim
▁Headley
▁Bark
▁Trev
▁NPC
▁Staffel
▁Cob
▁Costume
▁Crisp
▁Triest
▁blessed
isner
▁disapproval
▁elegan
▁cox
▁Kurd
▁271
▁contemporaneous
▁Ug
▁booster
▁mRNA
▁quadrant
▁arrogant
▁Doris
▁Hul
▁Castell
▁despise
▁Brahman
▁adamant
▁Rug
▁Rooney
▁Longfellow
▁Seminary
▁Hajj
▁Yanc
miento
▁Kris
▁Grosse
▁Curry
▁Swansea
▁anatomical
▁null
izon
▁Muller
▁neutraliz
ï
▁triumphant
}
▁replicat
▁workload
trip
▁miserabl
▁Nasir
▁Lash
▁Marko
▁adjourn
▁Calcul
▁Lok
▁borsch
▁refract
▁Ensemble
▁241
▁Parvati
▁clarify
▁Educational
▁detonation
▁convent
drank
▁dynastic
cstasy
▁1769
▁Kaif
▁convergence
▁Visit
meyer
▁smelt
▁ineligib
▁Cof
iège
▁Parliamentarian
▁Malk
▁Côt
▁Myle
▁cowboy
otypic
▁Selma
▁Stain
▁Melvin
ơ
▁Ubi
▁Mathematics
▁Lexi
▁Castelli
▁Penelop
▁Blazers
▁Demographics
▁unrealistic
▁Weird
▁Volcano
▁tropic
▁Treat
▁reorganisation
▁Focus
▁slugg
▁fak
▁Response
▁Fern
▁Buena
▁1761
▁playground
draft
▁Cheng
▁Hudd
iscus
▁steamship
▁Connection
▁Situat
▁Plut
▁Byway
cine
▁redoubt
▁Gö
▁trillion
▁eyewitness
▁Octav
▁Limb
▁budd
〉
▁Bravo
gol
▁Cottage
▁Minute
▁Leach
▁Gorbach
▁rivet
▁envisag
▁engulf
▁Unter
▁Scha
▁Quarry
▁Emmet
▁violet
▁dodg
▁LED
Garry
▁exponent
▁990
▁930
▁cliffhanger
lbf
▁grievance
▁Nava
▁emplacement
▁Grimm
▁hulk
▁enactment
▁plough
▁Pistol
▁telecast
▁clerical
▁iguana
▁Xerxes
▁promulgat
▁zeal
ński
▁anchorage
▁brothel
▁Bombardment
▁Mosquito
▁Stereo
▁Conqueror
▁Blizzard
▁bureau
▁pylon
▁lush
bane
▁caterpillar
▁1640
▁Prohibition
▁synchroniz
▁sarcastic
▁Palmyra
▁Oracle
▁Zimmerman
▁Sugababes
▁caption
▁Scali
▁Canis
▁PHP
▁glow
▁Ultima
▁Kita
▁polite
▁Candle
▁cheetah
▁NTS
▁abduction
▁Boca
▁purse
〈
chuk
▁paralysi
oak
▁Aerospace
▁lotter
▁Anson
numer
▁Sergio
prang
▁Tanzania
▁fragmentar
iological
▁cyto
▁loneli
▁generaliz
▁semina
▁unconditional
▁expire
▁Nott
▁rooftop
iferous
▁Angr
▁Viva
▁Slash
▁Hewitt
▁climber
▁densit
disc
▁pizza
▁Toxic
▁Tip
▁Bundes
▁Shal
▁Brem
bhajan
▁CAS
▁Luong
▁nitr
▁supervise
▁Dimitri
▁Straight
▁Aba
▁terminolog
▁alumn
▁Sultanate
▁nymph
IBA
▁clim
▁299
▁Britons
▁Bangalore
▁Prepar
▁Coup
▁crystallin
othermal
▁Corinthian
▁underestimat
▁Asiatic
ransatlantic
▁Discover
▁940
▁Pelle
▁lieu
▁pavement
▁Moro
▁minimis
▁Claus
plasm
▁Biographer
▁Sail
▁americ
▁Quiet
▁Fou
▁Stadio
▁Cossack
fluorine
▁glyc
▁insanity
▁Donner
▁energies
▁Skull
bei
equatorial
▁303
▁antiquarian
▁chronolog
▁obsessive
▁insurgenc
▁Moreau
▁Armie
▁Hodgs
▁Kud
▁slice
▁Lough
▁406
▁Magn
▁Elizabethan
lworth
▁Grub
▁Phu
▁Vivian
▁Clint
▁redeploy
▁corona
▁Arnhe
▁Thayer
▁continuo
▁Hanne
▁Venom
rí
▁potatoe
▁Molina
ebel
▁slay
▁Freshman
mother
▁Chao
▁cue
digo
▁Libb
▁Administrative
▁Swe
engeance
▁saloon
▁Dude
▁republish
▁correlation
▁perpetual
▁Crossroads
▁Château
ielgu
▁hap
▁Bigg
▁muddy
▁Lenny
▁foothills
akoto
avour
▁Purchase
▁Kingsle
▁McClur
▁microwave
▁McCrea
▁Infant
▁Alert
▁Blenheim
▁Redskin
▁NSW
▁Kew
▁Willard
▁Hassan
▁Slaughter
▁symptom
▁Gateway
▁cynical
▁vomiting
▁therapeutic
▁Deccan
fries
▁Rash
▁Diag
▁Eighteen
▁Mechanical
▁providers
▁solicitor
LB
▁Kristen
▁billiard
▁Highlanders
▁Fog
▁Munro
▁plight
▁Mow
litude
▁Lighthouse
▁assassinate
▁Disturb
ndangered
▁Andes
▁Marguer
▁hexa
▁Judiciary
▁Kota
▁Thy
▁Sind
▁Axe
▁MacGregor
▁Wrath
▁Coon
▁flint
devi
▁mumm
▁Peal
▁Zem
▁Desperate
▁Selection
kira
▁sheath
▁Nicol
▁unintentional
▁conserve
▁canonical
lev
▁thrilling
▁delusion
▁Statistical
▁frightening
▁Spar
▁overview
good
▁clamp
▁inexpensive
▁Mystic
▁Sufi
▁affectionate
▁Fuel
▁Wilber
phiro
▁Overlord
unzel
KR
stana
WW
▁charcoal
▁insurrection
▁Scher
▁prelude
▁Thrill
▁Capp
▁myceli
▁credential
▁slug
▁cobbl
▁Gua
▁Saba
▁1730
▁perfume
▁Directorate
▁Linux
▁cocktail
▁Gravel
▁fulfil
▁harmless
▁Particular
▁Beatle
▁780
▁Rook
▁Ceres
idu
▁bleach
▁Icke
▁Vlad
▁accretion
▁uninterest
cIntyre
▁407
▁CTW
▁Hayward
▁Altrincham
η
▁Schindler
▁Neuro
enza
science
▁legislat
▁wreath
▁sulfide
▁Athena
▁kneel
▁officiat
▁Judgment
▁Schill
▁seamless
▁Verne
ofen
▁Bragg
▁plentiful
▁Sno
▁maze
▁Wilton
▁dumm
▁elemental
▁rampart
storia
▁tentacles
▁Monteverd
▁domesticat
attle
▁straf
▁marque
▁Kuiper
▁McCann
▁Shir
▁Fault
▁Ux
▁clarity
▁impart
▁Vargas
▁relevanc
▁Reinhard
▁promo
▁gunshot
▁artifact
▁Increasing
▁Quit
▁Forster
▁aqueduct
▁Culver
▁Tone
▁Shipbuild
▁synopsis
▁Kessel
▁saturat
▁Basel
▁deficienc
uvier
▁Beam
▁261
▁Saving
▁reestablish
▁Awaken
▁Drog
▁confidential
▁reprimand
▁slamm
▁infuriat
▁fellowship
▁Symbol
▁benzodiazepine
▁superimpos
▁Harun
jung
▁Chic
▁Maguire
▁Psi
▁scant
▁Christoph
▁forecaster
▁subt
▁protégé
▁Collaboration
enden
▁Fresn
▁transept
park
▁Fei
▁commonplace
▁analogue
▁Qatar
cchio
▁Emili
patrick
▁Unofficial
▁lyricist
▁adaptive
▁remodel
▁velvet
llery
▁Catalan
▁Dewey
▁Ælf
hafe
▁Metcalf
▁penal
▁toleran
▁Lent
▁dime
▁Barra
▁Tinker
▁Kidd
▁Helgoland
▁crani
▁Stampede
▁Naught
▁Chap
▁Muse
▁Mandari
▁Sheldon
▁hoax
▁Ventu
▁addictive
▁Poison
▁detonate
▁straddl
▁Schuyler
▁protease
▁Lounge
▁Fulton
▁matchup
▁lantern
▁intestine
▁Axel
▁Equal
▁SSH
▁Arad
▁vagina
▁Navajo
▁FN
▁Sarg
rès
▁Outlaw
▁GR
▁Carag
▁236
▁skipp
▁Hermes
▁Chef
▁subgenre
▁termination
▁superpower
▁silenc
▁motel
▁elicit
▁cigar
▁forestry
▁Qin
▁harmonica
▁Iberian
▁transcript
▁swam
▁Wigg
▁Afrika
▁Partnership
▁emancipation
wrote
▁356
▁Offer
▁fragmentation
▁swapp
▁Anglian
▁Springer
razier
▁steppe
▁Gym
enzel
vania
▁HR
▁Hahn
▁Strawberry
AFC
▁NAD
▁Spend
Angelo
▁Voorhi
▁Build
nier
▁rescind
▁Mohan
▁overweight
▁Tipu
▁RMS
rmed
opsis
▁Researcher
▁Moody
▁Scholarship
▁Ori
▁marrie
▁Australasia
▁Ricci
▁fragrance
▁cadmi
▁226
▁Susanna
▁McPh
▁Senegal
▁peptide
▁visibly
▁Lawton
▁ordeal
▁Lucius
lingual
▁backstroke
▁physiolog
▁Amiga
▁Presidi
{
vionics
▁Khazar
▁caliph
▁Tif
▁Debut
▁trivial
▁bitch
▁framing
▁Forestry
oehler
▁Twain
▁Mahabharat
▁spat
▁Sap
▁Millionaire
▁squall
▁dictate
▁Join
▁Reit
▁overrul
▁Strang
▁adjutant
▁Phone
agua
PK
▁Jewel
▁Tammy
▁jaguar
▁exhum
ellus
▁pric
▁Morph
▁Bryn
pura
▁felon
▁Satya
ễ
▁Submarine
▁approximation
▁Weimar
▁Khali
▁RF
▁Bundy
▁Preclassic
▁Heracli
▁Cranm
▁Collect
▁dentist
▁dire
▁860
▁landowner
▁Fontan
▁authorization
▁Kern
plast
▁Texan
▁Debate
▁complementar
▁compassion
▁Casti
▁Pau
ripp
▁lumino
▁plumb
▁Garter
▁mistreat
▁fern
▁Grimsby
▁710
▁Budget
BET
▁interconnect
▁Crack
ratus
uchi
naga
▁rhinoceros
▁Gain
ś
▁rob
▁Milhous
▁avian
▁Thumb
▁Ferb
▁Lassi
▁Palo
▁Brunn
▁Alzheimer
▁Macedon
cLaren
▁UFA
▁trawler
▁GP
▁Courthouse
▁Apocalypse
ctivities
▁Ruiz
terwar
▁533
▁Chamberlin
▁soulful
▁stylis
▁Pussy
▁Jeffer
▁glyph
▁281
▁Mackina
▁cooperat
▁graphit
BL
music
▁sawmill
▁elk
▁Torpedo
896
▁recurv
▁colourful
▁notebook
atum
▁Fulham
▁clot
▁inquest
▁Household
▁Maximu
▁Sö
▁Boul
▁277
▁Which
▁Northumbrian
▁walkway
▁Sigurd
▁negligen
▁Princip
▁Mascarene
▁309
▁Alvarado
DAP
▁Mahone
▁outfield
▁Enro
▁arsenal
redo
▁Ramp
▁Junker
▁Antigua
▁257
▁subjugat
▁Mickie
▁cafe
▁Slate
ucket
▁billboard
▁Gopal
▁berylli
▁Sauro
▁Mushroom
▁ornithologist
▁266
▁Candid
▁Wilbur
▁1765
▁whisper
▁ensign
▁Feet
▁unresolv
▁Featur
▁thrush
▁Labyrinth
▁Babylon
▁Renown
▁Sofia
▁Stuttgart
▁Reproduction
▁cervical
▁Keena
▁mesh
garden
ARP
▁Bigelow
▁factual
▁Barnett
▁Whipp
▁Magyar
▁Juba
▁Cardu
▁cryptic
▁muse
▁Tex
▁queue
▁Jonn
▁falter
uh
▁Sachs
▁PhD
▁foreground
▁Yao
▁endear
▁Rainier
▁Mole
▁Farthe
wit
VI
▁outfitt
▁Nakt
electric
▁forelimb
▁Esco
▁Govern
itut
▁featurette
▁Ripper
kPa
▁albatross
▁Callie
▁Ursula
▁Sounder
▁ANC
▁Ingram
▁bequeath
▁Chappell
hotep
▁hyal
▁Tennant
▁strap
▁ballast
▁melodrama
▁recurrent
▁Accident
▁salon
▁Unusual
▁Haunt
▁confuse
▁Smoke
▁yolk
▁eco
▁Marino
▁Umayyad
▁crisp
▁Hoch
US
▁Racer
heba
▁bourgeois
▁Eton
▁unfavourabl
▁premiership
▁HIS
▁Galen
☉
▁seamount
▁Albu
▁Gaide
▁Sunni
▁Aarhus
▁Miri
TGS
SN
▁fundraiser
▁cramp
▁272
▁Mandat
▁rudiment
▁fearful
▁jumper
entrop
▁Enigma
▁Archaeolog
▁prima
▁Nebula
difference
▁strive
WS
▁Latter
▁Alejandro
▁Cowboy
▁Finger
▁mapp
▁caregiver
▁urn
▁Fidel
▁Tomlinson
▁Horati
▁neurological
tahl
▁ADH
bayashi
▁groin
▁Eith
▁verify
▁airstrip
vara
henko
▁guise
istine
▁equall
▁bilingual
▁hardwood
▁roommate
▁Citadel
▁untouch
▁Weld
▁Temperature
▁Heartbreak
▁Knut
▁Artemis
▁Dou
NES
▁Gerhard
▁Oblivio
mkin
zai
▁Troi
▁Namibia
▁detainee
addington
▁274
▁Hilson
▁Portia
▁scribe
▁anthropomorphi
▁Panch
▁Elimination
ringen
▁Wiltshire
▁Emmanuel
▁roast
bismu
▁stabilize
roscopic
▁Fiona
▁reinvent
▁Growth
▁stubborn
▁intruder
▁Bartlet
▁chronicl
▁Hippo
▁aggr
efront
▁264
▁Anastasia
▁Alessandr
▁gripp
▁memorabili
▁Zanzibar
▁314
armament
▁biodivers
▁Hispaniola
▁Develop
trophy
▁Luthor
▁Bryce
▁entrant
▁Perrin
ananda
fica
blood
▁Zür
▁cache
▁Verst
▁Beagle
hair
▁Dutt
▁obedience
▁simplistic
▁Vader
▁Kimball
▁situ
▁normaliz
▁thoughtful
▁buyout
▁appetite
▁Conduct
▁societal
▁Feather
itsch
▁Sacrifice
▁BP
▁entangl
▁Harrington
▁sanitation
▁carriageway
▁Drain
▁nm
▁ICC
▁Magnet
▁lick
▁Glamorgan
▁beneficiar
▁navigat
▁cloak
▁Samson
▁Simm
▁Shaun
▁agitation
▁airway
▁Fawke
▁hoop
otton
phoros
▁Bottomle
▁Kenset
▁Palin
▁flak
▁425
▁resonat
▁Boon
▁415
arctic
▁Marlins
▁ripe
▁testament
heimer
▁pip
▁1759
▁adjective
▁navigab
▁collage
▁salad
▁ignoran
▁outflank
▁Lym
▁nucleotide
▁gymnasium
▁despatch
▁frantic
▁Pseudo
▁Sem
▁rump
▁pouch
▁Tama
▁grammatical
▁Illuminat
tmospheric
▁hallucination
▁hallway
▁skip
yoshi
▁Pegas
▁RAM
▁Galla
▁Karma
▁Achilles
SWR
ygin
▁quark
intour
uhl
▁tonnage
▁funera
▁seedling
▁repression
▁Overview
▁mourner
▁Furt
▁Gilmore
▁steroid
▁Status
uzu
▁Dreadnought
▁Rau
▁Bikini
itude
▁268
▁signator
▁Stowe
▁skit
▁Silesia
▁casket
▁Shimo
•
▁accomplice
▁Platform
riti
laf
▁Perce
▁Frankfor
▁terrifying
▁parapet
▁Hog
▁311
▁Bergman
▁Message
▁Oat
▁Woodland
▁1764
▁Famer
▁misinterpret
▁Courage
▁Consequence
misunderstanding
▁Bam
▁Cuthbert
▁Lizz
▁Sper
▁Mirage
▁awake
▁teleport
▁Agaric
▁Carla
▁Dell
▁buffalo
▁Elf
▁workhouse
Fan
▁Item
▁Overseas
▁terra
▁Spell
▁epitom
gile
acoma
rith
▁ANZAC
▁McGraw
▁Myrmeci
▁Grum
unard
▁Jor
▁prion
▁315
▁syndicate
▁Increas
▁defy
▁contriv
▁solemn
▁ballistic
▁Yeovil
▁Grimes
▁Palae
▁Coffee
▁Deliver
▁worrie
▁mimick
▁Shao
▁hospice
▁Deacon
▁unprepared
▁Vesta
aunton
▁Sputnik
▁limp
▁1740
▁seductive
▁707
▁Bower
▁Dib
▁informant
▁Turin
▁Hessian
plankton
▁Sheikh
▁Rhein
▁demonstrator
▁Warhol
▁Serena
mayor
Oyl
lateral
SAC
▁Meuse
▁Gypsy
▁clergyman
▁Pumpkin
huan
▁unmarri
▁Anand
▁exemplar
▁tint
▁foresee
▁Homo
▁musicologist
▁Dyke
▁Witnesse
keep
▁salient
erimeter
ascent
▁discret
▁Ness
▁Protector
▁courtier
▁coloniz
▁Alphons
▁annal
chino
▁Leland
▁sideline
▁homicide
▁Domino
radon
tomy
▁adrenal
▁475
▁Hybrid
▁derelict
iệ
▁straighten
rata
▁Wordsworth
microbi
▁Már
▁Lich
▁Snoop
▁McLeod
▁cobalt
▁Cortana
▁Sloo
▁sacrament
▁Sv
ETA
▁Wolves
▁memo
▁Darby
▁volleyball
▁Civilian
ów
heng
▁Wentworth
▁southeastward
▁Rames
▁fastball
▁drydock
arnia
dore
▁hither
▁Jung
▁Nightingale
▁Waka
▁osteo
▁kilo
▁Goddard
▁ditche
▁Cayman
▁waiver
▁incapacitat
▁Sprint
▁Reel
▁coroner
▁Missoul
▁EVA
▁Guill
▁payload
▁futile
▁Supplement
▁cardiac
▁incense
▁Bernstein
▁Would
▁tusk
▁Vidya
▁Jabba
▁Coca
▁extermination
▁vigilante
▁Loose
▁Emile
▁Salvati
▁uninhabit
▁bluff
▁Twentie
▁Burrows
wu
▁tiling
▁Hast
▁Palladi
▁graveyard
▁oblique
▁Reflect
▁Fung
▁Gonn
▁Boyz
▁Sorr
▁decapitat
▁diurnal
catch
▁Patent
▁Hampden
▁ivor
▁815
▁Andros
▁nigr
▁435
lington
▁burglar
▁Muss
niewo
▁Vish
akar
nstop
▁Scientologist
▁Gaunt
▁Sain
▁Arie
▁McHa
▁Cairn
▁til
zhi
▁Fara
lender
▁Rabin
▁twig
▁engraver
▁downplay
▁jug
▁246
▁footprint
▁Instrumental
heism
▁capitol
▁Rite
cademia
▁paralyz
▁Goose
▁Clanc
▁entourage
▁Bunker
▁subdue
▁Stacey
▁Elgin
▁eclip
▁rhino
▁Tunbridge
▁pantomime
▁Fuku
▁aspirin
ovsky
▁Campo
▁335
▁AAC
▁Steig
▁Hogarth
▁Napoli
▁Meeker
One
▁Saavedr
▁Moth
▁methyl
▁Goat
▁Complet
▁Ritchie
▁Crimea
fraid
▁Buckley
▁residual
▁brillianc
▁Address
▁novelization
▁oyster
▁333
▁Cricketer
noblemen
▁retrospect
▁Mendip
vila
▁Haupt
▁Basque
▁Hardin
▁Dive
▁Hoa
▁aloft
▁quadrangle
appen
▁Paraguayan
▁Mariann
zab
▁Duc
▁coupling
▁Hines
▁Feng
▁clitoris
▁Truk
▁toast
▁Cuman
▁exquisite
▁ailment
▁Lear
▁gloom
▁Swim
system
▁forbid
▁telluri
Cl
want
▁Behaviour
▁taxpayer
▁detractor
▁lid
▁inactivat
▁Barnard
▁cleaner
▁Corporat
onami
▁Safe
▁Petty
▁astonishing
▁695
▁Belgran
▁Dani
▁DX
rife
▁halo
imir
▁halfback
▁JBL
▁Óláf
▁Breen
▁Rigg
▁Emblem
▁Kampuchea
opeck
▁meteorological
growth
▁ambivalent
▁footstep
glio
▁Hove
▁McFarlan
float
▁Mang
otherm
▁Lipp
EL
▁ref
▁implosion
tienne
▁RIA
▁Violence
rrea
▁clums
▁capitalize
▁deliberation
▁poach
▁palate
▁eschew
▁1755
▁Duo
▁1642
▁Value
▁Diploma
▁Chung
▁Montfor
▁subfossil
arrett
▁Emery
▁Fierce
▁Marble
▁Maul
▁Volcanic
▁Carlito
▁Gour
▁Sheamus
▁Iwata
▁Jovanov
pteryx
▁Establish
▁tertia
▁Behavior
einitz
▁cortex
▁wanna
▁Casualties
▁Oppos
▁Baku
▁Jasper
▁1100
▁TD
▁skater
▁Chiapa
▁1400
▁serialis
▁Marsden
▁Galloway
▁alkalin
▁Reservation
▁Breeder
▁Pixies
▁Geek
▁Orchard
▁Gruff
▁Riva
▁counteract
▁Buckinghamshire
▁Paran
lexei
▁cerebell
▁LeMond
▁tweak
occupi
▁Siegfri
▁pretext
Works
▁Ulrich
▁Assault
▁falsetto
а
▁brun
▁Whole
▁346
ccessory
free
▁sober
▁minesweeper
▁sire
osh
▁Laird
▁Babylonian
▁Oprah
▁glue
▁Provenc
▁Yesterday
▁willow
▁050
▁Shige
▁starship
▁312
▁Mather
▁juror
▁Butte
▁Falstaff
▁Madele
▁Widow
▁Hilbert
▁Brody
▁Coimb
▁Mahal
▁Viei
▁subgroup
▁Montere
▁Voldem
▁381
▁enchant
▁rationale
▁insulat
▁Simultaneous
▁amnest
▁recollection
▁Pillar
▁Alexandre
▁Tempest
cket
▁Digg
oderm
▁mutat
remont
▁spouse
▁prefect
▁1766
▁tee
cumber
▁Pascal
▁Anthem
horse
▁Goldsmith
▁Ogden
▁Coqu
▁oscillat
▁Bount
▁Eko
shift
▁Castellane
▁Mundo
▁Eccleston
▁multiplication
▁ibis
▁Surrender
▁Brood
▁Wilkins
▁Gladys
fair
▁Aware
▁lacklust
▁León
▁ATV
acilities
▁rampant
▁Hartlepool
▁Accr
▁honeymoon
▁fortnight
▁stir
▁1756
▁Moroccan
▁Gower
▁Sardinia
▁handicap
▁770
▁Nesbit
▁spoon
▁transient
▁Brenda
▁Charger
rtés
▁inflorescence
▁jelly
▁Chocolat
▁hexagonal
▁Julio
▁fluctuation
▁NFC
▁hotte
▁Vă
▁Retro
▁dividend
▁Gawai
▁Ferraro
▁Daft
▁Liddell
▁Nauru
▁Nesc
▁benefactor
▁Apostol
▁lever
▁Nineteen
▁Equipment
▁Glider
▁arsen
▁misl
▁torso
▁402
▁thieve
▁Bloomsbur
▁poultry
▁Xu
▁Bingham
▁Missile
▁preoccup
▁Revel
▁Majestic
▁Sandman
▁interruption
▁barricade
▁Beryl
▁Cake
▁gadget
▁hypothes
▁excit
▁Sampson
▁Tess
PLA
▁Recognition
▁topical
▁Rue
▁stride
▁Modell
▁hound
▁Kure
▁Cá
▁loath
▁Kato
▁Brabham
▁Pentecostal
▁Condor
▁Lann
▁Essen
orfu
▁Trumb
punk
▁Tzar
▁625
▁equip
▁Priya
▁Cafe
▁vanguard
cliffe
▁Tah
▁remodell
▁dorm
puram
▁marina
▁Beit
▁fideli
▁propel
▁rude
▁monstrous
▁exchang
▁goof
▁lobster
▁endanger
▁Spence
▁prodig
▁tagg
▁evangelical
▁incendiar
aglia
royd
▁petal
▁Vaz
▁Goff
▁stepfather
▁Qualifying
▁Tarak
▁Singaporean
▁aggregation
▁Lauderdale
▁Subdivision
▁Guru
▁Schwarzen
▁orator
fell
▁OVW
▁Zwingli
ERL
▁Kenshi
▁Summar
▁Mahesh
▁restrictive
▁Tec
trophic
▁blossom
▁immigrat
▁Revolver
▁recharg
▁decimat
▁slap
▁Gow
▁differentiation
rode
▁herbal
▁bucket
▁savanna
▁Interview
▁corporal
▁Flavi
ernán
▁Eusebi
▁LLC
▁ridicul
▁adept
member
▁tedious
▁Faw
FU
▁Clari
▁Cheryl
▁McGar
▁Fail
▁outcr
▁EST
▁fumbl
▁263
▁Leiter
▁simulator
culver
▁Eccles
FAA
▁Bliss
▁Shiba
EN
▁Shia
▁Divers
▁organizational
Space
▁Wheatley
▁Kiar
▁Employ
▁reagent
▁rattl
▁cornerstone
▁Dvor
▁rebirth
▁525
▁Bohemian
▁instalment
▁Damien
▁Spiegelman
▁Fold
▁vibrat
▁Martyr
▁Tet
▁baritone
▁PTC
▁squash
▁hippie
▁beachhead
▁laptop
▁Chocobo
▁Amund
▁Hungr
▁chromi
▁Regis
▁Syme
alai
▁Pandora
▁Anima
▁Branca
jō
▁Mallor
▁Harmon
▁emanat
▁Effort
▁airspace
▁317
ferred
▁Schultz
▁Minerv
▁backbone
▁molte
nthropology
▁nominat
▁deferr
▁Realiz
▁plotline
▁début
▁quin
itaris
▁Nasr
▁brev
▁Macintosh
▁snatch
▁habitation
▁Cromp
▁Chauve
▁Trulli
▁palp
▁Stab
▁Seahawk
▁Aragon
▁stitch
▁numeral
▁recombination
▁Klamath
▁Vaux
▁Kuznetsov
▁Ganesa
▁GAA
▁centerline
▁auspic
▁hillside
▁Inlet
selling
▁VIP
▁subcontinent
▁understat
▁Apostle
▁Naya
▁trouser
▁Hua
▁restructure
▁Arista
▁expectanc
▁Giv
▁firefight
▁Edgeworth
▁airlift
▁breeze
▁Integrat
▁Corporal
aume
▁invariabl
▁Tigr
▁Rhod
▁Nuev
aksha
▁Olympian
▁Commandant
▁Lego
▁Eta
▁Highness
hanna
▁Miloš
▁383
▁Roode
▁Banff
▁Feller
▁Crowe
▁Adaptation
▁Repair
SHA
▁recast
▁vertebra
▁descriptive
▁Burnet
▁shutdown
▁Sav
▁Forget
tangible
▁Buff
▁mater
ström
ctic
▁Friar
▁glitch
▁campground
▁outcrop
▁irregularit
▁Carre
▁Langle
nathus
▁Kristian
kap
afari
▁Herring
▁distaste
▁outburst
illiard
▁Tanya
▁giraffe
▁Shri
▁Cantor
▁Rahul
▁Brisco
YU
▁expel
▁247
▁librarian
▁tubul
▁Dix
▁cosmo
▁wrongdoing
▁wingspan
▁matte
▁vandalis
▁courier
▁Weser
number
▁allegor
▁Siam
▁Vibe
▁Proposal
▁Quo
▁captivat
setting
▁284
▁priv
▁heiress
▁midship
▁1690
▁adventurer
▁Nazareth
▁Wonderful
▁paragraph
▁Stupid
▁colouration
FE
▁Mound
▁Feldman
▁Vijayanagar
▁Wiz
▁810
▁Conspirac
witt
▁lanthanide
▁Cocker
▁Incredible
▁Dür
hini
▁Sousa
▁Đuri
▁Tuck
▁Finish
▁Unlimited
▁Día
▁Leonid
▁McGra
ffling
▁interdict
▁Valentin
▁apprenticeship
fitt
▁Swede
▁Octavian
▁deactivat
▁tropospher
▁runaway
▁Chorus
▁stow
▁Moray
volution
▁Assassin
▁incompetent
▁Collective
▁Pinter
▁reassure
▁Gertrud
▁Sykes
▁Martínez
▁Rolf
▁scalp
▁Lindel
▁retort
▁Grimaldi
▁Dole
▁Karna
mmon
▁Electrical
▁WCW
otropic
▁Wax
utterman
IG
▁nuthatch
▁Garibaldi
▁duch
EE
▁Akron
▁Shire
adiz
▁laundr
▁hemorrhag
▁Azerbaijani
▁Battlefield
▁rotor
▁Haus
▁Fact
▁disrespect
▁Kamal
▁Georgi
▁amalgamation
▁emu
▁devastation
▁Principalit
▁derivation
aGa
▁bioma
▁Ensign
▁Marri
▁sprawl
▁swirl
▁sled
▁intuitive
▁stout
▁Barrington
▁Nabi
▁Somali
▁bolete
▁Miko
▁Elevat
▁vocalization
▁steamboat
▁dependenc
▁Hrvatsk
▁España
▁Treasurer
arousel
assic
▁Komnenos
▁Meade
▁Eisen
▁Matthi
▁misfortune
▁Coupl
halide
▁Promoted
▁unti
track
▁Aleksand
▁Shelton
▁Wolver
▁pulpit
▁Jac
▁Faroe
▁overdubb
▁legate
▁Liberia
eague
▁Blaz
▁inclusive
▁Lucian
cake
▁Vim
▁anticyclone
▁sickle
daunt
▁Pastor
▁tighten
▁Harrow
disproportionate
crac
▁Pisa
▁syrup
▁dislocat
▁shuffl
▁Unitarian
▁Matrix
▁unnotice
▁Venezuelan
▁1610
▁coda
doba
▁epilogue
▁Sonata
▁Kohl
▁Manchu
▁karma
▁Conservatory
▁Salinger
▁McConnel
▁spectator
▁meditat
polar
VD
▁junta
CHA
▁scaffold
▁millionaire
▁Vittori
isler
▁receptive
▁plum
▁rebuk
▁hurdle
▁Owls
▁Dew
▁Squire
▁Sapphire
▁Gaspar
▁Chapp
▁Chronic
▁pedigree
▁Extend
▁Trout
MD
▁Bulletin
tzki
▁transgress
▁Lita
▁trachea
▁IMD
▁medallion
▁mermaid
pá
▁Gripen
▁Pericles
▁nostalgic
▁Coyote
▁Filip
▁disparate
▁popularis
IE
▁ornamentation
▁Indefatigable
▁deforest
▁Gift
amurai
check
▁Chill
▁Benedictine
▁Peer
▁Joaquin
anagan
cropolis
▁308
▁preferabl
▁sparkl
agher
▁Tract
▁Telephone
beam
▁illumination
▁climatic
▁fuell
▁Palladian
▁birch
▁Pyrrh
sprung
▁Parele
▁Palai
▁Barclay
▁Sideshow
▁Estonian
▁Kō
▁Comput
▁whipp
▁Schuster
▁Improv
▁Sauber
▁Casablanca
axia
building
▁Frick
▁arbore
▁Solution
▁Absolute
▁Münch
▁Hensle
iwa
▁horticultur
▁Nagat
▁Lancastrian
▁McKee
▁sorority
▁Gyg
▁Blackhawk
▁philanthrop
▁Bech
▁biplane
▁ravine
▁bale
▁fluorescen
▁hype
▁Józ
▁Bangko
▁Jamal
▁speculative
▁Consolidat
▁cholera
▁Mathematical
rotai
▁Emil
▁Vital
▁Reference
ermit
▁astonish
kN
aerobic
▁Defeat
▁Merchandis
ommodore
▁1630
chapel
▁Wakefield
▁Mongolian
▁increment
▁Duma
▁Cabin
▁1643
▁culprit
angana
▁McKi
▁tendon
▁Koko
ư
▁psiloc
iscellaneous
▁Promethe
▁STS
▁Marque
▁mala
▁Ritter
▁Hydra
▁Führer
leiman
▁Josia
▁Arjun
▁unsafe
▁counterfeit
▁shaman
▁bassline
▁McCu
▁forgiveness
▁Montei
▁carp
▁Yiddish
▁Heske
▁Parisian
▁pontoon
▁Paro
▁wealthie
▁Nemo
▁irresistibl
▁Winfre
itic
▁Menace
▁SEAL
▁Sage
▁Grad
▁Metropolis
▁Bandicoot
Ware
▁confederation
▁Kinne
▁gild
▁Elektra
▁obligat
▁regenerat
▁Bitch
▁Erika
▁Trading
▁girder
▁Nefer
▁Jig
▁braking
▁Loving
▁Spook
▁neptun
▁psychiatr
▁Carolyn
▁coexist
▁Harp
▁Ganga
▁infring
▁Valen
▁solidifi
▁Beni
▁Bonifac
▁276
▁disclosure
▁Unicorn
▁Courier
▁Sheep
▁apt
▁Morley
▁Moll
direct
▁maximize
▁stub
▁remorse
▁Senna
røe
▁discomfort
▁Fantasia
BF
▁embargo
▁Faye
▁Alcohol
avati
kopje
▁volcan
▁Bamber
γ
▁Capric
▁Muske
▁animosity
▁Kohli
▁Gossip
▁Faisal
▁JC
▁echelon
▁episodic
▁surmis
▁Worship
▁misunderst
▁approving
wung
▁secretari
illu
▁manoeuvr
▁Marti
▁modernis
▁Audience
▁lore
▁Wallonia
▁Sui
▁Kelvin
▁potato
▁machin
▁Azaria
▁interpla
▁dislodg
▁Load
▁Ancestr
▁Remembrance
alsa
▁Massen
▁Berri
▁immortality
▁Rhondda
▁effortless
▁Hap
▁Scrip
▁Frith
▁bladder
▁regenerate
▁Hashi
▁vaccination
▁fraudulent
▁Belong
GG
▁circumcision
▁racetrack
▁Reunion
▁nourish
▁Bullock
▁inhibition
▁fearless
▁unsatisfactor
▁limitation
asseter
▁orchid
ą
uddin
▁Kron
▁veterinar
▁stylish
▁Kain
▁Pleasure
idor
▁holo
▁spacing
▁reincarnation
▁Tahiti
umba
▁warden
▁Forgot
▁Papal
▁disruptive
▁Jeremiah
▁Piedmont
▁tumbl
▁headwater
▁Oberst
▁physiological
▁Trotter
▁Examination
▁Ebb
▁Acadia
▁Phip
▁Burk
▁mite
▁501
▁Schubert
▁DDT
▁defection
▁Borman
▁fairywren
collegiate
▁Amarill
▁codex
▁première
▁symphonie
holt
▁Bosh
▁Daphne
▁Secretariat
▁Mih
▁Pichi
OV
▁Lymp
▁Braga
▁symbolise
▁majest
▁Seventeen
▁ghetto
▁disclose
▁Striker
classic
▁monogam
▁363
▁codifi
▁sturd
▁Jurchen
▁Ceremon
▁Survival
▁scorn
▁Mudd
▁Chevalier
▁Pall
▁minimiz
▁diva
▁Dempsey
▁unbelievabl
▁foam
▁Revis
withstand
▁Geographical
▁ellipsoid
▁Toshi
▁cleav
▁Chem
▁Abdullah
▁Adele
▁irradiat
▁Cyr
▁Wien
▁repress
▁Beecher
ahog
▁Ardenne
▁meningiti
▁Offenb
▁Menzie
▁Reddy
▁DeLong
▁bivalve
▁Badajo
▁Average
▁scathing
▁hairstyle
▁overload
giri
▁358
▁elusive
▁wharf
▁Eclipse
▁Indochin
▁Nicaea
▁eunuch
▁meaningless
▁concentric
▁Causeway
▁306
▁refresh
▁ASCA
▁phonetic
▁Twic
▁evangelis
▁ordinate
▁nap
▁Regia
▁Madden
▁Bash
▁Psalm
▁amenities
ophyll
▁SAFE
▁vindicat
▁cleanup
▁melan
▁Donaldson
CW
▁Dimension
▁decimal
▁Martel
walker
▁Ladder
▁Chico
▁Enchant
rhynch
▁Neme
▁Nansouty
HP
▁SPAN
▁devolv
▁embodiment
▁glid
▁Certificate
▁Joaqu
▁despatche
▁nuisance
Neal
▁frenz
▁McEnt
▁coefficient
▁validat
▁microscope
▁Dutton
▁barbarian
▁emigrant
niston
ougainville
▁Polytechni
▁Inquir
▁asymmetr
▁megalo
▁Brosna
▁Dada
ogenesis
▁barren
▁dimorphism
political
▁expatriate
▁Rumor
▁Konie
▁Nizam
▁Palermo
▁Draper
toxin
▁colonis
▁Portman
▁Satt
▁Standish
▁transgender
▁Redemption
▁Colón
masina
▁Sith
statin
▁Position
▁humiliation
▁Gerva
▁cavern
▁Destruction
▁Jaw
▁Thistle
▁undetect
▁counselor
▁excel
▁1753
▁recital
▁323
euse
▁blueprint
▁converg
▁decri
▁Bender
▁merchandis
▁unilateral
▁Westmore
▁follicle
▁Tamb
▁Column
▁libertarian
▁Technique
▁Cinematography
ești
ellum
ứ
▁Extinction
▁reschedul
▁Lauri
shev
▁Gifford
awkins
▁Kimber
▁taik
▁Bligh
▁414
▁archetype
▁Moral
bang
▁ardent
▁terrifi
▁Stroud
▁obliterat
▁575
▁textual
▁Stuka
▁demobilis
▁frontage
▁808
▁Piz
high
▁Commentar
▁Nigerian
▁refinement
▁Kellogg
▁Gull
▁Comfort
▁Lowr
▁Hernán
▁1620
▁Scrib
▁amnesia
▁hegemon
▁331
▁idiom
▁Constructor
ieur
▁steak
▁Akbar
▁Tiffan
▁Saran
▁Messerschmitt
▁Ashland
zema
▁MCA
▁stoppage
▁enigmatic
ecropolis
▁bandit
▁Feast
▁Laver
fford
laju
▁mausoleum
▁equaliser
▁Babb
▁Shakespearean
▁Faber
▁Negr
▁Auer
▁Huang
▁Wharf
▁Stavanger
▁zon
▁misconduct
▁beacon
▁Constantin
▁TR
▁Giorgio
rsham
▁Architectural
▁Pais
nforcement
▁Wodehouse
▁circumvent
▁Ambulance
▁Nana
▁viceroy
▁hoc
▁Pueblo
▁Patric
▁appendage
▁Bastion
▁Aleutian
▁homophobi
▁fraternit
▁Tulsi
▁redshift
▁Theoph
▁thyroid
▁Suill
rohn
▁kindergarten
▁Referr
▁spruce
▁rightful
ellini
▁Marathi
▁subscrib
grown
▁menace
▁Potts
▁Partition
▁Migration
▁Paolo
▁prescription
▁boulevard
▁Astronomy
▁cadre
▁flawless
▁Tull
▁Crimean
▁Torie
▁248
▁Deluxe
▁accountant
▁spik
▁intima
ík
▁Peabody
▁Marin
▁Cag
▁requisition
▁unequal
▁Kean
▁Burch
▁Torch
▁subversive
DOS
▁Hadle
▁Kongō
▁Keane
▁Desha
▁Parsi
▁Nao
▁Sylva
▁strut
▁Toni
▁interw
▁Batters
▁slapp
undane
▁Ironic
▁decomposition
▁Gentleman
▁fier
▁shingle
▁Magnificen
▁Appoint
▁Mariano
▁trainee
▁Dino
▁Lesson
▁evocative
shū
tinent
▁riddle
▁Shul
▁288
▁gala
▁Houl
▁temp
▁Chadderton
PAC
ř
▁monophyl
▁blatant
Grady
▁Serpent
▁Hano
▁Carniv
▁Neighborhood
▁Saban
▁reciproc
▁Rusk
▁Neg
κ
▁childless
▁Fisk
▁hijacker
▁Bischoff
▁Versu
▁Daredevil
▁Livonia
▁Ruisdael
connected
ubterranean
▁Exploration
league
▁Scot
▁reckon
apoca
▁geologic
wimmer
▁narciss
▁Bust
▁Shropshire
▁Kilmer
▁DSO
▁peso
▁Pharmac
▁Autobiograph
▁timetable
udo
trove
▁1771
▁liturgical
▁Kraft
▁Destination
▁Yash
▁318
▁proprietary
▁Wach
▁miscarriage
▁Dunda
onzo
▁Württemberg
▁Champo
▁Betts
▁Knowledge
▁glance
▁invoke
▁Transfer
RK
▁leaflet
▁Timeline
▁Surgeon
signed
▁advert
▁Rosetta
▁abnormalities
▁Danger
▁Mutin
▁Dominica
▁296
▁disparit
john
▁Psychiatr
▁Angevin
Eye
▁derby
▁324
▁Enrique
▁Messenger
▁Orphan
▁Peacock
▁Rommel
▁precarious
▁matrices
▁propellant
▁dismissive
▁Shale
▁McDougal
achinima
mmigration
▁Prov
▁Siberian
▁Bartholome
▁Malte
▁503
▁411
▁Disneyland
▁1752
ranium
▁Austral
▁Pujol
▁Samsun
▁MHz
▁Beowulf
▁Themistocles
▁Glie
▁Window
▁divinit
▁dilapidat
▁cartilage
▁Praise
▁snippet
▁tagline
▁miraculous
▁Casual
▁Hebron
▁scarlet
▁Lewes
▁Flick
▁suitor
▁mah
▁Sween
▁reset
▁PAL
secure
indistinguishabl
▁refurbishment
▁Tyre
▁snare
▁Sayi
▁Decorat
▁Pulse
▁hallmark
▁Blunt
▁Michi
▁Allegr
▁Skip
▁trespass
allroom
▁Amphibi
▁knob
▁nestling
▁Varanasi
▁Turbo
▁Nunn
SY
▁Mycenaean
▁Kantakouzen
▁philanthropist
▁intellect
▁mycorrhiza
▁Panda
▁sociologist
▁arson
▁Taxi
▁Blom
▁bloodline
▁Southwester
▁Innovation
▁coward
ectomy
movable
▁Draw
▁stonework
▁Rattle
▁incarcerat
▁relaunch
▁Boulogne
UI
▁banksia
▁Temper
▁Convecti
▁argon
▁rancher
▁Arden
▁pep
▁earldom
▁unto
▁repositor
gnew
▁subtlet
▁Nowi
▁Fink
▁Poniatowsk
▁Winkle
▁pediment
▁Halsey
▁Baz
ngard
▁sprain
▁Skill
▁Masan
▁persever
▁reparation
▁Kobe
▁peg
▁crystalliz
▁Currie
▁feign
▁Vul
▁Pomerania
lebone
▁juxtapos
▁Bologna
▁Sevill
▁Portis
▁Aunt
gir
▁fruitless
weh
▁Ophelia
▁curvature
▁luxurious
▁refuell
▁283
shield
ańsk
▁476
▁Mali
▁footpath
▁Crypt
▁Norsk
▁conglomerate
▁Seine
▁graft
▁Barbarian
▁Laborator
▁nausea
▁Keni
▁Shakti
tiner
▁umpir
▁attenuat
▁Sall
▁strata
▁Diab
▁donkey
▁Holstein
psychotic
▁Noether
▁Ligu
▁Gyllen
▁Macartney
▁Dhaka
confirmed
▁portico
▁respectful
▁Organiz
▁connotation
▁gyps
▁Algi
▁Aryan
▁unha
▁Bind
liffe
▁surmount
▁ribosom
▁fibro
amyloid
▁standby
▁Romero
▁Schru
sulin
▁Reflection
▁326
▁Damian
▁quarantine
▁Continent
▁Programm
▁devour
▁fanatic
▁eukaryote
▁shortlist
▁defiant
▁sulfate
▁glide
▁ridicule
▁insertion
▁Manchuria
▁pelt
alibu
▁californi
▁Lux
▁desertion
▁appellat
▁Wrigley
▁bor
▁Auxiliary
▁sloth
▁Shiv
▁DiCaprio
▁Hokkaid
▁Victorio
▁Zieg
▁McKell
DG
▁Nah
▁Osir
▁Kazakhstan
ARC
▁superfi
▁undam
▁Stole
▁Winfield
▁Keeper
anquet
▁marketplace
▁Aruba
atomic
FCC
▁Plo
chuan
▁regress
▁Roar
▁sportswriter
▁Umar
▁Bette
▁Yates
▁stripper
▁Quad
▁Barbar
▁Hoysala
▁cougar
▁boar
▁sidewalk
▁casing
▁Napi
KP
welder
▁Eyre
▁Lotter
▁Vanguard
▁Noir
▁Corinth
▁Threaten
▁Navi
▁triad
▁intermediar
▁reprisal
flix
wson
▁Kości
▁redirect
▁oppress
▁vaudevill
▁upheaval
▁1540
▁vend
▁cockroach
▁schem
▁alluvi
▁316
▁Phipps
▁courageous
▁Forbid
▁Emancipation
▁collectible
ché
▁Keef
▁computational
▁Wesleyan
▁mom
▁revel
▁Possible
▁Nasri
▁Cheese
▁Eris
▁Moto
▁293
▁satiriz
▁Ethiopian
▁Invitation
bush
▁obscene
douard
▁Parallel
code
Trailer
▁Almir
▁Remote
ι
▁tapestr
▁Lichfield
▁MacMillan
▁Galeri
▁sifaka
▁Chaney
▁Invader
metana
▁swan
▁385
▁Cattar
▁financier
CAC
Hara
▁blogger
▁Noise
TP
▁antiqua
▁Fluor
▁Waterway
▁Finkel
▁repatriat
▁entice
nikov
▁Feminist
▁hurl
▁Wai
▁tack
▁ferrie
▁bilateral
▁laryn
▁avalanche
▁Stonewall
empt
▁Burroughs
▁Vasil
▁258
ternity
▁Tunis
▁Nominated
▁Cadillac
▁spp
▁Gradual
▁meteorite
▁acetyl
rrey
▁Crest
▁slough
NM
▁conjecture
▁Smooth
ssistance
▁Venture
▁Voltair
pithec
▁Salama
▁Kabu
Shack
▁Rediff
▁pharaoh
▁brittle
▁standpoint
▁pilaster
▁Dense
▁Einsatzgruppe
▁flop
▁Bitter
▁Larg
▁reciprocat
▁Gabon
▁Aviv
▁benchmark
▁leverage
ème
▁Dunbar
▁Vulture
▁catchphrase
▁furnishings
▁Swamp
▁dessert
▁revue
▁devotional
▁Rowley
▁quartz
▁rott
RR
▁Evangelical
▁thicken
▁episcopal
▁Henle
mix
▁reveren
▁Hyper
▁Hellenist
▁Shant
▁Elmo
▁Dauphin
▁efficac
▁OVA
▁Rodin
▁Lemm
▁Epistle
▁Mechanic
hać
▁Silicon
▁GW
▁McBride
▁McQueen
▁Hager
▁Schnau
▁Nikit
▁chemotherap
▁Hardcore
▁Gob
▁grotesque
▁RFC
▁cereal
▁Evit
▁Chamb
▁panoram
▁purg
▁Féli
▁adventurous
▁Properties
▁disarray
▁agil
▁Yamamoto
▁misuse
▁cunning
▁stucco
▁Natal
▁diagnose
▁centerpiece
▁Niño
▁Schedul
▁Leisure
▁Ganymede
oidea
▁Broom
▁ballroom
▁Merv
Č
▁Fag
▁Kwi
▁Scarlett
▁Jaff
ético
▁Kenna
gruppe
▁Franck
▁Augsburg
▁Carpathian
▁Vich
▁unmanne
▁Bevin
▁Regal
▁Fitch
▁esoteric
▁Montenegrin
▁erection
▁Lena
▁adolescen
rcheological
▁Zeit
hedral
▁Nacional
▁Prosecutor
▁bloc
▁Wign
▁Bernardin
▁levee
▁slang
▁Bellerophon
roots
▁Buckn
▁Gün
▁Blank
▁subset
▁Tetsu
▁radii
▁Vicki
irque
▁Interchange
▁Statue
▁coordinating
▁1080
mplified
ité
▁Shaf
▁instill
▁Bib
tagecoach
▁tripp
▁mutineer
▁Musk
ún
▁Nimrod
▁378
▁Duk
▁Kolb
▁Runcorn
▁Thanja
▁409
Shaughnessy
▁Tulun
ẩ
▁vehement
▁bureaucratic
▁clandestine
▁responsive
fund
▁knit
▁Pattern
▁mellow
▁cheerleader
▁modulat
▁805
▁paradigm
chak
uditorium
▁Lesbian
▁atypical
▁1720
▁Jermain
▁Jeho
▁Reaper
solar
▁subunit
VC
organic
▁captor
▁violinist
▁accru
▁cinnamo
▁555
▁Johannesburg
▁Pew
▁Bubble
▁diner
▁Pitman
▁Poetic
▁spacetime
iformes
ế
▁Matabele
▁Tombstone
▁impurit
▁Neel
▁censur
▁conceive
▁Ayer
lukew
▁paus
▁overtone
nasty
▁relian
▁ingestion
▁misrepresent
▁Candidate
▁Specifications
▁newsletter
▁sceptical
▁Null
▁hypertensi
▁Infern
▁Supervisor
▁profanit
▁blacksmith
▁Nottinghamshire
▁kron
werk
▁Laho
▁Aalborg
▁Dunkirk
▁smiling
▁Termin
▁Fayette
▁Fau
▁prox
▁Benefit
▁oscillation
▁Vandal
▁Clough
▁fandom
BiH
▁Kagam
▁Rafale
▁Mato
▁Saldí
▁Ghosh
▁Entent
▁Garner
wry
▁Kalyan
▁oriental
imony
▁Prasad
▁retard
hydride
▁carbohydrate
▁Incorporat
▁Avalon
▁Recurring
▁Guan
▁rustic
▁259
▁contigu
▁fief
▁schoolboy
▁Herrera
▁NOAA
▁serum
▁Scotch
▁Voss
▁catastrophe
▁Munc
▁Hampstead
▁Psyche
▁nurtur
▁Carlson
NF
▁Gorg
apple
▁encyclopedia
▁Advancement
▁skyline
▁paranoia
▁occupanc
Í
▁Juniper
▁diversifi
êm
▁Jodi
▁Erskine
▁Cheyenne
ujah
▁Cerv
▁involuntar
▁chough
▁Erick
▁socket
ountdown
▁parkland
▁Judd
▁Kootenay
▁arteri
▁Quran
▁Schedule
▁Clip
▁categoris
▁Quin
▁downturn
▁Planetar
▁Ravan
ooney
▁Welfare
▁linguist
▁Malayala
▁Pong
▁Julien
▁Predator
▁Reese
▁desperat
▁stork
▁895
HO
▁Vijay
▁Katharin
▁Bax
colonisation
▁hygiene
▁Facility
▁sash
▁maxilla
uspicious
▁Jaime
▁Troms
▁Banjo
▁Tetra
▁Lacey
gold
▁Gillespie
▁Perón
▁Forerunner
▁intravenous
▁Libre
▁Melani
corro
▁IPA
▁gladiator
niac
▁Cargo
▁Strathc
▁Cheek
▁Druck
▁Berwick
▁Basto
▁waveguide
▁Fonda
▁hippocamp
­
▁Staple
▁Loretta
▁Adrien
▁Licens
▁External
▁Ginger
▁summari
▁Kentish
▁imbu
▁Debuss
▁ppm
▁Woolle
▁bullpen
▁fanbase
▁burgeon
▁Foll
▁yeast
gård
▁Liang
▁readership
▁Pfeif
▁craftsman
▁Beckett
▁Meck
jam
▁deadlock
▁idiot
▁Idle
▁archaea
MR
▁sympathizer
verness
▁Elsi
▁Vespasian
▁Eug
▁sunrise
▁consecration
▁Erwin
▁pundit
▁Supermarin
▁Balfour
▁dagger
▁Hoyt
Day
▁breaststroke
arlour
▁Lucha
kumar
▁vertic
▁Montpel
▁Saëns
▁Stauskas
davia
ILM
▁pterosaur
▁concav
▁bronchi
▁fictionaliz
▁attribution
▁Wilt
▁Kurfürst
▁antimon
▁Tessa
▁Grizzl
▁iris
▁Wrong
▁Controversi
▁Bottle
▁rupture
▁Doctrine
▁Orne
▁progenitor
▁Stalingrad
▁curfew
▁encroach
▁overheat
▁Sandwich
▁Witness
▁AMC
▁reassembl
▁394
▁replication
▁flamm
▁Perez
▁stamina
demeanor
▁periheli
▁historiography
▁sapp
▁Aziz
aloa
706
▁Arra
▁Torv
▁charisma
▁Ordinance
▁extradit
▁frontline
▁Coloma
ulagi
▁brachy
▁Loring
ertz
▁Hilde
▁Heathen
ædwal
▁Meridian
personal
▁reborn
▁predate
▁introspective
▁oppressive
▁plagiaris
▁SNL
▁redistribut
▁woodcut
▁Provo
uru
▁glucos
▁Merrill
▁Condo
▁1767
ashamed
▁Winning
▁Infrastructure
▁emir
▁Exmoor
▁Sorrow
bark
▁recurrence
▁hotspot
▁Digest
▁Prote
▁Ozz
▁Tradition
▁Sears
▁craze
▁backyard
▁vigo
▁Cordeli
▁Dietrich
▁Bodle
odynamic
ntara
▁Krip
▁emissar
▁Gosl
▁cipher
▁psoria
▁Rayne
halya
Æ
▁Tegetthoff
▁337
▁Surviv
▁cannibalism
▁Bertra
▁McLaughl
▁Chesterfield
ellar
▁Mesoamerica
▁proliferati
▁Montag
▁Argon
▁Determin
▁Boyce
▁undeniabl
▁levy
▁Landscape
vex
solation
raker
otti
▁inefficient
▁nutritional
▁grappl
▁existent
▁Osbourne
▁Birken
▁colt
▁razor
drift
▁278
goras
noue
▁reimburs
▁exponential
▁Ceti
▁saliva
▁Kouf
▁Psychology
▁Grenadier
▁SSR
▁relativistic
▁Bhutan
▁Aronof
racial
▁Edit
opylae
▁Yokosuka
▁fiddle
▁Nabo
▁acne
▁Franci
▁Malo
▁Hina
▁Vonnegut
ル
▁Wound
▁Trish
▁mannerism
▁thermodynamic
▁unconvinc
▁Jakob
▁Civilization
▁Shira
▁Minni
▁infatuat
Connell
▁intertwin
▁Thiru
▁366
▁Blackwell
▁Marxism
▁Contribut
▁787
400
▁Liberator
▁Sight
▁resilien
▁Pirate
▁Bonham
morrow
▁Mullen
▁Premiership
▁Krypton
▁Boz
▁Odo
▁spic
▁Spiritual
▁Boulder
▁BSA
▁Hathaway
▁Preserve
▁forearm
mitz
▁Brax
jutsu
üb
issim
▁Borden
▁Squall
▁Seng
▁Goblin
▁Eald
▁Quisling
▁postcard
▁disbelie
▁hieroglyphic
▁undesirable
▁imposition
▁polic
curricula
▁Krak
δ
▁Strach
▁Blender
▁resin
▁famili
▁Cassandra
▁Castillo
▁asphalt
▁prognos
▁Escher
▁Introduc
▁distr
▁capitaliz
trøm
▁Rotterdam
▁beaver
▁careless
wayne
▁fuzz
▁crossroad
▁sequential
▁omit
▁Wyn
▁Escort
▁Peking
▁675
▁cascade
▁Punishment
▁Shostak
▁Departure
hiloh
▁Izzi
▁lorr
▁Lotto
▁Betanc
aoran
▁Androniko
▁Cerro
▁fanfare
▁Kush
▁handicapp
▁compatriot
▁pois
▁Stephan
▁panick
tago
▁Osborn
▁foolish
▁disobey
▁incur
▁youngster
▁Tender
▁Netherland
▁extremit
▁Rosco
▁Ferrer
▁chunk
▁Yap
▁phenomenal
ucca
▁gearbox
▁eyebrow
▁Vila
▁coincidental
akarta
▁Relative
▁DeV
▁Winner
▁disallow
▁Moja
▁premolar
▁Mikael
▁Squid
▁Ferreira
patin
▁Theophil
gow
▁WIN
▁glamorous
▁Graz
▁Dalmatian
▁ferri
exler
▁impromptu
▁earthen
aldi
▁Butch
▁pervasive
▁populist
▁Hindustan
▁Eury
▁Urdu
▁Eurasia
volta
▁metallurg
▁prefecture
▁abdication
▁Casimir
▁sequenc
▁Jiang
▁peel
▁Device
▁Miyaza
▁pollutant
ilburn
▁magnetosphere
▁Proclamation
▁Wyl
▁Congol
▁Genu
▁gallop
▁Ortiz
gnacio
▁apes
▁tamper
▁Negotiation
▁Arun
▁Bubbl
▁Vaishnav
▁backfir
▁Malayan
▁Ši
▁Jimmi
▁Herschel
▁Domna
▁NYU
▁bulletin
▁Delphi
▁Batavian
▁Keaton
▁Elba
▁267
▁instinctive
posito
▁Pharaoh
▁Drummer
significant
▁tact
▁apprais
▁handcuff
▁gunfight
tenham
▁Serious
▁hue
▁observance
literate
▁Chou
▁multinational
▁Césa
▁Strategy
▁protectorate
▁Alain
freshmen
▁Fuch
▁Torri
▁Yusu
▁Otter
ceratops
▁Willem
▁maroon
ristó
agnall
▁MAC
▁Crass
▁Forecast
▁Rothschild
▁496
▁Lawler
▁Linkin
▁Chrome
pathi
▁Gascoigne
▁Steph
▁Repris
▁1550
▁calibrat
▁Franc
▁sidekick
▁cushion
▁vignette
▁347
idwestern
▁Missionar
▁Sapp
▁binomial
▁Madeira
▁McKenzie
▁Spectator
▁Zhe
▁ragged
▁386
▁searchlight
ubcommittee
▁floodplain
▁imperialism
PE
▁Tatiana
▁505
▁1670
▁Glea
▁Aureli
▁Katar
▁Gati
▁Lennox
▁Patri
▁tantal
▁molybden
▁Accord
▁Domain
▁Massive
▁deprivation
▁lichen
▁Function
▁1746
▁Lucien
▁Giselle
▁congest
▁preschool
uesi
▁Somerville
▁Muño
▁Banat
▁Demosthen
▁Spitz
▁Rix
▁WinF
▁Rothba
▁ominous
▁Lombardi
▁Coffin
▁Navarro
▁cannibal
▁Kittyhawk
▁civilisation
▁inductee
▁Samar
▁Worthington
▁reconnect
▁Learn
▁criteri
́
▁McMillan
▁rhetorical
▁Egan
▁Sailor
▁BMI
▁congregat
▁ironical
▁Isthmus
▁Gaines
▁herbivor
▁Srinivas
▁Knoll
▁Request
▁brib
▁Vesper
▁Recruit
▁Wrestler
▁Dolb
▁Funeral
▁lettuce
▁Québ
▁overtake
▁Peloponnes
▁Pomon
zot
▁Skag
▁Raëlian
▁shutter
▁quintessential
▁unexplain
▁Rembrandt
▁undulat
▁barber
▁delicious
oxen
▁Jenni
atsuki
▁Signatur
▁abridg
▁Kaplan
▁SAM
▁Conklin
▁rake
▁cornerback
▁Kendall
▁Musicnotes
▁tranquil
▁broach
▁HE
▁opportunistic
▁Nishi
▁divin
▁Glitter
mitted
▁pillag
▁CCC
▁Ruin
maine
▁Plastic
▁1702
▁Palatin
sumi
▁inexperience
eecho
▁WM
▁tyrannosaurid
▁Nutter
sphere
▁crank
▁Meiji
▁Despenser
▁Lysa
intosh
▁zoolog
▁Prima
če
▁Teuton
atchett
▁Evr
ałę
▁dowr
▁temptation
awny
gnosi
pong
▁Creator
▁longitude
▁infidelit
nife
sclerosi
citing
▁exuberan
▁Leyland
▁condo
ddick
▁Humboldt
ische
▁Cilicia
▁subsidiz
▁Ranul
▁Warburton
▁Chekhov
▁Sikorsk
▁smartphone
▁hamstring
▁bastard
▁parakeet
▁Rosebery
eisand
▁Dunlap
▁porn
▁Shawnee
▁terrier
▁Hindle
▁Genese
▁tangent
▁Gundam
▁Nida
▁Quain
ézi
▁Quwa
▁Bridgeport
▁despot
▁Phra
▁Loan
▁blur
▁secretive
UC
▁Resurrection
▁Razor
▁581
▁appointee
▁assimilation
▁Magnetic
▁McDowell
▁password
▁Glaz
▁rpm
▁359
▁Pym
▁Serra
▁weaver
▁Huguenot
▁sublime
▁Cransto
▁Shaba
▁Wrexham
narayan
▁Flea
venous
▁Jayne
▁Moine
Huggin
▁Sabah
▁Chincoteague
▁Catalina
▁Dorad
▁Workman
▁refloat
▁Tōgō
▁Imerin
alibur
▁suzeraint
̪
▁coalesc
▁primordi
▁righteous
▁ordination
▁clasp
▁Lero
▁Vinci
Genere
▁Qualit
▁Argyl
▁abbreviation
mphitheatre
▁Whar
▁scour
▁deficien
▁Ragnar
▁saxophonist
▁counterpoint
▁Pazz
MH
▁glitter
▁reconstitut
▁subculture
▁vineyard
▁zoom
▁Gér
▁Rye
▁393
▁plow
▁THE
▁Alkan
▁subtitl
▁Oaxaca
▁Nave
bent
▁Pizza
▁glaciation
▁calves
▁Idea
▁Sauvignon
▁peregrine
▁Nurm
▁Farewell
▁sluice
▁Coburg
▁Ameri
einstein
▁Geschwader
▁blockhouse
▁Philosopher
burh
▁Saxo
▁Agripp
▁MTA
▁proficient
hwaite
rchipelago
▁Slovene
▁embody
▁Grot
▁assailant
▁Censor
▁291
▁Sherri
▁puffball
▁Drunk
▁MRI
location
▁facult
▁fet
▁ferocious
▁hydrocarbon
▁disprov
▁existential
▁elud
▁MacLach
▁floodwater
▁endometri
nplugg
stretch
▁pictorial
▁Arbroath
▁Isaiah
iño
▁Traged
ecto
▁seduc
▁Chow
▁tumultuous
▁Osijek
▁Baylis
▁cookie
▁headway
▁Hernandez
▁Hogwarts
▁extremist
▁Hackett
▁anguish
▁nonprofit
▁Dalek
eeling
▁regi
▁trance
▁Yarmouth
▁Trott
ettering
▁communion
▁Shopp
▁Verb
▁xx
▁discreet
▁immobil
▁Lajo
▁Daryl
school
▁minelayer
▁Berti
▁overlord
▁packet
▁UNIC
▁rebrand
▁Emotion
▁therapist
▁unnatural
▁Expert
▁siren
abolic
▁Denning
▁Knock
▁conductivit
▁Kovala
▁chakra
▁guru
▁Henriksen
▁Demetri
▁Catalogue
▁Estuar
▁stepmother
▁ASL
▁Emir
▁Stuck
▁Takahashi
▁Rej
▁legaliz
▁Humbert
▁Peña
▁vortex
▁Adirondack
▁pelagic
ilai
▁Näs
eshear
▁nonmetal
▁Auriga
▁Assist
▁Khalifa
▁Lumber
▁swath
▁hymeni
▁agrarian
▁Emilia
▁Goldstein
▁sitar
▁mainstay
▁microscop
▁covet
▁heavyweight
▁authoritative
▁Auden
▁Operator
▁pragmatic
▁Translation
▁Protest
▁misconception
▁simplify
▁Zoologica
▁Lytt
▁deceptive
▁recur
▁monochrom
phobia
▁Mohamed
▁Philosophical
▁Surfer
▁encas
▁Ecg
▁inertia
▁Riker
▁Blog
ên
menclatur
▁Compilation
mplification
▁DuMon
▁Paso
skaya
▁Lovell
þ
▁fingerprint
▁infinit
▁Aspen
▁Finsch
▁Yen
▁Ochs
▁TBI
▁Ginn
▁Clover
▁Void
▁Pipp
▁prick
▁compel
▁shov
▁Motorsport
▁flamboyant
▁RPM
▁melodramatic
▁Armand
▁Compound
▁Cougar
▁Storyline
▁acced
▁Transvaal
▁transpir
▁polemic
▁untru
▁Jop
▁Metallurg
▁typewriter
▁Wadsworth
▁amplitude
▁rapp
▁Llewel
▁Innis
▁metaphysical
É
▁delineat
▁hammerhead
▁accentuat
▁Biblio
▁Tobago
▁earmark
bner
▁hippopotamus
▁Rehab
asci
▁payroll
▁Picasso
sgiving
▁Amphi
untz
▁Hobbe
▁Rumour
libera
▁Helmut
OH
WE
▁crag
igail
▁Subject
▁Clou
▁Croydon
▁crate
▁Surround
▁Geff
▁Gupta
▁exterminat
800
▁dynamite
▁Madhava
▁proficienc
▁Mendes
▁mechaniz
925
biology
▁FDA
▁dissertation
▁Jonah
▁thump
▁Tyron
mail
▁sonnet
▁nemes
IF
▁recoil
yntax
▁Comparison
▁Housewi
▁Lick
▁432
▁Yeo
▁slic
▁LaBe
▁Serie
▁Teng
▁Plen
▁ascension
▁vestig
▁Tecumseh
erospace
▁Nahuatl
▁Mahari
uomo
▁Mehmed
▁housekeeper
▁skillful
▁irrational
▁demarcat
▁Brewster
▁Caucasian
▁hypnotic
social
▁Marlow
▁chlorine
▁Transition
▁relapse
▁020
▁candid
▁schism
▁Kidder
▁Mention
▁itinera
▁Gamble
▁syphilis
▁Messiah
▁remedie
placental
iemens
▁repercussion
▁Señor
▁Suisse
▁Huey
▁Norma
▁thrombos
▁Paz
▁Galicia
▁Fargo
▁Nguyen
▁Debb
▁Pieter
▁Slez
ombre
▁Riddle
▁dissonan
▁Saipa
ρ
replace
▁aquarium
▁Halliday
▁BMC
▁gendarme
▁dealership
▁seaport
▁postmodern
▁allegorical
▁enclave
▁moot
▁smear
▁walrus
uille
▁assortment
▁photosynthesis
▁Cooney
slaughter
▁Chom
▁dreadful
▁diaspora
▁Fusiliers
▁Jagge
▁Nega
▁ingenious
▁beggar
▁bequest
▁Nokia
▁sentien
▁Isidor
▁Shall
▁Carti
▁slur
▁splic
▁Vivien
Candido
▁suicidal
▁Guetta
▁olfact
▁Birk
▁DuPont
athan
araka
arrhea
▁paradise
▁Persan
▁ruble
и
▁woe
▁procurement
▁Skipp
▁ammoni
bug
▁Podgor
NSA
▁Chrissie
▁daiko
▁Alcibiades
▁Verse
▁Morri
▁Bhatt
▁Definition
▁Suicide
▁tallie
▁bookstore
▁Lowestof
▁Excavation
▁retitl
▁Hoar
▁buttresse
▁whistl
ALL
KI
▁reminisc
▁ruse
EMA
▁hemlock
▁trolley
▁quake
▁Copse
leaf
▁Ridgway
▁Saskat
▁Protein
▁mitochondria
▁Layla
▁Russula
▁outperform
▁scrimmage
▁Nether
▁reload
▁Settl
ʿ
ocarp
▁Guerra
ventilat
▁prong
▁Lakshmi
▁habe
▁Bhagava
▁Mathias
mori
▁weasel
▁Patient
ə
▁Bassett
iathlon
Arc
▁Coch
▁Tiruchirap
kassa
▁Borch
▁Eurostar
▁Bianca
▁Jasmin
▁benevolent
▁retribution
▁Extensive
▁Chav
▁Diplo
▁Zah
▁Peasant
▁Ideal
▁Hamid
eerie
▁Riata
▁Graem
▁chap
▁ligand
▁interlock
▁attrition
▁Smell
▁pious
▁Trapp
▁Commentator
▁dialog
▁Thiele
▁fossa
▁costlie
▁Cousin
▁Grayson
▁Arroyo
▁McCarro
▁dissection
▁Monopoly
lsworth
▁Variant
▁Accompan
е
▁Salzburg
▁Dornier
▁slalom
laddin
▁Karthik
▁ballpark
▁Pedra
▁resonator
▁Sauk
▁horrific
▁surrogate
omba
▁superhuman
▁Prominen
▁meme
▁spacious
▁Kronprinz
▁Keeg
▁Couls
▁1604
▁Myanmar
▁Witherspoon
▁repertor
▁Trunk
odèle
▁Ioan
▁Residence
▁ISS
▁blond
▁Fragment
▁Hordern
▁fortify
▁arthriti
▁effig
▁465
▁Tresco
▁detract
▁exoplanet
Þ
▁voivode
amina
▁foreword
975
▁Handbook
▁cilia
▁666
▁Bonfire
▁biofuel
llergic
▁Frau
▁Cygn
▁alleviat
▁Proko
BOL
lotte
▁pyroclastic
▁Borussia
▁Ramanujan
Bound
▁Salman
ranto
▁Horu
▁illiterate
▁Permi
kapitän
VF
▁Tomas
▁enshrin
▁banjo
Music
▁negligible
▁thoroughfare
▁pastiche
▁chop
khtar
▁lugg
cuba
▁Bewick
▁Stettin
▁covenant
▁Instruction
▁beech
▁Naked
▁Marlo
Rourke
▁numb
▁thirtie
▁annoyance
▁predat
▁Grie
▁totalitarian
▁373
▁875
▁Sonora
▁Vijaya
▁Crom
wati
▁Sivaji
▁electrocut
▁Nursing
▁Vande
cultural
▁Soyuz
▁FIS
▁Ghat
▁confidant
▁Steward
▁pheromone
▁Leven
▁Woodford
▁subwoofer
▁CDC
▁vivipar
▁Matur
OI
▁edifice
▁Basilica
▁Erzherzog
▁personifi
▁benig
▁Throw
▁Kartik
▁loudspeaker
▁Arrest
▁clump
▁Stony
▁Sunrise
▁omnivor
▁Harmoni
▁observable
▁enumerat
▁treble
▁Celeb
▁Wilk
▁Brief
▁Wyman
▁ruptur
▁Coplan
auldron
▁sass
▁furthe
▁Burial
regulation
▁Hardwick
▁Barbadian
▁biopic
▁seabed
▁dissipation
▁Turpin
▁Fontaine
▁Barron
▁Earthquake
▁Chá
▁stomp
leggi
▁judo
▁Nanj
▁glycol
nagar
▁Andalusian
▁eloquent
▁Formidable
▁Saxe
▁Spru
ę
▁Froom
▁Bouchard
pituitar
▁Lansbur
▁mortuar
▁Guitarist
▁Fasci
bergen
čić
▁Chestnut
▁Oerlikon
▁additive
▁valence
▁knighthood
▁Surf
oodoo
▁Köp
▁Zaya
▁Aquin
▁1710
▁Magistrate
▁stove
▁Brisk
▁contingenc
▁drawback
▁peerage
▁dread
trepid
atzenberg
▁acquiesc
▁distal
▁fabulous
▁Montevide
▁landfill
▁medic
▁Mogadis
▁Mammal
▁Croz
▁disorient
▁Marlen
▁Darcy
▁Kearn
▁Euston
▁Suzann
▁pluck
▁Gracie
▁Weiner
▁Hyman
▁Lazarus
▁Blanchard
▁psyche
▁internment
▁Maitland
▁Maharaja
▁Pecheneg
▁Shenandoah
▁Belcher
▁Mahendra
▁scarcit
▁uterus
▁papyr
▁blister
▁shovel
▁transcendent
▁unsca
emolition
▁Fitt
▁ICT
▁stifl
▁intercut
▁Schol
▁drawbridge
▁abstain
▁Parma
▁asymmetrical
zuka
▁improbabl
▁shoal
▁Guillerm
▁Humanitarian
▁redshirt
▁Kimberley
erberus
▁Membership
▁retroactive
▁Entrance
▁kinsm
▁Femme
▁unreasonable
▁liturg
▁Ngô
▁pelican
▁interpolation
pago
▁landscap
▁femur
▁desegregat
▁illicit
▁hurry
▁Carthage
▁Cudi
▁skipper
▁Goble
▁Sakhalin
▁Koech
▁Cortina
▁MTR
▁Turge
▁Matani
▁Hound
▁Denge
▁1580
four
▁genero
▁Argent
▁dehydrat
▁testimonial
▁cornice
▁Ghen
▁Fortunate
▁slack
▁Spear
▁champagne
nyone
▁rotten
▁Miriam
▁Empt
▁contour
▁floatplane
▁Guant
▁tread
▁Bessi
▁Nippon
▁paranoi
▁bleed
ltarpiece
▁Parcell
▁mileage
▁DSi
▁Deuce
▁Firm
▁Micronesia
▁oversize
▁sprinkle
▁tarnish
sheet
▁Swartz
▁Bakke
▁Cypriot
▁Maribor
▁cetacean
▁Insomnia
ajol
▁Beauregard
folk
▁Ruislip
▁Nani
▁Nages
▁furrow
▁acrobatic
▁Families
▁Pressure
▁weave
▁frieze
▁ubiquitous
▁Battlecruiser
▁bowel
▁encapsulat
▁pellet
population
▁MLA
▁waitress
▁tangl
▁Kathr
▁Bullen
▁Bread
▁Shapiro
▁misogyn
▁Aeronautics
▁Lefe
▁greas
▁scallop
▁Waddington
▁1749
▁metaphorical
addam
▁offshoot
▁Scholastic
▁Dinner
▁humanoid
louse
▁Charan
▁crore
Shock
▁Métis
▁Lothian
▁Tami
▁Enceladus
▁gazett
▁Ogle
▁Collar
▁Duš
▁Trimmer
ranik
▁Revere
▁Saadiq
▁Aflaq
▁Interaction
▁Aerial
▁Cabral
▁Thierr
▁Puri
▁cohesi
▁NPR
▁chore
▁Presentation
▁Notabl
▁condominium
▁Demograph
▁stink
▁oblong
▁Supernatur
▁Apparent
▁goose
▁Wallachian
amorpho
ertigo
▁trope
▁polymerase
▁Quiri
▁1680
▁Option
▁Solicitor
▁Petrol
▁Brownsville
onciliation
▁Cartel
▁Swarm
▁Bihar
▁evacuee
▁Fitzro
▁Partridge
▁Benett
▁Dialogue
▁flamenc
▁Caligari
▁condor
▁Labu
gordo
▁Brinkley
,
▁Proposed
▁flar
▁thirst
akov
▁compulsive
stopp
Ż
mortem
▁Barnet
▁lagg
▁Agatha
▁fret
Orléans
▁unmarke
▁Rosie
▁Documentary
▁undef
▁Ambro
▁Viktor
stounding
▁turntable
▁Divin
▁Pump
▁affix
▁Fascist
▁plummet
▁pillow
▁Appendi
▁Kodo
▁Gerrar
kheim
▁Wilfred
▁RTÉ
▁Clone
▁parsec
▁Kentuckian
▁Sample
▁Butlin
▁Shift
▁Pacin
▁Soderberg
▁Lasse
▁Ambohi
▁Radam
▁Jourdan
▁subducti
▁Doolittle
▁Bakar
▁Magnificat
▁Cotto
▁Rief
▁Teton
▁consulate
graf
▁Slade
pence
▁Samara
▁crake
▁subtype
▁agnostic
▁Gladiator
▁Cluj
▁acronym
▁Maas
▁yester
▁chees
▁Terrapin
▁thug
▁Precio
▁reticulat
▁Engle
▁1560
agawa
▁Merritt
▁Pev
▁Euphra
▁Councillor
▁Leander
avalo
▁Gorman
▁cherish
▁Liquid
▁Horseshoe
▁Cinematic
▁Garrick
uana
▁Petersen
▁coax
▁magpie
▁mountaineer
▁Violin
▁heraldry
▁Coulter
kachu
▁Creature
▁Fusion
MSU
mbach
▁gangli
imestone
▁ROH
▁Decepticon
▁Pathan
▁aeroplane
▁undu
▁Townsville
▁frill
▁Surya
▁outweigh
▁Vladivosto
▁Dirk
▁malicious
ullah
▁Fredrik
iggins
▁hermit
▁chivalr
▁undead
▁whirl
ouquet
▁Margo
▁Bertran
▁Iberia
▁Grape
▁austere
▁sensibl
▁Structural
▁Shrek
▁Nieuw
▁sarcophag
▁suborder
▁Jaffa
▁picturesque
▁plen
▁hinterland
▁copulation
werf
▁Conversion
▁060
▁Plunkett
▁Alesi
▁Manzani
▁PSH
▁nationalistic
▁Khitan
flexibl
▁crocodilian
uente
▁passerine
▁Clinic
LE
indri
▁Corz
▁Wazir
▁McKins
▁Nagorn
▁governess
▁annotat
▁Bahraini
auke
crania
▁Actual
▁hysterical
▁Innocen
▁dissect
▁sectarian
▁repatriation
▁deplor
▁cicada
▁Aquita
▁pagoda
▁Susi
▁uninspir
▁purposeful
▁salinit
▁McKinn
▁Guido
▁Compromise
▁Bloomfield
▁Dmitri
▁likabl
▁audaci
▁convolut
▁McCulloch
▁conduc
arissa
▁decor
▁metamorphosi
▁1601
▁negotiator
▁culvert
▁vomit
▁turnaround
▁Stanisla
▁Gav
▁briefcase
▁horseshoe
▁Vivek
▁thresher
stasis
▁Wiggles
▁Barbauld
stitution
▁Midshipm
▁sessil
▁Encourag
▁Lazar
▁Imogen
FW
▁WHO
▁curate
▁Glu
▁tenuous
▁Farber
▁superstition
▁zirconi
▁Pankhurst
▁Jumbo
▁Cowan
▁ASD
▁midget
▁Bonnet
▁Gyeong
▁MacNeil
▁Tampi
Neil
▁Corbett
▁1637
▁Tramp
▁quash
▁Loaf
▁chagrin
▁tombstone
▁Gothenburg
▁countercultur
▁coyote
▁Norte
mead
ADA
▁monolith
▁bogg
▁Loomis
▁Orci
[...]
