<unk>	0
<s>	0
</s>	0
▁the	-3.07752
▁,	-3.20175
s	-3.46775
▁.	-3.51798
▁of	-3.79815
ed	-3.8125
▁and	-3.88974
▁to	-4.0978
▁in	-4.13683
▁	-4.19552
▁a	-4.20255
▁=	-4.42241
▁"	-4.51375
▁was	-4.72913
ing	-4.73789
@	-4.75148
▁@	-4.78164
▁'	-4.85975
-	-4.91581
▁The	-4.94889
ly	-5.10814
▁on	-5.16297
▁for	-5.1775
▁with	-5.17764
▁that	-5.19132
▁as	-5.28112
y	-5.29686
▁by	-5.31384
▁)	-5.34352
▁(	-5.34413
▁is	-5.46805
e	-5.61645
▁his	-5.63322
▁from	-5.64506
.	-5.64534
▁at	-5.68275
d	-5.76033
▁were	-5.84035
▁be	-5.8754
▁it	-5.89298
▁he	-5.92957
▁an	-5.96972
▁In	-6.00542
▁had	-6.03289
▁which	-6.09388
▁not	-6.38319
▁but	-6.395
▁are	-6.39746
▁;	-6.46063
▁first	-6.46566
▁their	-6.48549
t	-6.48775
▁–	-6.48925
▁A	-6.49518
▁:	-6.51333
▁also	-6.5217
▁her	-6.52347
er	-6.55644
▁or	-6.5806
▁who	-6.58474
▁one	-6.61024
▁its	-6.61108
▁have	-6.61522
▁two	-6.65753
▁He	-6.65863
n	-6.66216
▁has	-6.68922
▁been	-6.68942
▁@,@	-6.70871
▁I	-6.71757
▁this	-6.73189
▁after	-6.83658
▁time	-6.84613
▁1	-6.84754
th	-6.85309
▁would	-6.86519
▁It	-6.88916
a	-6.89345
▁into	-6.89792
▁other	-6.91526
▁over	-6.99652
▁more	-7.00998
▁they	-7.03711
r	-7.0452
▁2	-7.06586
▁she	-7.07817
▁when	-7.07878
▁all	-7.10563
▁him	-7.10937
▁up	-7.11127
es	-7.1251
▁out	-7.15271
during	-7.15312
▁most	-7.16802
▁game	-7.17337
▁On	-7.19097
▁3	-7.19197
▁film	-7.20066
▁than	-7.21065
▁about	-7.211
▁only	-7.21899
▁between	-7.23256
▁later	-7.24131
▁three	-7.24489
▁new	-7.24783
▁whil	-7.26095
▁through	-7.27019
o	-7.2773
al	-7.30042
▁5	-7.32695
ever	-7.35244
▁made	-7.35633
▁season	-7.36698
▁where	-7.37096
in	-7.37678
▁New	-7.37795
▁some	-7.38571
▁000	-7.38609
▁4	-7.38656
▁such	-7.39279
ies	-7.39565
▁year	-7.39603
▁before	-7.40781
▁This	-7.44617
▁/	-7.44722
▁second	-7.44952
st	-7.45399
▁years	-7.47051
▁large	-7.47152
▁part	-7.47709
▁under	-7.47804
▁used	-7.47913
▁them	-7.49317
▁number	-7.50457
▁album	-7.51792
▁against	-7.52059
▁being	-7.52106
▁song	-7.52416
came	-7.53617
us	-7.55786
▁can	-7.56003
▁including	-7.56978
▁—	-7.5717
on	-7.57845
▁United	-7.58176
▁well	-7.58477
▁both	-7.5882
▁no	-7.5885
▁there	-7.58903
▁After	-7.59129
▁series	-7.59878
▁high	-7.6009
▁B	-7.60527
▁then	-7.61597
▁team	-7.62133
▁6	-7.62353
▁did	-7.63664
out	-7.64032
est	-7.64408
▁10	-7.6447
▁episode	-7.64579
▁four	-7.65056
▁al	-7.66156
▁like	-7.66312
▁so	-7.66804
▁American	-7.67402
▁said	-7.68474
▁work	-7.68495
▁many	-7.69115
though	-7.69396
i	-7.69513
▁could	-7.69731
▁several	-7.70337
▁C	-7.70504
▁found	-7.70741
▁known	-7.72232
▁7	-7.74343
▁return	-7.74845
▁began	-7.75049
m	-7.75373
▁near	-7.75907
▁U	-7.7752
▁place	-7.77642
▁day	-7.77767
▁As	-7.78191
▁early	-7.78408
▁D	-7.78758
▁8	-7.78992
▁until	-7.7952
▁end	-7.79539
▁called	-7.80039
▁She	-7.8015
▁use	-7.80347
▁million	-7.82422
▁how	-7.82487
▁remain	-7.82674
▁At	-7.82753
▁show	-7.83053
▁along	-7.84235
▁de	-7.84482
▁back	-7.84852
▁British	-7.85063
▁9	-7.85359
▁long	-7.86169
$	-7.86882
▁these	-7.87591
▁people	-7.88396
▁original	-7.88432
▁receiv	-7.88492
▁15	-7.89836
▁September	-7.90063
▁War	-7.9043
▁12	-7.90434
▁0	-7.90674
▁How	-7.90886
▁20	-7.90974
▁same	-7.91173
▁final	-7.91454
▁music	-7.91548
▁World	-7.91638
▁releas	-7.9166
▁August	-7.91781
▁because	-7.92129
▁States	-7.92265
▁may	-7.92449
▁May	-7.93622
▁around	-7.94256
man	-7.94368
▁km	-7.94671
l	-7.94812
▁Al	-7.94836
▁S	-7.95177
▁m	-7.9539
▁M	-7.95644
▁state	-7.95668
▁John	-7.96223
▁off	-7.96747
▁order	-7.97062
▁following	-7.97277
able	-7.98152
▁October	-7.98941
▁any	-7.99574
▁area	-7.9982
▁start	-8.00449
▁each	-8.01165
▁16	-8.01257
▁life	-8.01507
▁five	-8.01514
▁main	-8.01856
▁century	-8.02102
▁lead	-8.0213
ic	-8.0247
▁]	-8.03525
▁single	-8.0364
[	-8.0373
▁small	-8.0404
▁war	-8.04079
▁June	-8.04293
en	-8.04514
▁city	-8.05002
um	-8.05197
▁down	-8.05327
ity	-8.05557
▁R	-8.05635
▁US	-8.0568
▁%	-8.06265
▁July	-8.06295
▁November	-8.06942
▁11	-8.07037
▁Dur	-8.07246
▁result	-8.07549
S	-8.07904
▁since	-8.08139
▁March	-8.08689
▁York	-8.08739
▁April	-8.0886
▁will	-8.09538
▁set	-8.09593
▁group	-8.11191
▁great	-8.1164
▁attack	-8.12231
▁allow	-8.12293
▁what	-8.12432
▁line	-8.12566
▁E	-8.12593
▁left	-8.13382
▁government	-8.14053
▁They	-8.14075
▁consider	-8.14116
▁North	-8.14184
▁last	-8.1433
▁name	-8.14401
▁character	-8.14479
▁system	-8.14518
▁18	-8.14801
▁December	-8.14839
▁reach	-8.14859
▁17	-8.14879
▁release	-8.14888
le	-8.14905
▁third	-8.14947
▁due	-8.15009
▁home	-8.15417
▁P	-8.15454
▁un	-8.15641
▁much	-8.15945
▁13	-8.1599
▁if	-8.16325
▁bas	-8.16378
▁January	-8.16428
▁another	-8.16636
▁included	-8.16755
▁own	-8.16841
▁...	-8.17037
▁played	-8.17789
▁wrote	-8.18045
▁South	-8.18176
▁When	-8.18213
▁open	-8.18309
▁change	-8.18548
▁band	-8.18892
▁death	-8.18893
▁force	-8.19008
▁30	-8.19529
▁won	-8.19661
▁14	-8.19964
ok	-8.20912
ce	-8.21195
▁record	-8.21535
▁six	-8.21832
▁described	-8.22681
▁previous	-8.22691
▁short	-8.2276
▁family	-8.2294
▁support	-8.23079
▁led	-8.23107
▁just	-8.23537
▁appear	-8.23841
▁include	-8.24057
▁named	-8.24395
an	-8.24464
▁make	-8.2459
▁ship	-8.24822
▁T	-8.2529
▁world	-8.25402
▁north	-8.25463
▁F	-8.25544
▁now	-8.25815
▁play	-8.26274
▁By	-8.26514
▁late	-8.27218
▁O	-8.27907
▁very	-8.27912
those	-8.28068
▁form	-8.28316
▁German	-8.28368
▁February	-8.28733
▁still	-8.28929
▁species	-8.29404
▁next	-8.29406
▁perform	-8.29501
▁video	-8.29635
▁best	-8.30022
▁No	-8.30146
▁men	-8.30614
▁match	-8.30846
▁old	-8.3105
▁major	-8.31314
▁His	-8.31781
▁National	-8.31892
▁power	-8.32051
▁role	-8.32357
▁do	-8.32549
▁built	-8.32711
▁French	-8.32779
▁held	-8.32789
▁2010	-8.33096
▁100	-8.33224
▁per	-8.33385
▁former	-8.33475
▁house	-8.34551
ers	-8.34584
▁way	-8.34774
▁again	-8.34852
▁direct	-8.35142
▁storm	-8.35178
▁local	-8.35459
▁south	-8.35488
▁public	-8.35603
▁side	-8.35773
▁St	-8.35851
ion	-8.35902
▁take	-8.36127
▁games	-8.36666
▁title	-8.36812
▁There	-8.36956
▁water	-8.37418
▁you	-8.37501
▁19	-8.37669
▁school	-8.37703
▁re	-8.37712
▁help	-8.38355
▁2008	-8.38418
▁period	-8.38446
▁even	-8.38497
▁2009	-8.38923
▁few	-8.39076
▁top	-8.39405
re	-8.40443
▁2011	-8.40623
▁continued	-8.40659
▁often	-8.40697
▁book	-8.4079
▁among	-8.40915
▁follow	-8.40997
▁career	-8.41012
▁similar	-8.41068
▁For	-8.41383
▁25	-8.41813
▁days	-8.42045
▁members	-8.42049
▁L	-8.42163
▁production	-8.42268
&	-8.42402
▁England	-8.42421
2	-8.42521
▁air	-8.42654
▁point	-8.42843
▁further	-8.43238
▁West	-8.43515
▁All	-8.43636
▁live	-8.43934
ton	-8.44252
▁half	-8.44414
▁One	-8.44633
▁2007	-8.44749
▁want	-8.44899
▁turn	-8.45192
c	-8.45288
▁story	-8.45345
having	-8.45372
▁came	-8.45403
▁position	-8.4551
▁become	-8.45596
▁player	-8.45615
▁G	-8.45689
▁version	-8.45781
▁different	-8.46155
▁H	-8.46239
▁City	-8.46403
▁English	-8.46781
went	-8.47765
▁II	-8.47946
▁join	-8.48158
▁we	-8.48225
▁total	-8.48521
▁2012	-8.48564
▁history	-8.48851
▁London	-8.49702
▁increase	-8.49762
▁River	-8.49889
▁King	-8.50259
▁every	-8.50682
▁establish	-8.50922
ation	-8.51152
▁written	-8.51376
▁full	-8.52189
▁land	-8.52589
▁contain	-8.52661
▁K	-8.53154
g	-8.53579
▁track	-8.53823
▁given	-8.54033
▁strong	-8.54096
▁gave	-8.54551
▁University	-8.54613
▁close	-8.54866
▁man	-8.54889
▁wide	-8.55185
▁never	-8.55368
▁While	-8.5538
▁east	-8.55466
▁though	-8.55744
▁21	-8.55771
▁control	-8.55939
▁caus	-8.56071
▁service	-8.56175
u	-8.56228
or	-8.56297
▁act	-8.56442
▁company	-8.56769
▁initial	-8.57244
▁week	-8.57287
▁published	-8.57526
▁town	-8.57721
▁building	-8.57942
▁2006	-8.58439
▁To	-8.58649
▁24	-8.58652
▁lost	-8.58655
▁west	-8.59046
▁performance	-8.59182
▁stated	-8.5925
▁particular	-8.59263
▁reported	-8.59342
▁young	-8.5936
▁h	-8.59635
▁W	-8.59659
▁common	-8.59714
stead	-8.59762
ism	-8.59803
▁According	-8.60015
▁list	-8.60104
▁enter	-8.60506
▁State	-8.60753
▁N	-8.60845
▁style	-8.60916
▁J	-8.61252
▁militar	-8.61272
▁country	-8.61476
moved	-8.61604
ness	-8.61674
▁pass	-8.61692
h	-8.61705
less	-8.61847
▁General	-8.61955
▁suggest	-8.62301
▁low	-8.62386
▁father	-8.62683
▁produc	-8.62963
▁club	-8.62965
▁less	-8.62984
▁making	-8.6302
▁These	-8.63061
▁right	-8.63088
▁run	-8.63275
▁fire	-8.63443
▁aircraft	-8.63448
▁head	-8.63568
▁himself	-8.63595
▁2013	-8.63677
▁recorded	-8.63856
▁Australia	-8.63863
▁real	-8.64239
cross	-8.64386
▁development	-8.64814
▁William	-8.64885
▁featur	-8.64949
▁claim	-8.65263
p	-8.65618
▁toward	-8.65952
▁forces	-8.66132
k	-8.66222
▁James	-8.66262
▁ships	-8.66353
▁cover	-8.66787
▁class	-8.66806
▁tour	-8.66997
▁An	-8.67051
▁With	-8.67491
▁range	-8.67939
▁design	-8.68043
▁ft	-8.68197
▁Army	-8.68564
▁good	-8.68564
▁22	-8.68569
▁Australian	-8.68606
▁50	-8.68815
▁command	-8.68876
▁Division	-8.68916
▁America	-8.69099
▁sign	-8.69397
▁died	-8.69663
▁League	-8.69711
▁George	-8.69796
▁political	-8.69857
▁win	-8.70009
▁finish	-8.70156
▁present	-8.70218
▁children	-8.70598
▁developed	-8.70814
▁light	-8.71142
▁months	-8.71192
▁official	-8.71965
▁Street	-8.72171
▁Park	-8.72271
▁away	-8.72525
▁eight	-8.72857
▁felt	-8.72973
▁see	-8.73704
either	-8.73711
most	-8.73747
▁characters	-8.73938
▁announced	-8.74025
▁national	-8.74168
▁sent	-8.74188
▁television	-8.74207
ian	-8.74311
land	-8.74362
b	-8.74485
▁seven	-8.7464
▁Man	-8.74647
▁songs	-8.74663
▁County	-8.74772
▁level	-8.7508
is	-8.75315
▁should	-8.7532
▁route	-8.75352
▁age	-8.7539
▁Japanese	-8.754
▁2005	-8.75433
▁23	-8.75591
▁successful	-8.75687
▁get	-8.75805
▁eventual	-8.76016
▁station	-8.76035
▁son	-8.76256
▁damage	-8.76309
▁various	-8.76315
▁Road	-8.76322
▁’	-8.76423
z	-8.76587
▁seen	-8.76721
▁success	-8.76802
▁provid	-8.76958
▁East	-8.77232
by	-8.77414
▁De	-8.77416
▁ask	-8.77604
▁2014	-8.77633
▁need	-8.777
▁battle	-8.7784
▁thought	-8.77842
▁Air	-8.77936
▁race	-8.7843
▁ten	-8.78451
▁campaign	-8.78519
▁writing	-8.79101
▁road	-8.79176
▁come	-8.79432
ally	-8.79498
▁addition	-8.79769
▁look	-8.7988
▁creat	-8.79995
▁white	-8.80174
▁post	-8.80235
el	-8.80245
▁stage	-8.80283
▁award	-8.80488
▁member	-8.80628
▁killed	-8.80646
▁tropical	-8.80801
▁debut	-8.80833
▁fight	-8.80841
▁serv	-8.81057
▁little	-8.81078
▁significant	-8.81409
▁complete	-8.81516
▁mi	-8.81518
▁areas	-8.81662
▁28	-8.81728
▁peak	-8.82042
▁players	-8.82063
▁40	-8.82102
taken	-8.82505
▁general	-8.82573
▁earlie	-8.8271
▁entire	-8.8285
▁involv	-8.82873
▁does	-8.82893
▁black	-8.82949
▁mm	-8.83004
▁!	-8.83024
▁face	-8.83309
took	-8.83419
▁too	-8.83571
▁able	-8.84088
▁miles	-8.84134
▁women	-8.8415
▁V	-8.84339
▁27	-8.84522
▁We	-8.8454
▁writer	-8.84703
▁night	-8.84785
▁decided	-8.84913
▁co	-8.85167
▁body	-8.85658
ar	-8.86184
ia	-8.86391
▁provide	-8.8641
▁Royal	-8.86446
▁ground	-8.86532
▁action	-8.86602
▁sold	-8.86639
▁House	-8.86655
▁feet	-8.86756
▁David	-8.86786
▁features	-8.86963
▁together	-8.8701
▁times	-8.87182
▁law	-8.87251
▁located	-8.87574
▁26	-8.8771
▁France	-8.87767
▁us	-8.87806
▁average	-8.87929
▁added	-8.87946
▁population	-8.87953
▁c	-8.87976
▁points	-8.87978
▁Michael	-8.88269
▁once	-8.88486
▁move	-8.88647
hind	-8.88924
▁go	-8.88932
▁important	-8.88942
▁site	-8.89246
▁limit	-8.89311
▁front	-8.89395
▁interest	-8.89595
ry	-8.89973
▁non	-8.9003
▁completed	-8.90302
▁en	-8.90379
▁field	-8.90557
▁2004	-8.9067
▁project	-8.90777
▁attempt	-8.90801
▁popular	-8.90856
▁saw	-8.91017
rather	-8.91025
▁scene	-8.91238
son	-8.9129
▁San	-8.914
▁leas	-8.91476
▁formed	-8.91559
▁consist	-8.9161
▁coast	-8.91686
▁playing	-8.91726
▁replac	-8.91957
spite	-8.92035
▁believ	-8.92041
▁Some	-8.92496
▁You	-8.92631
▁Great	-8.92828
▁construction	-8.92916
▁rest	-8.92986
▁event	-8.93044
▁2015	-8.93101
▁case	-8.93503
▁29	-8.93521
▁free	-8.93617
▁subsequent	-8.94287
ous	-8.94314
▁my	-8.94466
▁rock	-8.94823
▁heavy	-8.94965
▁put	-8.95141
▁party	-8.95577
▁Henry	-8.9558
▁guns	-8.95664
▁Robert	-8.9571
▁upon	-8.95845
▁lack	-8.95952
▁mid	-8.96032
▁born	-8.96167
▁Battle	-8.96271
▁scored	-8.96723
▁2000	-8.96812
▁office	-8.9686
▁fourth	-8.9693
ley	-8.96951
▁region	-8.96967
▁Best	-8.97063
▁view	-8.97067
▁current	-8.97225
mph	-8.97243
▁School	-8.97308
▁base	-8.97376
▁example	-8.97377
men	-8.97397
▁hit	-8.9742
▁arm	-8.97542
▁rank	-8.97588
▁Other	-8.97649
▁Music	-8.97744
▁200	-8.97824
▁brought	-8.9793
ist	-8.98084
▁Her	-8.98197
▁continue	-8.98211
▁X	-8.98288
▁individual	-8.98366
▁extend	-8.98392
▁me	-8.98583
▁mother	-8.98613
ough	-8.98671
▁cost	-8.98822
▁La	-8.98827
▁modern	-8.98968
▁visit	-8.98988
▁chart	-8.99032
▁review	-8.99059
▁special	-8.99135
▁Washington	-8.99349
▁weeks	-8.99552
nd	-8.99579
▁quick	-8.99938
▁working	-9.00019
▁noted	-9.00083
3	-9.00167
▁month	-9.00556
▁500	-9.00705
▁European	-9.00869
▁wife	-9.01021
▁critics	-9.01197
▁Europe	-9.01226
▁discover	-9.01323
▁worked	-9.01388
▁troops	-9.01438
ie	-9.01467
▁crew	-9.01658
▁Me	-9.01734
▁2003	-9.0198
▁novel	-9.02058
▁Follow	-9.02118
▁prais	-9.0214
▁far	-9.02468
▁agree	-9.0259
▁experience	-9.02686
▁Earl	-9.02962
▁island	-9.02999
▁President	-9.03077
▁generally	-9.03127
▁Star	-9.03347
▁launch	-9.03602
▁Black	-9.03707
▁hurricane	-9.03782
▁Cup	-9.03902
▁sound	-9.04139
ary	-9.04269
▁First	-9.0429
▁works	-9.0449
▁director	-9.04518
▁Japan	-9.04872
▁victory	-9.04994
▁cause	-9.05062
▁Charles	-9.05192
▁runs	-9.05193
▁positive	-9.05219
▁gain	-9.05381
▁Paul	-9.0552
▁Two	-9.05557
ish	-9.05618
▁soon	-9.05657
▁process	-9.05668
▁gun	-9.05828
▁opening	-9.05884
▁highway	-9.05943
▁sea	-9.05965
A	-9.06177
▁fall	-9.06194
ch	-9.06341
▁regard	-9.06471
▁accept	-9.06518
▁hand	-9.06553
▁goal	-9.06985
▁ever	-9.07063
▁events	-9.07142
▁Route	-9.07346
▁usual	-9.07452
▁shot	-9.07454
▁saying	-9.07564
▁fail	-9.07643
▁hours	-9.07935
▁met	-9.07961
▁regular	-9.08082
▁love	-9.08305
▁room	-9.08331
ty	-9.08348
▁length	-9.0841
▁designed	-9.08461
▁car	-9.08651
▁studio	-9.08757
ta	-9.08802
▁star	-9.08955
▁southern	-9.09008
▁arriv	-9.09016
▁court	-9.09072
▁possible	-9.09095
▁human	-9.09115
▁term	-9.09384
▁business	-9.09403
▁From	-9.09643
▁2001	-9.0972
▁International	-9.09721
x	-9.09748
▁available	-9.09802
▁White	-9.10058
▁31	-9.10209
▁training	-9.10458
▁cast	-9.10779
▁Thomas	-9.10898
▁Kingdom	-9.10901
▁figure	-9.10905
▁Navy	-9.11098
▁°	-9.11194
▁appearance	-9.11211
▁minutes	-9.11242
▁decision	-9.11338
▁center	-9.11745
▁Hall	-9.12063
side	-9.12202
▁lower	-9.12246
▁maintain	-9.12373
C	-9.12513
▁contract	-9.12552
▁relationship	-9.12688
▁travel	-9.12711
▁issue	-9.12962
▁northern	-9.13203
▁league	-9.13412
▁Game	-9.13441
▁2002	-9.13681
▁Canada	-9.13909
▁difficult	-9.14053
▁create	-9.14258
▁focus	-9.14289
▁Court	-9.14294
D	-9.14389
▁personal	-9.1453
▁must	-9.14555
▁nine	-9.14583
▁central	-9.14593
▁round	-9.14674
▁introduc	-9.14806
▁find	-9.15019
ought	-9.15101
▁taking	-9.15151
▁California	-9.1527
ra	-9.15393
▁immediate	-9.15646
▁social	-9.16219
▁voice	-9.16307
▁Award	-9.16365
▁pre	-9.16406
▁Union	-9.16515
▁clear	-9.16549
ment	-9.16728
▁defeat	-9.16873
▁better	-9.16921
▁units	-9.1709
▁Red	-9.1757
▁break	-9.17614
▁church	-9.17703
▁Island	-9.17847
▁size	-9.17899
▁commercial	-9.17977
▁others	-9.17981
using	-9.17988
▁art	-9.18131
▁Christian	-9.1831
▁according	-9.18452
▁concern	-9.1851
▁hard	-9.18535
▁India	-9.18609
▁influence	-9.18618
▁score	-9.18653
▁above	-9.18678
▁recording	-9.18738
▁spen	-9.18823
▁outside	-9.18843
▁beginning	-9.19095
▁told	-9.19309
▁Peter	-9.19326
▁relative	-9.19357
▁Smith	-9.19366
▁additional	-9.19401
ve	-9.1941
▁winds	-9.19498
▁1990	-9.19733
▁going	-9.19793
▁surface	-9.20019
▁ended	-9.20347
▁Company	-9.20396
▁section	-9.20467
▁response	-9.20599
▁rate	-9.20746
▁required	-9.20829
▁give	-9.21035
▁space	-9.21152
▁interview	-9.21237
▁College	-9.21311
▁Indian	-9.21317
▁pressure	-9.21388
▁evidence	-9.215
▁itself	-9.21513
▁sometime	-9.21607
▁anti	-9.21673
▁brother	-9.2178
▁Sea	-9.2192
▁elements	-9.21926
▁appoint	-9.21952
▁account	-9.21955
▁Germany	-9.22256
▁Act	-9.22329
▁village	-9.22465
▁?	-9.22566
▁develop	-9.22616
£	-9.22616
▁Force	-9.22651
▁High	-9.22731
▁person	-9.22764
▁prevent	-9.22768
▁idea	-9.22847
▁musical	-9.23204
▁keep	-9.23463
am	-9.23636
ne	-9.23672
▁international	-9.23746
▁poor	-9.23771
▁UK	-9.23843
▁approach	-9.23986
▁election	-9.24183
▁Western	-9.24354
▁future	-9.24361
▁speed	-9.244
▁intend	-9.24417
▁60	-9.24455
▁Hill	-9.24467
ro	-9.24568
▁NY	-9.24611
▁Richard	-9.24669
▁recent	-9.24692
▁Times	-9.24903
ine	-9.25121
▁plan	-9.25127
▁reviews	-9.25183
▁host	-9.25237
▁Church	-9.25247
▁rule	-9.25416
▁program	-9.25476
▁female	-9.25593
▁football	-9.25625
▁whom	-9.25682
▁chose	-9.25773
ive	-9.25922
na	-9.2598
▁cut	-9.26003
▁police	-9.26092
▁f	-9.26165
▁magazine	-9.26181
▁That	-9.26277
▁suffer	-9.26279
▁attend	-9.26402
▁king	-9.26413
▁Los	-9.26468
▁fact	-9.26535
age	-9.26551
▁material	-9.26563
▁Championship	-9.26787
▁alread	-9.2699
▁loss	-9.27039
rd	-9.27057
ance	-9.27479
▁1970	-9.27501
▁bridge	-9.27521
▁Most	-9.2753
▁serve	-9.27537
▁report	-9.27564
▁structure	-9.27609
▁carri	-9.27751
▁western	-9.27981
▁1980	-9.27982
▁meeting	-9.28004
▁media	-9.28103
▁study	-9.28126
▁Britain	-9.28218
▁protect	-9.28345
▁cross	-9.28409
▁president	-9.28575
▁Bay	-9.28649
▁money	-9.28739
1	-9.28768
▁bring	-9.29059
▁especial	-9.29137
▁estimat	-9.29165
▁Awards	-9.29233
▁summer	-9.29259
▁fleet	-9.29495
▁Up	-9.29534
▁Virginia	-9.29542
▁red	-9.29631
▁Later	-9.29659
▁produce	-9.29747
▁past	-9.29753
▁question	-9.29784
f	-9.29952
▁might	-9.30213
▁food	-9.30255
▁community	-9.30441
▁park	-9.30499
il	-9.30518
ter	-9.30548
▁river	-9.3055
▁grow	-9.30692
▁radio	-9.3079
▁audience	-9.30819
▁select	-9.30859
▁1999	-9.30904
▁eastern	-9.30984
espite	-9.31021
▁Z	-9.31085
▁My	-9.31158
▁propos	-9.31338
▁deal	-9.31371
▁actual	-9.31381
▁conduct	-9.31386
et	-9.315
▁type	-9.31654
▁feature	-9.31691
▁Final	-9.31699
▁rais	-9.31713
▁date	-9.31741
▁market	-9.31806
▁research	-9.31862
▁unit	-9.31883
head	-9.32051
▁percent	-9.32109
day	-9.32166
▁exist	-9.32309
▁Brown	-9.32418
▁specific	-9.32432
▁earn	-9.32604
▁latter	-9.32633
▁leav	-9.32759
▁Jackson	-9.32986
co	-9.33056
▁winning	-9.33123
▁deep	-9.33203
▁groups	-9.33237
▁Soviet	-9.33406
▁If	-9.33453
▁division	-9.33637
▁defeated	-9.3365
▁Grand	-9.33771
▁practice	-9.33835
▁referr	-9.33887
▁Rock	-9.33889
▁Re	-9.33906
▁Roman	-9.33965
▁35	-9.34165
▁separate	-9.34189
▁Edward	-9.3424
▁amount	-9.34368
▁staff	-9.34398
▁lines	-9.34475
▁daughter	-9.34515
▁brief	-9.34675
▁stay	-9.34713
▁states	-9.34806
▁students	-9.3488
▁Club	-9.351
▁Spanish	-9.35268
▁seem	-9.35275
▁movement	-9.35325
▁God	-9.35438
▁t	-9.35608
▁Lake	-9.35689
▁Association	-9.35924
▁destroyed	-9.36088
ville	-9.36241
▁Love	-9.36301
▁overall	-9.36331
▁Party	-9.3648
▁1960	-9.36524
▁effects	-9.36639
▁course	-9.36668
▁private	-9.36775
▁our	-9.36912
▁certain	-9.37114
▁language	-9.37188
▁professional	-9.37432
▁Chicago	-9.37453
▁running	-9.37504
▁Second	-9.37746
▁elect	-9.37875
▁Day	-9.38001
▁natural	-9.38079
▁effect	-9.38274
▁affect	-9.3833
▁married	-9.38353
▁1998	-9.38504
▁Chinese	-9.3853
▁Council	-9.38626
ri	-9.38752
▁producer	-9.38816
▁self	-9.38844
▁tell	-9.38891
▁Many	-9.3896
▁know	-9.39075
▁forward	-9.39345
▁display	-9.39382
▁traditional	-9.39434
▁Russian	-9.39565
w	-9.39577
▁scenes	-9.39623
▁vote	-9.39941
▁critical	-9.40127
▁Mary	-9.4013
▁So	-9.40333
▁trial	-9.40462
▁tri	-9.4057
▁planned	-9.40592
▁increasing	-9.40718
▁parts	-9.40803
▁effective	-9.40877
▁annual	-9.40878
▁longer	-9.40909
▁active	-9.40923
▁Johnson	-9.40971
▁Le	-9.41006
▁80	-9.41034
▁compared	-9.41048
▁living	-9.41218
▁Pacific	-9.41229
▁approximately	-9.41239
▁captured	-9.41276
▁higher	-9.41289
▁fifth	-9.41373
▁child	-9.4146
▁themselves	-9.41482
▁commission	-9.41494
▁singer	-9.41512
▁Dr	-9.41543
▁done	-9.41594
▁History	-9.41612
▁operat	-9.41637
▁leader	-9.41642
▁related	-9.41699
▁offer	-9.42035
▁fast	-9.42035
▁pair	-9.42097
▁Bill	-9.42122
▁Billboard	-9.42139
▁rights	-9.4219
▁centre	-9.42271
▁gold	-9.42288
▁friend	-9.42327
▁thus	-9.42423
▁test	-9.42465
▁Canadian	-9.4262
▁broadcast	-9.4263
▁fans	-9.42646
ford	-9.42692
to	-9.42754
▁manager	-9.42785
id	-9.42825
▁woman	-9.42835
▁probab	-9.4309
▁coach	-9.43125
ham	-9.43195
▁pay	-9.43237
▁whether	-9.43282
army	-9.43298
te	-9.43325
▁dark	-9.43363
▁Mark	-9.43541
▁think	-9.43653
▁prior	-9.4377
▁learn	-9.43771
time	-9.43777
▁300	-9.43904
▁Film	-9.43915
▁Lord	-9.43917
▁El	-9.43999
▁copies	-9.44064
▁leave	-9.44066
▁Since	-9.44079
B	-9.44181
▁Squadron	-9.44186
▁typical	-9.44217
▁Atlantic	-9.44341
▁1997	-9.44355
it	-9.44375
▁location	-9.44438
▁soldiers	-9.44505
▁subject	-9.44511
▁complex	-9.44548
▁films	-9.44627
▁lyrics	-9.44692
▁countries	-9.44871
▁shows	-9.44907
▁China	-9.44958
▁Queen	-9.44964
▁supported	-9.45038
▁model	-9.45041
▁believe	-9.4507
▁Both	-9.45236
▁Florida	-9.45244
▁watch	-9.45305
▁cm	-9.45313
▁Jack	-9.45508
▁operations	-9.4559
4	-9.45602
▁Highway	-9.45701
▁demand	-9.45736
▁trade	-9.45803
▁pilot	-9.45809
▁45	-9.45997
▁reduc	-9.46009
▁request	-9.46029
▁fell	-9.46175
nother	-9.46185
▁Martin	-9.46312
▁via	-9.46313
ey	-9.46338
▁target	-9.46472
▁minute	-9.46562
▁inspir	-9.46615
▁stop	-9.4668
▁mixed	-9.46693
▁Italian	-9.46705
▁Green	-9.46734
▁Texas	-9.46831
▁expand	-9.46842
▁portion	-9.47181
▁health	-9.47195
▁historian	-9.47267
▁stars	-9.47284
▁removed	-9.47386
▁always	-9.47391
▁ran	-9.47511
▁network	-9.47534
▁status	-9.47554
▁flight	-9.47849
▁Center	-9.47929
▁advance	-9.48077
▁compos	-9.48182
ll	-9.48568
▁wind	-9.48749
▁something	-9.48749
▁press	-9.48828
da	-9.4887
▁officers	-9.49016
▁carry	-9.49027
▁Africa	-9.49048
▁avoid	-9.49168
▁script	-9.49314
▁majority	-9.49369
▁tracks	-9.4945
▁refus	-9.49524
▁got	-9.49626
▁metal	-9.49749
▁becom	-9.49968
▁tons	-9.50011
▁problems	-9.5008
▁Year	-9.50111
▁hour	-9.50139
la	-9.50214
▁share	-9.50304
▁issu	-9.50327
▁But	-9.50609
▁offered	-9.50625
▁Earth	-9.50769
▁nature	-9.50776
▁70	-9.50872
▁frequent	-9.50885
▁Don	-9.50984
▁access	-9.51046
▁teams	-9.51073
▁potential	-9.51262
▁plans	-9.5132
▁Empire	-9.5135
▁drive	-9.51466
▁Sir	-9.5154
▁numero	-9.51601
▁culture	-9.51654
▁respectively	-9.51726
▁Central	-9.51783
▁buildings	-9.51872
▁1995	-9.51966
▁port	-9.52054
▁associat	-9.52077
▁revealed	-9.52102
▁Angeles	-9.52216
▁ball	-9.52283
▁grant	-9.52295
▁episodes	-9.52317
▁III	-9.52325
▁territor	-9.52449
▁yet	-9.52621
▁b	-9.5273
▁color	-9.5279
▁minor	-9.5299
▁guitar	-9.53027
▁upper	-9.5316
▁board	-9.53186
▁Tour	-9.53205
▁moving	-9.5323
▁terms	-9.53271
▁whole	-9.53315
▁Test	-9.53337
▁occurred	-9.53345
▁word	-9.53447
▁sell	-9.53683
▁shown	-9.53799
▁occur	-9.53807
▁Group	-9.53853
▁treat	-9.53942
▁transport	-9.54004
▁information	-9.54036
▁2016	-9.54065
▁1996	-9.54257
▁slight	-9.54291
▁1950	-9.54381
▁depression	-9.54415
▁Greek	-9.54562
▁TV	-9.54569
wood	-9.5472
▁slow	-9.54784
ches	-9.5483
é	-9.54912
▁operation	-9.55045
▁legal	-9.55076
▁defend	-9.55099
▁injur	-9.55119
▁p	-9.55143
▁castle	-9.55192
▁sister	-9.55316
▁goals	-9.55328
▁Super	-9.55387
▁conditions	-9.55414
▁male	-9.55482
▁Minister	-9.55492
▁direction	-9.555
▁severe	-9.55545
▁services	-9.5559
▁Sun	-9.55717
▁key	-9.55743
▁letter	-9.55766
▁officer	-9.55906
▁independent	-9.55966
▁border	-9.56013
ma	-9.56031
▁industry	-9.56117
▁1994	-9.56144
▁session	-9.56187
one	-9.56199
▁Big	-9.56257
▁pop	-9.56288
▁Corps	-9.56304
▁feel	-9.56307
▁double	-9.56356
▁artist	-9.56444
▁situation	-9.56456
ling	-9.56512
▁commander	-9.56658
▁heavi	-9.56659
▁00	-9.56676
▁primar	-9.56711
▁attention	-9.56752
▁assigned	-9.56775
▁plant	-9.56978
▁Team	-9.5698
▁economic	-9.57002
▁Old	-9.57021
▁standard	-9.57051
▁commented	-9.57245
▁DVD	-9.57276
▁Sever	-9.57276
▁attempted	-9.57388
▁yards	-9.57426
the	-9.57431
▁expected	-9.57548
▁moment	-9.57595
▁education	-9.57675
▁90	-9.57791
▁capital	-9.57794
▁And	-9.57855
▁impact	-9.57971
▁dance	-9.58259
▁sales	-9.58305
▁mass	-9.58355
▁competition	-9.58392
▁Stone	-9.58462
ant	-9.58537
▁Michigan	-9.58637
▁Be	-9.58774
▁Tom	-9.58776
▁mention	-9.58955
▁damag	-9.58974
▁closed	-9.59091
▁issues	-9.59099
▁retain	-9.59103
▁below	-9.59137
▁author	-9.59147
▁75	-9.59208
▁1940	-9.59213
▁horse	-9.59241
▁fish	-9.5933
▁Wales	-9.59426
▁hop	-9.59545
com	-9.59548
▁distance	-9.59728
ate	-9.59732
▁Co	-9.59864
▁concept	-9.59875
▁giving	-9.59909
▁dead	-9.59953
▁declared	-9.60005
▁Time	-9.60075
▁marriage	-9.60102
▁Congress	-9.60151
▁African	-9.60163
▁Hot	-9.60188
▁religious	-9.60211
▁middle	-9.60212
▁resident	-9.60238
▁ability	-9.603
▁Over	-9.60847
▁draft	-9.60962
▁rapid	-9.60967
▁Major	-9.60969
▁normal	-9.6102
▁plot	-9.61097
▁captain	-9.61117
▁Scott	-9.61187
▁matches	-9.6126
▁Frank	-9.61304
▁ultimate	-9.61304
▁nation	-9.61316
▁decade	-9.61528
ler	-9.61557
▁heart	-9.61588
▁serious	-9.61663
▁Bridge	-9.61703
ol	-9.61717
▁describe	-9.61718
▁friends	-9.61743
▁kind	-9.61857
▁appears	-9.61967
▁couple	-9.62011
▁district	-9.62069
▁1992	-9.62196
▁financial	-9.62366
at	-9.62474
▁energy	-9.62514
▁takes	-9.62575
▁conflict	-9.62643
▁edition	-9.62689
▁adopt	-9.62974
▁movie	-9.63108
ur	-9.63215
▁Fox	-9.63232
▁contact	-9.63473
▁screen	-9.63593
▁32	-9.63755
field	-9.6379
▁constructed	-9.63942
▁Fort	-9.64017
▁stone	-9.64018
▁vocals	-9.64047
ka	-9.64133
▁attacks	-9.64269
▁temperature	-9.6429
▁chief	-9.6448
▁effort	-9.64705
▁Mexico	-9.6472
▁call	-9.64787
▁Like	-9.64816
▁source	-9.64907
▁college	-9.65042
▁Go	-9.65071
▁1930	-9.65321
▁defense	-9.65406
▁promot	-9.65501
▁extra	-9.65584
▁transferr	-9.65597
ent	-9.65675
▁physical	-9.65783
▁combat	-9.65866
▁collect	-9.66016
▁Madonna	-9.6602
▁twenty	-9.66085
▁argu	-9.6615
▁Chris	-9.66206
▁1993	-9.66242
▁theme	-9.66252
▁cyclone	-9.66254
▁stating	-9.66344
▁1991	-9.66371
ner	-9.66438
▁oil	-9.6644
▁Jones	-9.66532
▁Service	-9.66559
▁fund	-9.6661
ier	-9.66631
▁Scotland	-9.66833
▁engine	-9.67029
ge	-9.67133
▁concert	-9.67192
▁hold	-9.6721
▁escape	-9.6725
▁Department	-9.67299
▁add	-9.67314
▁receive	-9.67453
▁Lee	-9.67559
▁yard	-9.67642
▁science	-9.67665
▁means	-9.6768
▁Hurricane	-9.6769
line	-9.67764
▁Zealand	-9.67786
▁makes	-9.67809
▁charge	-9.67811
▁dropp	-9.67856
▁morning	-9.6786
▁wall	-9.67912
▁executive	-9.67926
▁+	-9.67991
▁represent	-9.68026
▁Their	-9.68027
▁build	-9.68071
▁Three	-9.68161
os	-9.68161
▁foot	-9.68376
▁responsibl	-9.68384
▁performances	-9.68489
▁inside	-9.68519
▁mount	-9.68561
▁managed	-9.6871
▁wear	-9.68828
▁Prince	-9.68833
▁Infantry	-9.68899
▁ending	-9.68956
▁Creek	-9.68965
▁v	-9.69014
kept	-9.69015
▁400	-9.69103
▁Catholic	-9.69295
▁Simpson	-9.69296
▁mission	-9.69307
▁notes	-9.69564
▁variety	-9.69689
▁Life	-9.69747
▁depict	-9.69853
ha	-9.69864
▁era	-9.69923
▁arrest	-9.70188
den	-9.70352
▁Committee	-9.70429
ities	-9.70475
▁presented	-9.705
▁meant	-9.70534
▁square	-9.70607
▁speak	-9.70735
go	-9.70851
▁search	-9.70902
▁Records	-9.71068
▁divid	-9.71173
▁bad	-9.71215
ten	-9.71219
▁oppos	-9.71285
▁Battalion	-9.71359
▁tower	-9.71362
▁efforts	-9.71439
▁Cross	-9.71442
▁marked	-9.71495
▁wing	-9.71528
ium	-9.71535
▁formation	-9.71651
▁box	-9.71774
▁Latin	-9.71813
▁train	-9.71814
▁hundred	-9.71861
▁Post	-9.71918
▁portray	-9.72082
▁begins	-9.72278
▁multiple	-9.72295
▁piece	-9.7231
be	-9.72318
▁presence	-9.72339
▁sex	-9.72356
▁Society	-9.72476
▁books	-9.72525
▁engage	-9.72534
V	-9.72593
▁Live	-9.72598
▁1942	-9.72603
▁camp	-9.7263
ga	-9.72766
▁content	-9.72789
▁federal	-9.72805
▁scale	-9.72805
▁collection	-9.72822
▁Southern	-9.72957
▁cit	-9.72987
▁write	-9.73201
▁Saint	-9.73242
▁speech	-9.73245
▁levels	-9.73358
▁enjoy	-9.73422
▁Stephen	-9.73454
▁Line	-9.73481
▁primari	-9.73527
▁viewers	-9.73554
▁kill	-9.73599
▁seat	-9.73644
▁metres	-9.73651
▁forest	-9.73662
▁winter	-9.73836
▁Oxford	-9.73855
▁extreme	-9.73882
▁Louis	-9.73887
▁words	-9.73915
▁blood	-9.73983
▁Captain	-9.73993
▁enemy	-9.74091
▁traffic	-9.74106
▁Under	-9.74111
▁records	-9.7417
▁storie	-9.74171
▁value	-9.74227
▁actor	-9.74536
▁read	-9.74606
▁Republican	-9.74633
▁33	-9.74757
▁Chief	-9.74765
board	-9.74836
▁Boston	-9.74851
ul	-9.74858
▁link	-9.7487
▁royal	-9.74875
▁Mr	-9.74931
▁concluded	-9.74939
▁scoring	-9.75027
▁property	-9.75031
▁Harrison	-9.75084
5	-9.75094
▁inch	-9.7512
▁quarter	-9.75156
▁Manchester	-9.75198
▁risk	-9.75253
▁meaning	-9.75295
▁prominent	-9.75351
▁setting	-9.75424
ecause	-9.7547
▁Before	-9.75605
▁weaken	-9.7567
▁positions	-9.75681
▁extensive	-9.75704
▁rating	-9.75717
▁Brigade	-9.75732
▁job	-9.75804
▁cases	-9.75978
▁Vietnam	-9.76172
▁Long	-9.76232
▁observed	-9.76287
ak	-9.76289
▁hospital	-9.76341
▁Regiment	-9.76513
▁1944	-9.76533
▁tournament	-9.76627
no	-9.76644
▁Little	-9.76698
▁strength	-9.76717
▁rough	-9.76737
▁things	-9.76853
▁reception	-9.76859
▁paid	-9.77014
▁Joseph	-9.77139
▁invasion	-9.77214
▁sense	-9.77271
▁fill	-9.77327
▁More	-9.77423
▁Home	-9.77431
▁companies	-9.77444
▁Har	-9.77588
truck	-9.77678
▁convert	-9.77689
▁meet	-9.77716
▁onto	-9.77775
▁historical	-9.77799
▁bill	-9.77807
▁say	-9.78104
▁Series	-9.78106
▁animals	-9.7812
▁document	-9.78139
ke	-9.78208
▁blue	-9.78223
▁i	-9.78223
▁powerful	-9.78261
▁broke	-9.78347
▁parents	-9.78399
▁reflect	-9.78433
town	-9.78447
▁candidate	-9.78558
▁BBC	-9.78655
▁reject	-9.78676
▁identifi	-9.78763
▁Bar	-9.78983
▁maximum	-9.79054
▁participat	-9.79092
▁innings	-9.79107
▁block	-9.79108
▁criticiz	-9.79251
▁Academy	-9.79479
mi	-9.7949
▁schools	-9.79512
quality	-9.7955
▁1920	-9.79632
▁1945	-9.79646
▁policy	-9.79687
▁Middle	-9.79767
▁societ	-9.79769
ov	-9.79781
▁your	-9.79812
▁Young	-9.7993
▁Entertainment	-9.7995
▁Paris	-9.79995
▁Museum	-9.80011
▁lot	-9.80015
▁prov	-9.80148
▁1941	-9.80148
▁designated	-9.80165
ard	-9.80263
ki	-9.80266
▁ice	-9.80279
▁activity	-9.80581
ot	-9.80613
▁opportunit	-9.80676
▁discuss	-9.80751
▁Italy	-9.8077
▁thousand	-9.80869
▁combined	-9.8087
▁Art	-9.80928
▁capture	-9.80934
▁aid	-9.80956
▁label	-9.81046
▁Jim	-9.81191
berg	-9.81241
▁Ben	-9.81269
▁37	-9.81311
do	-9.81334
▁battleship	-9.81421
▁Williams	-9.81488
▁contrast	-9.81549
▁background	-9.81564
▁reference	-9.81603
▁Avenue	-9.81767
▁calling	-9.81799
▁foreign	-9.81876
▁Port	-9.82048
▁36	-9.82057
▁nominated	-9.82143
▁Joe	-9.82169
▁naval	-9.8217
▁weather	-9.82349
▁succeed	-9.824
N	-9.82409
▁talk	-9.8245
▁names	-9.82498
▁attempts	-9.82606
▁Ireland	-9.82718
▁numbers	-9.82721
▁husband	-9.82748
▁flow	-9.82822
ca	-9.8283
▁incident	-9.82929
ko	-9.82988
▁Games	-9.82988
▁confirmed	-9.8317
ir	-9.83194
▁stand	-9.83271
▁raid	-9.83344
▁push	-9.83393
ory	-9.83425
v	-9.83501
▁Show	-9.83519
▁1989	-9.83546
▁Victoria	-9.8369
▁image	-9.83748
▁forms	-9.83771
▁Republic	-9.83787
ney	-9.83811
▁native	-9.83821
▁don	-9.83922
▁advanc	-9.83955
▁surrounding	-9.83969
▁explained	-9.83998
▁1943	-9.84126
▁150	-9.84134
▁Parliament	-9.8416
▁begin	-9.84162
▁floor	-9.84231
▁sixth	-9.84243
▁weight	-9.84267
▁reason	-9.84317
▁rise	-9.84374
▁county	-9.84442
▁student	-9.84497
ab	-9.8471
▁sexual	-9.84758
▁ceremon	-9.84797
▁coming	-9.84877
▁website	-9.84988
▁ring	-9.85092
▁seek	-9.85127
▁sources	-9.85134
▁Tropical	-9.85176
▁soundtrack	-9.85206
▁secret	-9.85226
▁cities	-9.85386
▁Valley	-9.85394
▁Van	-9.85411
▁attract	-9.85488
▁49	-9.85535
▁true	-9.85664
▁organization	-9.85716
▁expressed	-9.85723
▁owned	-9.85777
▁sides	-9.85835
▁passing	-9.85897
ti	-9.8594
▁matter	-9.85949
▁38	-9.85969
▁agreement	-9.86042
▁Dutch	-9.86143
▁visual	-9.86242
▁artists	-9.86356
▁formal	-9.86382
▁becomes	-9.86387
ship	-9.86452
li	-9.86484
▁kg	-9.865
▁reign	-9.86505
▁save	-9.86643
▁artillery	-9.86678
▁Alli	-9.8668
cy	-9.86684
▁theory	-9.86731
▁Sam	-9.86773
▁armor	-9.86794
▁count	-9.86878
j	-9.8697
▁Football	-9.86995
▁Through	-9.86995
▁actions	-9.87001
▁edge	-9.87277
▁Carolina	-9.87329
▁supplie	-9.87414
aught	-9.87415
▁price	-9.87595
▁failure	-9.87604
▁negative	-9.8771
▁appeal	-9.87726
▁Governor	-9.87806
▁alone	-9.87809
▁improv	-9.87819
▁says	-9.87855
▁apparent	-9.87933
▁g	-9.87948
▁coin	-9.87957
▁senior	-9.87965
▁studies	-9.88015
▁detail	-9.88041
ful	-9.88073
▁contribut	-9.88146
io	-9.88147
▁big	-9.88215
▁What	-9.88238
▁pick	-9.88275
▁34	-9.88315
▁sub	-9.88361
▁beat	-9.88416
▁Fleet	-9.88439
▁kilometre	-9.88494
▁weapons	-9.88637
▁equipment	-9.88703
im	-9.88704
▁birth	-9.88835
▁Korean	-9.88843
▁spread	-9.8887
▁assist	-9.88968
▁achiev	-9.88997
lo	-9.89009
▁green	-9.89086
▁machine	-9.89267
ig	-9.89275
ni	-9.89297
well	-9.89318
▁injury	-9.89408
▁represented	-9.89461
▁Though	-9.89475
▁composition	-9.89528
▁guest	-9.89609
▁growth	-9.89651
▁lane	-9.89697
▁contemporary	-9.89708
▁Top	-9.89736
▁reviewer	-9.89767
▁Bond	-9.89786
▁Duke	-9.89827
▁Homer	-9.89861
▁medical	-9.8989
H	-9.89944
▁officials	-9.89953
▁Do	-9.8997
▁fuel	-9.89979
▁except	-9.8999
▁destroy	-9.90021
▁fired	-9.90101
▁Northern	-9.90164
▁thick	-9.90195
▁care	-9.90198
ba	-9.90242
ad	-9.90246
▁laid	-9.90261
▁championship	-9.90446
▁Castle	-9.9045
▁capacit	-9.90458
▁Prime	-9.90472
▁Government	-9.90474
▁treatment	-9.9048
ina	-9.90604
▁Wood	-9.90976
▁District	-9.91033
▁bar	-9.91055
▁governor	-9.91062
▁problem	-9.91168
▁offensive	-9.91198
▁activities	-9.91271
▁Storm	-9.91367
▁fine	-9.91373
▁spring	-9.91558
ese	-9.91804
▁Ko	-9.91825
▁Bo	-9.91848
▁prisoner	-9.91889
▁Operation	-9.9194
▁Admiral	-9.92081
▁degree	-9.92112
▁Scottish	-9.92176
▁killing	-9.92266
▁condition	-9.92272
▁settlement	-9.92295
▁gas	-9.923
▁1987	-9.92315
▁aspect	-9.92327
▁appearances	-9.92339
▁la	-9.9237
▁worldwide	-9.92397
▁connect	-9.92512
▁1988	-9.9255
▁Short	-9.92679
▁interchange	-9.92695
▁boat	-9.92737
▁Fantasy	-9.92796
▁sequence	-9.92878
▁railway	-9.92949
▁proposal	-9.9297
▁Blue	-9.92971
▁Background	-9.92981
▁Men	-9.93103
▁n	-9.9314
▁trying	-9.93234
▁sail	-9.93236
grew	-9.93251
▁rainfall	-9.93318
▁famous	-9.93336
▁Se	-9.93364
▁organiz	-9.93371
ek	-9.93442
▁Tech	-9.93446
▁doing	-9.9347
ang	-9.93475
▁Ra	-9.93479
coming	-9.93535
▁universit	-9.93593
▁multi	-9.93714
wise	-9.93735
▁eye	-9.93738
▁600	-9.93825
▁flag	-9.93848
▁twice	-9.93858
▁tail	-9.93916
▁Polish	-9.93945
lin	-9.93995
▁supply	-9.94062
▁plays	-9.9417
▁pieces	-9.94204
▁newspaper	-9.94303
▁Senate	-9.9432
▁acre	-9.94408
▁Chart	-9.94419
▁spend	-9.9453
▁consecutive	-9.9459
▁billion	-9.94602
▁Christmas	-9.94625
▁therefore	-9.94635
▁Eastern	-9.9465
▁drama	-9.94662
▁Gold	-9.94739
▁Festival	-9.94744
▁opinion	-9.94791
▁expedition	-9.9483
▁progress	-9.94843
▁Mike	-9.94881
▁adapt	-9.9492
▁Studios	-9.9496
▁estate	-9.95054
▁trees	-9.95083
▁55	-9.95084
▁Ocean	-9.95097
▁Ka	-9.95229
▁birds	-9.95267
▁Wilson	-9.9533
▁Pennsylvania	-9.95413
M	-9.95435
losing	-9.95437
▁herself	-9.95438
ite	-9.9554
▁expansion	-9.95586
▁leaders	-9.9563
▁48	-9.95653
▁Taylor	-9.95743
hile	-9.95761
house	-9.95764
▁squadron	-9.95793
ial	-9.95842
▁simply	-9.95879
▁Light	-9.95915
me	-9.95967
water	-9.96038
▁brown	-9.96099
▁BC	-9.9621
▁flood	-9.96302
▁assault	-9.96303
▁storyline	-9.96394
▁Mount	-9.96417
▁1986	-9.96458
▁crime	-9.96505
way	-9.9654
▁leg	-9.96567
▁Alexander	-9.96574
▁nothing	-9.96609
▁wounded	-9.96611
G	-9.96626
▁authority	-9.96707
▁firm	-9.9678
▁camera	-9.96816
▁passe	-9.96865
ized	-9.96891
▁Each	-9.96937
▁Due	-9.96972
▁Su	-9.97047
ell	-9.97051
▁Song	-9.97085
▁deck	-9.9709
▁unknown	-9.97098
more	-9.97099
▁silver	-9.97133
▁encounter	-9.97157
▁Of	-9.97214
▁Or	-9.97325
▁simple	-9.97343
▁versions	-9.97501
▁northeast	-9.9755
▁Will	-9.97689
▁opposition	-9.97695
▁workers	-9.97733
▁environment	-9.97756
▁fiction	-9.97773
▁standing	-9.97798
▁pro	-9.9783
▁favor	-9.97836
▁disease	-9.97848
▁Civil	-9.97852
▁shape	-9.98134
▁council	-9.98135
▁tax	-9.98177
▁fellow	-9.98279
▁mind	-9.98333
▁element	-9.98341
▁throw	-9.98378
▁honor	-9.98385
▁Night	-9.98462
▁heard	-9.98529
▁paper	-9.98579
▁mean	-9.98597
▁threat	-9.98599
▁tree	-9.98654
▁basis	-9.98686
▁civil	-9.98687
ja	-9.98717
▁walk	-9.98732
▁Reception	-9.98742
▁budget	-9.98883
▁vocal	-9.98886
▁Production	-9.98912
vi	-9.98921
▁walls	-9.98941
▁advantage	-9.99079
▁murder	-9.99084
▁purpose	-9.99086
▁starr	-9.99094
▁serving	-9.991
▁suit	-9.99123
▁64	-9.99158
▁Irish	-9.99182
▁Further	-9.99205
6	-9.9923
bo	-9.9925
▁Institute	-9.99286
▁sustain	-9.99327
▁shift	-9.99386
▁shar	-9.99434
▁fear	-9.99447
▁crossing	-9.99475
▁Doctor	-9.99528
▁leaves	-9.99651
▁pull	-9.99766
▁Not	-9.99771
▁message	-9.99816
▁w	-9.99832
▁Harry	-9.99868
▁administration	-9.99977
▁65	-9.99998
▁Spain	-10.0001
▁task	-10.0008
▁Jersey	-10.001
▁purchas	-10.0012
▁broad	-10.0015
▁abandoned	-10.0017
▁reports	-10.0029
▁flying	-10.0029
▁fan	-10.0036
▁criticism	-10.004
yond	-10.0044
▁respect	-10.0045
▁Li	-10.0055
▁trip	-10.0061
▁protest	-10.0061
▁Coast	-10.0062
▁systems	-10.0063
▁Con	-10.0064
▁northwest	-10.0068
▁rival	-10.0078
▁convince	-10.009
▁possibl	-10.0095
▁girl	-10.0098
▁unique	-10.0098
ac	-10.0106
▁carrier	-10.0116
▁Pro	-10.0124
▁1939	-10.0125
▁Sa	-10.0129
▁creation	-10.0132
▁Bob	-10.0133
▁Four	-10.0154
mer	-10.0154
▁choice	-10.0156
▁bodies	-10.0159
▁narrow	-10.016
▁crash	-10.0164
▁hands	-10.0167
▁42	-10.0168
▁miss	-10.0171
▁retreat	-10.0194
▁Elizabeth	-10.0197
▁influenc	-10.0198
▁split	-10.0201
▁recogniz	-10.0202
▁province	-10.0211
▁committee	-10.0221
▁Mar	-10.0223
gen	-10.0227
▁digital	-10.0227
▁animal	-10.0233
ya	-10.0237
▁Arthur	-10.0238
▁function	-10.024
▁phase	-10.0241
▁Commission	-10.0241
▁Field	-10.0245
▁results	-10.0256
▁actors	-10.0265
▁torpedo	-10.0274
▁cultural	-10.0276
▁retired	-10.0277
▁article	-10.0277
▁Un	-10.0279
▁data	-10.0281
▁creating	-10.0283
▁warning	-10.0284
▁inform	-10.0285
▁here	-10.0291
á	-10.0293
▁draw	-10.0293
▁47	-10.0302
▁stations	-10.0308
▁arrange	-10.0312
▁1985	-10.0315
▁1968	-10.0323
▁selection	-10.0327
▁producers	-10.0335
▁Board	-10.0336
▁canno	-10.0341
▁necessary	-10.0342
▁personnel	-10.035
▁horses	-10.0351
▁Meanw	-10.0352
▁dedicat	-10.0357
▁text	-10.0357
▁bit	-10.0365
▁twelve	-10.0369
▁wave	-10.0371
han	-10.0378
▁39	-10.0381
▁address	-10.0388
▁Ten	-10.0394
▁gross	-10.0397
▁leadership	-10.0398
▁Also	-10.0402
▁surrender	-10.0402
▁rain	-10.0408
▁accompani	-10.0413
▁Ohio	-10.0425
▁repeated	-10.0428
▁management	-10.0433
▁threaten	-10.0437
▁Point	-10.044
▁infantry	-10.0446
▁categor	-10.0448
▁Ma	-10.0448
▁counter	-10.0455
▁Walter	-10.0464
mo	-10.0465
▁Order	-10.0469
▁conference	-10.0472
▁parallel	-10.0475
▁wait	-10.0479
▁Secretary	-10.048
der	-10.0491
▁claims	-10.0492
▁height	-10.0499
▁rear	-10.0499
▁41	-10.0501
▁Its	-10.0504
▁peace	-10.0507
▁reduce	-10.0514
tic	-10.0516
▁arms	-10.0517
▁System	-10.0518
haps	-10.0519
▁Town	-10.0519
▁broken	-10.052
▁ancient	-10.0521
▁Di	-10.0529
▁comed	-10.0532
▁1984	-10.0533
au	-10.0547
▁landing	-10.0551
▁Georgia	-10.0553
▁permanent	-10.0557
▁composer	-10.0558
▁Y	-10.0559
▁Philadelphia	-10.0563
▁motion	-10.0575
▁Islands	-10.0578
▁Ne	-10.058
▁battalion	-10.058
▁mile	-10.0585
▁reveal	-10.0595
▁perfect	-10.0595
▁franchise	-10.0596
▁holding	-10.0597
▁alternative	-10.06
▁52	-10.06
▁arrival	-10.061
▁defence	-10.061
▁contest	-10.0622
ph	-10.0624
▁acquired	-10.063
▁Cambridge	-10.0634
▁critic	-10.0635
▁MD	-10.0635
▁Mac	-10.0636
▁planet	-10.0645
▁Andrew	-10.0646
▁tradition	-10.0651
▁newly	-10.0658
▁Never	-10.066
▁driver	-10.0663
▁Player	-10.0665
▁Dan	-10.0682
▁occasional	-10.0683
▁sports	-10.0683
▁investigation	-10.0688
▁aim	-10.069
▁adult	-10.0693
▁seventh	-10.0697
▁spot	-10.0706
▁authorities	-10.0716
▁Grant	-10.0717
▁solo	-10.0721
▁semi	-10.0724
▁Bell	-10.0725
▁zone	-10.0738
▁centuries	-10.0738
▁Russia	-10.0739
▁exchange	-10.074
▁defensive	-10.0744
▁genu	-10.0746
▁1967	-10.0747
▁crowd	-10.0749
▁People	-10.0752
▁improve	-10.0752
▁headquarters	-10.0756
▁recommend	-10.0767
▁Development	-10.0779
▁44	-10.0779
▁vehicles	-10.0785
▁breed	-10.079
▁bomb	-10.0795
▁affair	-10.0795
▁Square	-10.0801
▁occupi	-10.0808
▁determined	-10.081
▁families	-10.0815
▁Among	-10.0816
▁Ottoman	-10.0817
▁household	-10.0819
▁Liverpool	-10.082
▁800	-10.0825
▁security	-10.0828
ah	-10.083
▁controlled	-10.0832
▁computer	-10.0834
▁street	-10.0836
▁Nintendo	-10.0857
▁46	-10.0862
▁Lewis	-10.0865
▁prison	-10.0874
▁replace	-10.0876
▁Law	-10.0878
▁Columbia	-10.0883
▁turret	-10.0885
ana	-10.0889
▁econom	-10.0893
em	-10.0899
▁temple	-10.0903
▁Lieutenant	-10.0916
▁dollar	-10.0919
▁Additional	-10.0923
▁Office	-10.0925
▁protection	-10.0926
▁branch	-10.0927
▁emerg	-10.0931
▁singing	-10.0935
E	-10.0936
▁hair	-10.0946
▁ideas	-10.0951
▁declin	-10.0952
▁Asia	-10.0954
K	-10.0955
▁guard	-10.0957
▁piano	-10.0958
▁shooting	-10.0961
▁plants	-10.0962
▁paint	-10.0963
▁Turk	-10.0969
P	-10.0982
▁thing	-10.0994
▁gradual	-10.0996
▁Daniel	-10.1009
▁steam	-10.1012
▁try	-10.1017
▁1983	-10.102
▁Olympic	-10.1024
▁farm	-10.1026
▁hope	-10.1028
▁Christ	-10.1031
ut	-10.1032
▁Gulf	-10.1032
▁intensit	-10.1032
▁mountain	-10.1033
ger	-10.1035
▁schedul	-10.1036
▁debate	-10.1038
▁follows	-10.104
▁rare	-10.104
▁brigade	-10.104
▁Jewish	-10.1046
▁Q	-10.1052
▁refer	-10.1064
▁comic	-10.1066
▁Francisco	-10.1068
▁SR	-10.1072
▁Anderson	-10.1073
▁iron	-10.1073
▁nuclea	-10.1078
▁mouth	-10.1084
▁1964	-10.109
von	-10.1097
▁Railway	-10.1097
▁Miller	-10.1099
R	-10.1104
▁1969	-10.1105
un	-10.1112
▁flooding	-10.1113
▁partial	-10.1116
▁43	-10.1129
▁fresh	-10.1131
mon	-10.1133
▁indicate	-10.1135
▁lives	-10.1137
▁fair	-10.1142
▁Carey	-10.1144
▁Davis	-10.115
▁let	-10.1186
▁Emperor	-10.1189
▁renam	-10.1189
▁1914	-10.1194
▁Americans	-10.1194
sen	-10.1195
▁Good	-10.1197
▁Conference	-10.1209
▁cap	-10.1213
▁PlayStation	-10.1213
▁CD	-10.1214
▁path	-10.1214
▁1918	-10.1218
F	-10.1221
▁HMS	-10.1222
▁120	-10.1224
▁print	-10.1226
ster	-10.1226
va	-10.1227
▁51	-10.1229
▁volume	-10.123
▁chance	-10.1232
▁Steve	-10.1232
▁1982	-10.1246
▁Brian	-10.1248
▁1971	-10.1259
▁depend	-10.1264
▁rail	-10.1274
▁supporter	-10.1283
▁1966	-10.1285
▁1972	-10.1298
▁Jean	-10.1301
▁1979	-10.131
▁kick	-10.132
▁promotion	-10.132
▁facilities	-10.1326
▁install	-10.1333
▁happen	-10.1344
▁principal	-10.1349
▁constant	-10.1353
▁cell	-10.1356
ci	-10.1357
gun	-10.1361
▁weak	-10.1364
▁notable	-10.1369
▁product	-10.1372
▁core	-10.1373
▁escort	-10.1375
▁department	-10.1381
▁publication	-10.1382
up	-10.1383
▁types	-10.1383
▁accident	-10.1388
▁drawn	-10.1396
▁1965	-10.1407
▁roads	-10.1412
▁submarine	-10.1413
▁cold	-10.1414
ability	-10.1415
▁gives	-10.1416
▁reaction	-10.1418
▁dai	-10.1423
▁dress	-10.1424
▁NHL	-10.1426
▁Indiana	-10.1431
▁unusual	-10.1438
▁intersection	-10.1438
▁Lo	-10.144
▁fit	-10.1449
▁lay	-10.146
▁fruit	-10.1464
▁purchase	-10.1467
▁surprise	-10.1467
▁1975	-10.1468
▁arrive	-10.1468
▁Can	-10.1468
▁platform	-10.1469
▁analysis	-10.147
▁singles	-10.1471
▁promote	-10.1479
▁symbol	-10.1481
▁combination	-10.1482
▁yellow	-10.1482
▁steel	-10.1484
▁Rose	-10.1488
▁pitch	-10.1497
bury	-10.1499
▁Original	-10.151
▁Bowl	-10.1511
▁strike	-10.1513
▁hir	-10.1528
▁defin	-10.1529
▁Bank	-10.1532
▁Ed	-10.1536
▁Jr	-10.1547
▁Hollywood	-10.1551
▁religion	-10.1559
▁1974	-10.1564
▁heat	-10.1566
▁decline	-10.1566
bound	-10.1568
▁lap	-10.1577
▁News	-10.1577
▁table	-10.1591
▁entrance	-10.1593
▁assistant	-10.1594
▁cricket	-10.1596
nything	-10.1606
stone	-10.1608
why	-10.1608
▁1973	-10.1619
▁Station	-10.1622
▁climb	-10.1624
▁Special	-10.1625
▁Democratic	-10.1629
▁Out	-10.1635
▁themes	-10.1636
▁Na	-10.1638
▁Singapore	-10.1639
▁editor	-10.164
▁finds	-10.1642
▁bank	-10.1649
ji	-10.1663
▁casualties	-10.1666
▁Between	-10.1669
▁flat	-10.167
op	-10.1674
▁islands	-10.1676
▁Supreme	-10.168
▁Disney	-10.1687
▁1976	-10.1706
▁Press	-10.1707
▁Way	-10.1708
▁tend	-10.1716
▁Land	-10.1717
▁Per	-10.1725
▁Car	-10.1732
▁locations	-10.1736
▁Lady	-10.1738
▁joint	-10.1742
▁Wall	-10.1748
▁Am	-10.1748
▁painting	-10.1748
▁boats	-10.1753
▁domestic	-10.1756
▁agent	-10.1765
▁journalist	-10.1769
ised	-10.177
▁method	-10.178
▁approved	-10.1781
▁programme	-10.1784
▁Colonel	-10.1789
▁depart	-10.1799
▁Pre	-10.1816
▁eyes	-10.1828
▁95	-10.1831
▁losses	-10.1831
▁row	-10.1833
▁basic	-10.1834
▁Bart	-10.1835
▁decide	-10.1836
knew	-10.1841
▁literature	-10.1843
▁electric	-10.1847
▁Women	-10.1848
▁easi	-10.185
▁exact	-10.1852
▁Daily	-10.1853
▁poem	-10.1858
drew	-10.1859
▁boy	-10.1864
▁Cape	-10.1873
▁Muslim	-10.1874
▁trains	-10.1877
po	-10.1877
ker	-10.188
▁Matt	-10.1882
▁End	-10.1886
quite	-10.1886
▁garden	-10.1889
▁secure	-10.1892
▁reform	-10.1898
▁Beyoncé	-10.1902
▁unsuccessful	-10.1909
▁unlike	-10.1909
▁250	-10.1916
▁roll	-10.192
pa	-10.1922
▁urban	-10.1926
▁technology	-10.1928
▁industrial	-10.1932
▁goes	-10.1933
▁resistance	-10.1938
▁prepared	-10.1945
▁calls	-10.1945
▁reputation	-10.1952
▁Summer	-10.1955
▁Book	-10.1961
▁introduction	-10.1962
▁Who	-10.1974
▁habitat	-10.1976
▁responsibilit	-10.1979
▁proceed	-10.1984
▁Main	-10.1996
▁grade	-10.2007
▁sequel	-10.2012
▁fashion	-10.2014
▁fort	-10.2018
▁wor	-10.2019
▁Clark	-10.2024
▁turns	-10.2025
▁nor	-10.2035
▁SS	-10.2036
▁gett	-10.204
▁Kentucky	-10.204
▁store	-10.2041
▁ha	-10.2044
ow	-10.2047
ization	-10.2048
▁scientific	-10.2051
▁lb	-10.2051
▁1946	-10.2052
▁roles	-10.2056
▁1981	-10.2057
▁straight	-10.2059
▁albums	-10.206
▁85	-10.2066
▁seconds	-10.2088
▁Airport	-10.2088
▁freeway	-10.2089
▁popularity	-10.209
▁Lincoln	-10.2102
ck	-10.2107
O	-10.2118
▁object	-10.2121
▁Norway	-10.2125
▁dispute	-10.2129
▁extension	-10.2134
▁channel	-10.214
▁employed	-10.2142
▁travell	-10.2158
▁appli	-10.2163
▁museum	-10.2167
▁1917	-10.2168
▁survey	-10.217
▁ray	-10.217
▁southeast	-10.2171
▁settl	-10.2176
▁coal	-10.2178
▁dry	-10.218
▁passage	-10.2184
ver	-10.2186
▁IV	-10.2188
▁Golden	-10.2188
kin	-10.2199
▁desire	-10.2203
▁Po	-10.2203
▁structures	-10.2203
▁compet	-10.2207
▁Part	-10.2213
hu	-10.2217
▁distinguish	-10.2218
▁slave	-10.2219
▁Massachusetts	-10.2221
▁worth	-10.2234
▁journey	-10.2244
▁strateg	-10.2245
▁Public	-10.2246
▁transfer	-10.2248
za	-10.2249
▁awards	-10.2249
▁depth	-10.2251
▁stock	-10.2261
▁Ca	-10.2262
▁favour	-10.2282
▁continu	-10.2285
▁stadium	-10.2287
▁description	-10.2298
▁eat	-10.2299
▁homes	-10.2302
▁distribution	-10.2307
▁Boy	-10.2313
▁planning	-10.2319
▁layer	-10.2319
▁possibilit	-10.2321
▁raise	-10.2325
▁knowledge	-10.2325
▁genre	-10.2342
▁1948	-10.2342
▁reserve	-10.2343
▁Ray	-10.2346
▁existence	-10.2351
▁register	-10.2355
▁rush	-10.2364
ius	-10.2365
▁southwest	-10.2366
▁distinct	-10.2366
▁missing	-10.2368
▁buri	-10.2376
▁About	-10.2378
all	-10.238
ino	-10.2382
▁statement	-10.239
▁Video	-10.2392
▁Dark	-10.2407
▁roof	-10.2413
▁assum	-10.242
ack	-10.2424
▁Radio	-10.2427
▁letters	-10.243
▁rich	-10.2432
▁responded	-10.2434
▁am	-10.2438
▁wood	-10.2439
▁praise	-10.2441
▁theatre	-10.2452
▁Moon	-10.2457
▁Byzantine	-10.2458
▁connected	-10.246
▁dismiss	-10.2462
▁1978	-10.2465
▁surround	-10.2465
▁Moore	-10.2468
▁regions	-10.2469
▁safet	-10.2472
▁reasons	-10.2477
▁baseball	-10.2477
▁reading	-10.2481
▁54	-10.2496
▁entitl	-10.2496
▁Imperial	-10.2497
ical	-10.2508
▁challenge	-10.2514
▁festival	-10.2516
▁moderate	-10.2522
▁Justice	-10.2525
▁driv	-10.2528
▁Olympics	-10.253
▁Even	-10.2539
▁committ	-10.2544
▁Age	-10.2546
▁recruit	-10.2547
▁Sunday	-10.2553
▁shoot	-10.2565
ists	-10.2567
▁Director	-10.2569
▁bowl	-10.257
▁1915	-10.257
▁bird	-10.2572
▁wild	-10.2574
▁Poland	-10.259
▁1977	-10.2598
older	-10.2599
▁Sydney	-10.26
▁invit	-10.2603
▁Sound	-10.2604
▁landfall	-10.2605
▁Naval	-10.2605
▁Maryland	-10.2608
T	-10.2611
L	-10.2614
▁technical	-10.2616
▁Recording	-10.2617
▁charts	-10.2627
▁master	-10.2638
▁gamepla	-10.2641
▁afterward	-10.2644
▁stopp	-10.2644
▁Arab	-10.2645
don	-10.2654
▁MTV	-10.2655
▁opera	-10.2658
▁brand	-10.2662
▁56	-10.2662
▁scheme	-10.267
▁Play	-10.2696
▁cells	-10.2703
▁credited	-10.2703
vo	-10.2708
▁violence	-10.271
▁winner	-10.2712
▁Ver	-10.2714
▁1963	-10.2716
▁regiment	-10.2719
▁repair	-10.2724
▁Egypt	-10.273
om	-10.273
▁700	-10.2736
▁signal	-10.2755
▁ex	-10.2759
▁Mu	-10.2764
▁Theatre	-10.2765
▁battery	-10.277
▁skin	-10.2777
▁Simon	-10.2777
▁hall	-10.2782
▁send	-10.2782
▁1916	-10.2785
I	-10.2787
▁politics	-10.2789
▁hero	-10.2798
▁Alan	-10.2802
▁turning	-10.2803
▁equal	-10.2815
▁none	-10.2818
▁Jay	-10.282
▁tall	-10.2826
▁Mulder	-10.2829
▁Gordon	-10.283
▁independence	-10.2833
▁sites	-10.2838
▁items	-10.2854
▁brothers	-10.286
▁animat	-10.2863
ny	-10.2869
que	-10.287
▁rules	-10.2876
▁secur	-10.2877
▁transition	-10.2883
▁Songs	-10.2884
▁Hu	-10.289
▁bottom	-10.2894
▁argue	-10.2908
▁classic	-10.291
▁53	-10.2913
▁prompt	-10.2915
▁Stadium	-10.2916
▁disc	-10.2921
▁1919	-10.2922
▁finding	-10.2926
▁bigge	-10.2927
▁campus	-10.2928
▁struggle	-10.293
thing	-10.2932
▁rescue	-10.2934
▁1962	-10.2936
▁employee	-10.2945
▁wealth	-10.2948
▁indicated	-10.295
ran	-10.2954
▁evening	-10.2955
hi	-10.2959
▁delivered	-10.2967
▁Chi	-10.297
▁equipp	-10.2971
▁titles	-10.2973
▁cars	-10.2974
ong	-10.2977
▁Albert	-10.2986
▁scientist	-10.2991
▁civilian	-10.2993
▁nomination	-10.2993
wa	-10.2994
▁aware	-10.2997
▁catch	-10.2998
▁observation	-10.2999
▁drop	-10.3001
▁En	-10.3004
▁boundar	-10.3008
▁Space	-10.3016
▁exit	-10.3019
▁Prior	-10.3021
▁di	-10.3021
▁studi	-10.3025
▁fun	-10.3026
▁inter	-10.3032
▁Thu	-10.3039
▁import	-10.304
▁1938	-10.3041
▁producing	-10.3044
▁Critical	-10.3047
▁bought	-10.3052
▁shap	-10.3052
over	-10.3056
▁protein	-10.3062
▁showing	-10.3063
▁Ross	-10.3075
ron	-10.3076
▁flank	-10.3076
▁Brad	-10.3078
▁Just	-10.3081
▁knots	-10.3089
▁handle	-10.309
▁owner	-10.3093
▁online	-10.3098
▁essential	-10.3101
cher	-10.3102
J	-10.3103
▁replacement	-10.3103
▁download	-10.3104
▁relief	-10.3113
▁powers	-10.3114
ett	-10.3119
▁substantial	-10.3121
▁ago	-10.3125
▁models	-10.3128
▁factor	-10.3134
▁ends	-10.3141
▁76	-10.3146
▁Rome	-10.3151
▁crown	-10.3159
▁kingdom	-10.3165
▁Ni	-10.3167
▁Fire	-10.3176
▁Han	-10.3181
▁deploy	-10.3181
▁Water	-10.3183
▁projects	-10.3184
▁duty	-10.3186
▁equivalent	-10.3192
▁Tony	-10.3194
▁shell	-10.3196
▁Band	-10.3198
▁controversy	-10.32
▁partner	-10.3202
▁component	-10.3205
▁internal	-10.3208
▁seasons	-10.3217
▁Memorial	-10.3217
▁mode	-10.3217
▁spirit	-10.322
▁Beach	-10.3228
▁1956	-10.3235
▁ridge	-10.3238
▁academic	-10.3242
▁actress	-10.3246
spread	-10.3254
▁dominat	-10.3258
▁Sky	-10.3259
▁heads	-10.326
▁engineer	-10.3262
▁Kent	-10.3265
▁deni	-10.3269
▁entry	-10.327
▁premiere	-10.3273
▁Arts	-10.3275
▁emergenc	-10.3279
▁recalled	-10.328
▁global	-10.3284
▁sufficient	-10.3287
▁tank	-10.3287
craft	-10.329
▁survived	-10.3291
▁hotel	-10.3301
▁details	-10.3301
▁restor	-10.3301
▁Hungarian	-10.3302
▁establishment	-10.3306
▁Adam	-10.3309
▁departure	-10.3312
▁Free	-10.3317
▁Revolution	-10.3322
▁remainder	-10.3323
▁breeding	-10.3324
▁manner	-10.3327
▁relations	-10.3328
▁views	-10.3331
ze	-10.3335
▁admitted	-10.3337
▁1936	-10.3338
▁note	-10.334
▁Hamilton	-10.3342
ub	-10.3349
▁Douglas	-10.335
▁airport	-10.3352
▁experienc	-10.336
▁Plot	-10.3363
▁Philip	-10.3365
▁IGN	-10.3367
▁Adams	-10.3372
▁Singles	-10.3372
▁classification	-10.3378
▁convoy	-10.338
▁sets	-10.3382
▁Power	-10.3385
▁headed	-10.3386
ng	-10.3391
ea	-10.3398
▁cent	-10.3411
▁wish	-10.3415
sh	-10.3416
▁preparation	-10.3424
▁Kennedy	-10.3426
▁income	-10.3429
▁Bush	-10.3449
▁Head	-10.345
▁meters	-10.3453
▁drug	-10.3455
▁emotional	-10.3457
▁1961	-10.3467
▁Science	-10.3469
▁accus	-10.3477
▁union	-10.3479
▁tunnel	-10.3484
▁engines	-10.3485
▁Ho	-10.3491
▁Howard	-10.3491
▁Your	-10.3492
▁trail	-10.3495
UTC	-10.3495
▁instance	-10.3497
▁Norman	-10.3505
▁intention	-10.3512
▁NBA	-10.3518
▁Mountain	-10.352
chi	-10.3526
▁buy	-10.3531
▁1953	-10.3541
▁picture	-10.3543
▁rat	-10.3546
▁stages	-10.3546
▁youth	-10.355
▁humans	-10.3552
▁Death	-10.3557
▁Pop	-10.3558
▁attain	-10.3561
▁programs	-10.3566
▁Today	-10.3566
▁connection	-10.3567
▁duties	-10.3569
▁Roger	-10.3572
▁Ke	-10.3577
▁designer	-10.3578
▁Magazine	-10.3579
▁remember	-10.3587
▁generat	-10.3589
▁Military	-10.359
▁rural	-10.3592
▁ill	-10.3593
▁attribut	-10.3593
▁someone	-10.3593
▁decrease	-10.3595
▁tanks	-10.3596
▁Initial	-10.3605
▁eighth	-10.3612
▁generation	-10.3617
▁Project	-10.3623
▁Back	-10.3625
jo	-10.3627
▁Scully	-10.3631
▁Five	-10.3633
▁identity	-10.3634
▁Norwegian	-10.3644
▁Design	-10.3651
▁writes	-10.3652
▁Research	-10.366
▁lift	-10.3662
▁armour	-10.3663
▁Hitler	-10.3668
▁Gar	-10.3671
▁recognition	-10.3678
▁Far	-10.3678
▁freedom	-10.3678
▁pattern	-10.3679
▁1947	-10.3686
▁measure	-10.369
▁hip	-10.3698
▁climate	-10.3701
▁lose	-10.3702
▁segment	-10.3703
▁conclusion	-10.3704
▁66	-10.3706
▁1958	-10.3707
▁ensure	-10.3711
▁regional	-10.3712
▁champion	-10.3713
▁products	-10.3721
▁convention	-10.3732
▁dog	-10.3742
▁march	-10.3744
▁rose	-10.3746
▁Carl	-10.3752
▁WWE	-10.3754
▁deriv	-10.3758
▁1910	-10.3762
▁references	-10.3764
▁Mexican	-10.3764
▁describing	-10.3764
▁FA	-10.3764
▁Germans	-10.3767
▁1957	-10.3767
ru	-10.3771
▁sections	-10.3781
▁towns	-10.3782
▁corner	-10.3783
▁ticket	-10.3785
▁enemies	-10.3788
▁belt	-10.3791
▁charg	-10.3793
▁1937	-10.3794
round	-10.3794
▁soul	-10.3795
▁determine	-10.3797
▁Ryan	-10.3798
▁Assembly	-10.3803
▁patrol	-10.3805
▁males	-10.3805
ence	-10.3806
▁visitor	-10.3808
▁objects	-10.3811
▁dated	-10.3817
▁exercise	-10.3819
▁certifi	-10.3822
▁alter	-10.3826
▁stoo	-10.3829
▁Cleveland	-10.383
▁glass	-10.3832
▁Girl	-10.3841
▁Media	-10.3848
ise	-10.385
▁medal	-10.385
▁Illinois	-10.3856
▁considerabl	-10.3857
▁Rolling	-10.3859
▁restaurant	-10.3862
ven	-10.3862
▁minister	-10.3864
▁Dream	-10.3868
▁chemical	-10.3871
▁slowly	-10.388
ev	-10.3891
▁cool	-10.39
▁Iron	-10.3905
▁fly	-10.3907
▁memorial	-10.3912
▁attached	-10.3917
▁Arsenal	-10.392
▁cycle	-10.3926
▁Master	-10.3927
▁Dean	-10.3929
port	-10.3934
▁atmosphere	-10.3936
▁deem	-10.3936
▁Hav	-10.3937
▁hits	-10.3943
▁surviv	-10.3945
▁behavior	-10.3947
ax	-10.3948
▁correct	-10.3949
▁highlight	-10.395
▁Review	-10.3953
▁achieve	-10.3953
▁1959	-10.3956
▁origin	-10.396
▁Oregon	-10.3963
▁Weekly	-10.3964
▁acclaim	-10.3966
▁circulation	-10.3969
▁Stanley	-10.3977
▁foundation	-10.3985
▁favorite	-10.3986
▁130	-10.3986
▁laws	-10.3989
di	-10.3992
▁Bruce	-10.3994
old	-10.3994
▁Third	-10.3996
▁Six	-10.3996
▁57	-10.4
▁acid	-10.4
▁58	-10.4006
▁valley	-10.4006
we	-10.4008
▁Forest	-10.4008
▁judge	-10.4009
▁Kong	-10.4011
▁obtained	-10.4018
ski	-10.4025
▁Kevin	-10.403
▁waters	-10.4031
▁Jeff	-10.4033
▁vessels	-10.4035
▁terminus	-10.4039
▁Family	-10.4039
▁opposite	-10.4042
▁Mediterranea	-10.4044
▁1955	-10.405
▁1954	-10.405
▁inspiration	-10.4052
▁Andy	-10.4054
▁Allen	-10.4055
▁Beatles	-10.4057
▁insist	-10.4057
▁intelligence	-10.4057
▁supposed	-10.406
▁citizens	-10.4062
▁Bristol	-10.4065
▁Release	-10.4076
▁shipp	-10.4081
▁Du	-10.4087
SBN	-10.4088
▁funds	-10.4089
▁literar	-10.4089
▁Morgan	-10.4093
▁criminal	-10.4098
▁superior	-10.4098
▁Channel	-10.4098
▁prey	-10.4104
▁theater	-10.4105
▁page	-10.4105
▁Premier	-10.4106
▁solid	-10.4114
▁Mo	-10.4122
▁Command	-10.4123
▁completion	-10.4127
▁premier	-10.4128
▁Anne	-10.4129
▁doctor	-10.4133
▁predict	-10.4143
▁Morris	-10.4149
pe	-10.4151
▁Max	-10.4154
▁Marine	-10.4154
▁founder	-10.4159
▁images	-10.416
▁van	-10.416
▁warm	-10.4168
▁Bishop	-10.4169
▁thirty	-10.4169
▁benefit	-10.4172
▁merchant	-10.418
▁downtown	-10.418
▁feeling	-10.4181
▁possession	-10.4185
▁sort	-10.4188
bu	-10.4189
▁answer	-10.4191
▁designs	-10.4196
▁Mi	-10.4197
▁Cha	-10.4202
▁Da	-10.4205
▁hill	-10.4208
▁sole	-10.4213
×	-10.4215
▁Ken	-10.4218
▁Fame	-10.422
▁destruction	-10.4224
▁moral	-10.4224
▁alien	-10.4225
▁places	-10.4228
▁interior	-10.4231
▁cloud	-10.4246
uk	-10.4247
▁Korea	-10.4249
▁assistance	-10.4257
▁spoke	-10.4257
▁Lisa	-10.426
▁brain	-10.4265
▁trad	-10.4272
▁Te	-10.4276
▁association	-10.4277
▁sport	-10.428
▁wickets	-10.4281
▁operate	-10.4282
▁cruiser	-10.4282
mar	-10.4285
▁outer	-10.4285
▁Robinson	-10.4288
▁venue	-10.4293
ou	-10.4295
▁creator	-10.4299
▁tied	-10.4305
▁news	-10.4312
▁suspect	-10.4312
▁Within	-10.4312
▁Temple	-10.4313
▁properties	-10.4318
▁withdraw	-10.4329
▁vehicle	-10.4343
▁switch	-10.4345
▁1952	-10.4349
▁alleged	-10.4352
▁impress	-10.4352
▁chorus	-10.4356
▁110	-10.4358
▁massive	-10.4359
▁gather	-10.4364
▁crop	-10.4375
▁62	-10.4376
▁Tim	-10.4387
ious	-10.4389
▁Si	-10.4389
▁Nick	-10.4394
▁61	-10.4401
▁garrison	-10.4401
▁capabl	-10.4402
gi	-10.4403
▁estimate	-10.4406
▁Francis	-10.441
▁credit	-10.4411
▁door	-10.4413
▁cavalry	-10.4418
▁incorporated	-10.442
▁72	-10.442
▁narrative	-10.4421
▁ride	-10.4423
▁differ	-10.4423
▁ready	-10.4426
▁distribut	-10.4428
▁Unlike	-10.4429
▁dates	-10.4431
▁Horse	-10.444
▁passengers	-10.4441
▁Construction	-10.4443
▁mark	-10.4445
▁females	-10.445
▁1933	-10.445
▁Television	-10.4452
▁participate	-10.4454
▁romantic	-10.4457
▁Similar	-10.446
▁touchdown	-10.4462
▁stream	-10.4482
▁Nelson	-10.4486
▁honour	-10.4494
▁bands	-10.4497
▁circle	-10.4505
▁lake	-10.4506
▁lands	-10.4507
▁pack	-10.4509
▁min	-10.4513
ung	-10.4523
▁weapon	-10.4525
ren	-10.4528
▁classified	-10.453
▁recovered	-10.4535
▁collapse	-10.4536
▁survive	-10.4536
▁Sweden	-10.454
▁expos	-10.4545
▁Fair	-10.455
▁Eric	-10.4554
▁1935	-10.4555
AAF	-10.4561
▁eleven	-10.4563
▁Patrick	-10.4565
▁stretch	-10.4568
▁Winter	-10.4571
▁intensifi	-10.4575
ai	-10.4576
ure	-10.4579
▁ranking	-10.4586
▁Tower	-10.4591
▁Toronto	-10.4593
▁Anna	-10.4607
▁Santa	-10.4619
tor	-10.462
shire	-10.4623
▁patient	-10.4624
▁r	-10.4625
▁1951	-10.4626
▁Welsh	-10.4628
▁1949	-10.4629
mp	-10.4634
▁Finn	-10.4636
ud	-10.4637
▁outbreak	-10.4649
▁Bi	-10.4653
▁sand	-10.4659
▁protagonist	-10.4662
▁sun	-10.4662
▁Tu	-10.4665
▁animation	-10.4666
▁Jane	-10.4675
back	-10.4677
what	-10.4679
▁Ba	-10.468
▁Lind	-10.4682
▁memory	-10.4685
▁inner	-10.4688
▁routes	-10.4692
▁reality	-10.4696
▁load	-10.4703
▁die	-10.4703
▁charges	-10.4713
▁Jordan	-10.4715
▁schedule	-10.4717
▁sale	-10.4718
▁obtain	-10.4718
▁Bre	-10.472
▁Bas	-10.4722
▁59	-10.4723
▁strip	-10.4735
▁adaptation	-10.4739
▁basketball	-10.474
▁Netherlands	-10.4741
▁poll	-10.4743
▁Jo	-10.4746
▁communities	-10.4755
▁fictional	-10.4758
▁Ford	-10.4759
▁shop	-10.4769
▁du	-10.4771
▁colour	-10.4787
▁controversial	-10.4791
▁Sch	-10.4794
▁Nations	-10.48
▁classical	-10.4805
▁Col	-10.4806
▁finishing	-10.4807
▁bass	-10.4808
oc	-10.4809
▁differences	-10.4813
▁Bad	-10.4813
▁seed	-10.4815
ick	-10.4817
▁Hospital	-10.4819
▁monument	-10.4824
▁anniversary	-10.483
ber	-10.4833
formula	-10.484
U	-10.4843
▁Again	-10.4845
▁plane	-10.4846
▁methods	-10.4851
▁Jews	-10.4857
▁doubt	-10.4863
▁architecture	-10.4863
▁soil	-10.4866
ions	-10.487
▁Jan	-10.4873
▁passenger	-10.488
▁delay	-10.4881
▁teaching	-10.4882
▁express	-10.4883
▁1900	-10.4884
▁Croatian	-10.4886
>	-10.4888
▁penalty	-10.489
▁step	-10.4894
▁Russell	-10.4895
▁Centre	-10.4895
▁absence	-10.4907
▁consistent	-10.491
▁Wright	-10.491
▁batting	-10.4914
▁Here	-10.4918
temporary	-10.4918
▁missions	-10.4921
W	-10.4922
▁fighter	-10.4926
▁cancer	-10.4927
▁apart	-10.4929
▁Sports	-10.493
▁giant	-10.493
▁throne	-10.4933
▁comparison	-10.4942
▁cloth	-10.4943
fa	-10.4953
▁hot	-10.4958
▁compete	-10.496
▁documentary	-10.4962
▁tries	-10.497
▁involvement	-10.4971
▁99	-10.4977
▁eliminat	-10.4982
▁worst	-10.4986
▁Thompson	-10.4986
▁bound	-10.4988
▁63	-10.4995
▁grounds	-10.4997
▁criticis	-10.5004
rew	-10.5008
▁Class	-10.5011
▁Lu	-10.5012
▁UN	-10.5013
▁delayed	-10.502
▁Cooper	-10.5022
per	-10.5031
▁AD	-10.5033
▁160	-10.5033
▁Ron	-10.5034
▁discovery	-10.5036
▁Puerto	-10.504
bi	-10.5044
▁monitor	-10.5046
▁athlete	-10.5052
▁chain	-10.5055
▁Knight	-10.5058
▁intense	-10.5058
▁exhibit	-10.5061
▁Ham	-10.5067
▁Maria	-10.5067
▁Carter	-10.5068
▁weekend	-10.5068
▁NFL	-10.507
▁Federal	-10.5073
▁govern	-10.5079
▁sharp	-10.5083
▁dissipat	-10.5085
ata	-10.5089
▁super	-10.5091
▁Last	-10.5092
▁requirement	-10.5098
▁bright	-10.5098
▁medieval	-10.5103
▁presidential	-10.5105
▁Inter	-10.5106
▁Islam	-10.5106
▁residence	-10.5108
▁genetic	-10.5109
▁Commander	-10.5115
▁library	-10.5115
▁Kelly	-10.5123
▁colonial	-10.5125
▁Late	-10.5126
ap	-10.5128
▁Arm	-10.5131
▁vision	-10.5135
▁Hart	-10.5137
▁chamber	-10.5145
▁96	-10.5146
▁Alex	-10.5149
▁politician	-10.5154
▁retirement	-10.5155
7	-10.5158
▁Modern	-10.516
▁DE	-10.516
▁Constitution	-10.5161
▁ninth	-10.5166
▁77	-10.5167
▁resources	-10.5168
▁Along	-10.517
▁snow	-10.5174
▁Wal	-10.5177
▁spin	-10.5184
▁challeng	-10.5186
▁musicians	-10.5186
▁Network	-10.5197
▁gift	-10.5202
▁siege	-10.5206
▁restrict	-10.5208
▁pure	-10.5217
▁Va	-10.5217
▁orbit	-10.523
shore	-10.5233
▁Gu	-10.5235
▁revenue	-10.5245
▁arrangement	-10.5246
▁1913	-10.5246
▁k	-10.5247
▁Police	-10.5249
▁ratings	-10.5249
▁fitted	-10.5258
▁Now	-10.5258
▁Batman	-10.5259
▁else	-10.5261
▁weigh	-10.5268
ini	-10.5272
▁Parker	-10.5281
pi	-10.5285
ö	-10.5288
▁gate	-10.529
▁Berlin	-10.5294
lan	-10.5299
▁Down	-10.5304
▁prove	-10.5306
mann	-10.5309
▁dating	-10.531
borne	-10.5313
▁negotiation	-10.5317
▁1926	-10.5323
▁Palace	-10.5337
▁Murray	-10.5338
▁visible	-10.5344
▁convecti	-10.5345
▁facility	-10.5346
▁1927	-10.5348
▁Cap	-10.535
▁Library	-10.5355
▁colony	-10.5358
▁DNA	-10.5359
í	-10.5363
▁ways	-10.5364
▁mix	-10.5367
▁legislation	-10.5371
▁shots	-10.5374
▁1921	-10.5375
ho	-10.5379
▁Cal	-10.5384
▁94	-10.5386
▁1934	-10.539
▁mental	-10.5392
▁stable	-10.5392
ez	-10.5395
▁Education	-10.5396
▁modified	-10.5396
▁78	-10.5399
▁remove	-10.5403
▁shark	-10.5409
▁Ball	-10.5414
ington	-10.5414
▁crosse	-10.5415
▁code	-10.542
▁format	-10.5421
▁dialogue	-10.5423
▁Houston	-10.5423
▁knock	-10.5428
▁stands	-10.5429
▁deliver	-10.5431
body	-10.5433
▁engagement	-10.5441
▁techniques	-10.5443
▁68	-10.5443
▁Silver	-10.5445
▁gone	-10.5445
▁Asian	-10.5445
tenance	-10.5446
neath	-10.545
con	-10.5451
▁Corporation	-10.5451
▁successor	-10.5456
light	-10.5458
▁sponsor	-10.546
▁Track	-10.5477
▁grand	-10.5479
▁monarch	-10.5479
▁classe	-10.5482
▁1912	-10.5484
tra	-10.5484
▁card	-10.5486
▁Warner	-10.5492
eg	-10.5492
▁tone	-10.5502
ari	-10.5508
▁gay	-10.551
▁frame	-10.551
▁designation	-10.5511
▁74	-10.5512
▁anyone	-10.5515
▁Swedish	-10.5517
▁sudden	-10.5517
▁Samuel	-10.552
▁Commonwealth	-10.5523
ica	-10.5527
▁hear	-10.5529
▁chairman	-10.5529
án	-10.553
▁Ha	-10.553
▁girls	-10.553
▁folk	-10.5533
▁divisions	-10.5533
▁Mad	-10.5534
▁materials	-10.5537
▁huge	-10.5539
▁characteristics	-10.554
▁populations	-10.5546
▁suffering	-10.555
ō	-10.5556
▁eggs	-10.5556
▁environmental	-10.556
▁colleague	-10.5561
▁Angel	-10.5563
▁struggl	-10.5564
▁mere	-10.5568
▁railroad	-10.5573
▁1932	-10.5574
▁belong	-10.5577
▁lies	-10.5579
▁phone	-10.5587
▁universe	-10.5592
▁Medal	-10.561
▁sector	-10.5615
▁Gaga	-10.5616
▁Pope	-10.5621
▁votes	-10.5623
▁nickname	-10.5624
▁87	-10.5628
▁preced	-10.563
▁Anthon	-10.563
ther	-10.5634
▁require	-10.5636
▁intersect	-10.5643
▁safe	-10.5644
▁Mel	-10.5646
▁developer	-10.5652
▁exception	-10.5654
▁check	-10.5655
▁understand	-10.5657
▁Holy	-10.5659
▁graphics	-10.5659
▁implement	-10.566
▁historic	-10.5663
▁Guy	-10.5666
ston	-10.5672
▁closer	-10.5674
▁difference	-10.5676
▁Heart	-10.5678
▁67	-10.5682
▁Jason	-10.5682
▁separat	-10.5683
▁chapter	-10.5685
▁beautiful	-10.5687
▁streets	-10.5687
▁earth	-10.5688
▁adults	-10.5691
▁NBC	-10.5692
▁architect	-10.5693
▁USA	-10.5698
▁movements	-10.5699
▁manage	-10.5701
▁sleep	-10.5711
▁Bra	-10.5711
▁influential	-10.5712
▁bus	-10.5717
▁graduat	-10.5725
tro	-10.5726
▁emperor	-10.5729
▁Israel	-10.5729
▁82	-10.5731
▁Croatia	-10.5732
▁professor	-10.5734
▁Whit	-10.5737
▁poet	-10.574
▁Democrat	-10.5741
▁costume	-10.5744
▁Gilbert	-10.5751
▁Detroit	-10.5754
▁occupation	-10.5754
▁Writing	-10.5761
▁touch	-10.5767
▁wrong	-10.577
▁Mars	-10.5772
off	-10.5772
▁Frederick	-10.578
iv	-10.5781
▁bow	-10.5782
▁transform	-10.5783
▁qualify	-10.5783
▁RAF	-10.5787
▁1929	-10.5788
▁sounds	-10.5788
▁device	-10.5794
▁witness	-10.58
▁electronic	-10.5806
▁squad	-10.581
▁secondar	-10.5814
▁childhood	-10.5819
▁1911	-10.582
▁moves	-10.5825
▁Ann	-10.5825
▁Camp	-10.5827
ood	-10.5829
▁guilt	-10.5832
▁Ro	-10.5843
▁Clinton	-10.5845
ita	-10.5846
▁isolat	-10.5852
▁Journal	-10.5853
▁Princess	-10.5859
▁Vice	-10.5865
▁trust	-10.5867
▁interaction	-10.587
▁Egyptian	-10.5873
▁concentration	-10.5877
▁Spears	-10.5878
▁ethnic	-10.5883
▁900	-10.5886
▁Lane	-10.5887
▁1931	-10.5889
▁Phil	-10.5892
▁happ	-10.5892
▁1922	-10.5894
▁balance	-10.5896
▁meets	-10.5899
▁gap	-10.5906
▁executed	-10.5906
▁coat	-10.591
▁firing	-10.5913
▁Jesus	-10.5916
▁Nielsen	-10.5916
▁wooden	-10.5921
▁Evans	-10.5921
▁involve	-10.5923
▁Melbourne	-10.5926
▁Race	-10.5926
car	-10.5927
▁chair	-10.593
▁diameter	-10.5932
▁tension	-10.5933
▁Stewart	-10.5936
▁Building	-10.5938
ip	-10.5945
▁69	-10.5963
▁Pat	-10.5968
▁tribute	-10.5971
▁Tri	-10.5972
▁hearing	-10.5972
▁Xbox	-10.5978
▁Ch	-10.5983
▁hunting	-10.5986
▁provision	-10.5987
he	-10.5991
▁uniform	-10.5992
▁preserv	-10.5994
▁recover	-10.6
▁measures	-10.6001
▁facing	-10.6004
▁Anglo	-10.6005
▁180	-10.6006
▁Category	-10.6008
▁Lennon	-10.6008
▁talent	-10.6019
▁afternoon	-10.6021
▁audio	-10.6036
▁belief	-10.6036
▁Ar	-10.6037
▁Human	-10.604
gate	-10.6048
▁instruments	-10.6049
ara	-10.6049
▁radar	-10.605
▁victims	-10.6051
▁footage	-10.6053
tz	-10.6058
▁73	-10.6061
▁Khan	-10.6063
▁trained	-10.6067
▁carbon	-10.6067
istic	-10.6068
▁resigned	-10.6069
▁flew	-10.6077
▁lawyer	-10.6081
▁experiment	-10.6083
▁88	-10.6083
her	-10.6083
ola	-10.6087
cha	-10.6089
▁fields	-10.609
▁Colorado	-10.609
▁preferred	-10.6092
▁vessel	-10.6094
▁Dave	-10.6096
▁encourag	-10.6096
▁shore	-10.6098
X	-10.61
▁neck	-10.6104
▁ideal	-10.6104
▁deposit	-10.6105
▁collaboration	-10.6106
▁91	-10.6112
▁notabl	-10.6112
▁remix	-10.6118
ade	-10.6118
▁circuit	-10.612
▁extent	-10.612
▁Foundation	-10.6121
ura	-10.6128
▁curve	-10.6134
▁Cat	-10.6136
▁violent	-10.6137
▁Brazil	-10.6138
▁junior	-10.614
▁Guard	-10.6141
▁resolution	-10.6143
▁79	-10.6146
▁Sarah	-10.6148
sk	-10.6149
▁Ash	-10.6152
▁Baltimore	-10.6153
▁tie	-10.6159
▁Greece	-10.616
▁Austria	-10.6161
▁Area	-10.6163
▁skills	-10.6165
▁98	-10.6167
▁holds	-10.6169
▁accompany	-10.617
ps	-10.6178
▁ruin	-10.618
▁confront	-10.6181
▁thereafter	-10.619
je	-10.6194
▁militia	-10.6197
▁copy	-10.62
▁poetry	-10.6202
▁71	-10.6202
▁sons	-10.6206
▁owners	-10.6208
▁window	-10.6209
▁Sand	-10.6213
▁desert	-10.6216
▁fee	-10.6218
▁upgrad	-10.622
▁suspend	-10.622
▁charter	-10.6225
▁edit	-10.6237
▁Guardian	-10.6239
▁Mario	-10.6243
▁Nazi	-10.6243
▁Pass	-10.6243
▁disaster	-10.6244
▁enlist	-10.6247
▁Dance	-10.6251
▁Story	-10.6264
▁beach	-10.6268
▁interpret	-10.6273
▁Garden	-10.6276
▁Somerset	-10.6278
▁shear	-10.6279
▁technique	-10.628
▁Iowa	-10.6282
▁teeth	-10.6282
▁Fall	-10.6284
▁vice	-10.6286
work	-10.6289
▁Rob	-10.6293
▁watching	-10.6294
▁Marshall	-10.6297
▁clean	-10.63
▁offering	-10.6301
▁Austrian	-10.6304
▁shock	-10.6309
▁authors	-10.631
▁ocean	-10.6316
▁standards	-10.6319
▁factors	-10.6319
▁hull	-10.6322
▁promise	-10.6323
▁joke	-10.6323
▁continuous	-10.6324
▁taught	-10.6327
▁craft	-10.6329
▁140	-10.6329
▁publisher	-10.6331
▁easy	-10.6332
▁verse	-10.6333
▁drums	-10.6341
residential	-10.6341
▁margin	-10.6346
▁opponents	-10.6357
▁81	-10.6358
▁Qu	-10.6359
▁Harris	-10.6359
▁Wrestling	-10.6373
▁1928	-10.6374
van	-10.6375
▁Wind	-10.6381
▁erect	-10.6381
ff	-10.6389
▁alliance	-10.639
ric	-10.6392
▁Sal	-10.6398
▁fil	-10.6399
▁journal	-10.6402
▁identify	-10.6403
▁ballad	-10.6404
▁stem	-10.6409
pp	-10.6412
▁creative	-10.6413
▁creature	-10.6415
▁legs	-10.6419
▁sentence	-10.642
▁recognis	-10.6424
sky	-10.6427
▁Miami	-10.6427
▁sit	-10.6428
▁soft	-10.6428
▁Albums	-10.6435
▁Soon	-10.6437
▁sure	-10.6443
▁1925	-10.6443
▁Canal	-10.6445
▁alignment	-10.6448
▁representative	-10.645
▁trace	-10.6454
ette	-10.6457
▁column	-10.6458
▁junction	-10.6458
ated	-10.6461
▁Confederate	-10.6468
▁wedding	-10.647
▁dangerous	-10.6473
▁pit	-10.6473
▁Every	-10.6474
▁Senator	-10.6474
▁Hindu	-10.6476
▁teammate	-10.6477
▁Mill	-10.6478
▁Pi	-10.648
▁northward	-10.6481
▁Kim	-10.6482
▁celebrat	-10.6485
qui	-10.6491
gency	-10.6495
▁Peninsula	-10.6496
▁loop	-10.6503
▁simultaneous	-10.6506
▁1890	-10.6508
▁Seattle	-10.6513
▁permission	-10.6514
▁platin	-10.6518
▁interpretation	-10.6519
▁medium	-10.6521
▁choose	-10.6523
▁See	-10.6526
▁Wing	-10.6533
▁satellite	-10.6534
▁1924	-10.6535
▁learning	-10.6539
▁pain	-10.654
▁Ministr	-10.6541
▁elections	-10.6544
▁withdrew	-10.6545
▁crisis	-10.6548
▁th	-10.6553
▁tourist	-10.6554
▁Val	-10.6556
▁Pan	-10.6565
▁conservative	-10.6565
▁Open	-10.6566
shi	-10.6569
▁salt	-10.6576
▁whereas	-10.6577
▁boiler	-10.6581
▁PA	-10.6581
▁twin	-10.6584
▁shelter	-10.6586
▁prime	-10.6589
▁pace	-10.659
▁veteran	-10.6597
▁Giants	-10.66
▁apartment	-10.6608
▁Treaty	-10.6609
▁advice	-10.6618
▁thirteen	-10.6625
ile	-10.6625
dale	-10.663
NA	-10.6632
▁Trek	-10.6638
▁Ian	-10.6638
▁wrestl	-10.6641
▁spott	-10.6646
▁testing	-10.665
▁cruisers	-10.6652
▁Jon	-10.6653
▁mainstream	-10.6655
▁policies	-10.6657
▁Alabama	-10.666
▁Caribbean	-10.6663
▁bypass	-10.6663
▁Sp	-10.667
gar	-10.667
▁Wolf	-10.6671
▁engineering	-10.6674
▁difficulties	-10.6678
▁submitt	-10.6684
og	-10.6686
▁diet	-10.6686
▁personality	-10.6692
▁rarely	-10.6692
▁demonstrat	-10.6693
▁pounds	-10.6701
▁Charlie	-10.6702
our	-10.6707
▁nest	-10.6719
▁illegal	-10.672
▁predator	-10.6721
▁Lawrence	-10.6723
▁toll	-10.6733
▁drawing	-10.6736
▁Front	-10.6737
ani	-10.6737
▁specimens	-10.6738
▁clubs	-10.674
▁Cor	-10.6742
▁1923	-10.6749
gu	-10.6752
▁elder	-10.6754
low	-10.6756
▁appointment	-10.6756
▁needs	-10.6758
▁84	-10.6761
▁suicide	-10.6762
ec	-10.677
▁Minnesota	-10.6773
▁scholars	-10.6773
▁achievement	-10.6778
▁Hero	-10.6778
ada	-10.6778
ku	-10.6781
▁Raw	-10.6782
▁interests	-10.6785
released	-10.6788
▁Fly	-10.6791
tropical	-10.6792
▁93	-10.6793
▁pursu	-10.6794
▁forcing	-10.6795
▁Hay	-10.6797
▁approval	-10.6797
▁Crown	-10.6799
▁justice	-10.6799
▁wound	-10.68
▁del	-10.6802
▁attitude	-10.6803
▁Real	-10.6809
▁smooth	-10.6812
▁vertical	-10.6812
▁emphasis	-10.6812
▁compilation	-10.6813
▁dis	-10.6817
▁debt	-10.6817
▁faith	-10.6818
▁loan	-10.682
▁hockey	-10.6822
▁Key	-10.683
▁97	-10.6832
▁partie	-10.6836
▁minimum	-10.6844
▁perspective	-10.6844
▁spiritual	-10.6851
▁Run	-10.6851
▁Ti	-10.6858
▁Township	-10.6863
▁Indians	-10.6864
▁neighborhood	-10.6865
▁86	-10.6867
▁tenth	-10.6869
▁Grammy	-10.6872
▁Dead	-10.6873
▁evolution	-10.6878
▁Hungary	-10.688
▁housing	-10.688
▁false	-10.6883
▁Matthew	-10.6884
▁comments	-10.6886
▁dream	-10.6888
▁shoulder	-10.689
▁appropriate	-10.689
▁Apple	-10.6892
▁Hotel	-10.6895
▁Ga	-10.6896
fish	-10.6897
▁Country	-10.6906
▁churches	-10.6906
▁canal	-10.6906
ular	-10.6909
▁alternate	-10.6914
ik	-10.6915
▁adjacent	-10.6918
▁Adventure	-10.6919
▁resum	-10.6924
▁dynasty	-10.6925
▁agents	-10.6929
▁Health	-10.6941
▁Ki	-10.6943
▁Return	-10.6948
▁Belgium	-10.6952
▁finance	-10.6953
8	-10.6953
ix	-10.6955
▁landscape	-10.6959
▁Much	-10.696
▁Ju	-10.696
▁triple	-10.6962
▁Flight	-10.6962
▁teacher	-10.6963
▁funeral	-10.6963
▁hat	-10.6964
▁Christopher	-10.6965
▁Gen	-10.6972
▁palace	-10.6973
▁Diego	-10.6974
▁partnership	-10.6974
▁existed	-10.6975
▁motor	-10.6978
▁graduate	-10.6979
▁prepare	-10.6983
▁Staff	-10.6986
▁fin	-10.6987
▁descend	-10.6991
mb	-10.6995
▁blow	-10.7001
▁Par	-10.7002
▁der	-10.7007
▁Pa	-10.7007
▁Guide	-10.7008
▁changing	-10.701
▁complain	-10.7013
▁abandon	-10.7014
▁instrumental	-10.7015
▁Native	-10.7015
▁USD	-10.7019
▁Walker	-10.702
ep	-10.702
▁Legac	-10.7023
▁Interstate	-10.7028
▁grown	-10.7035
▁trouble	-10.7035
▁Children	-10.7039
▁finale	-10.7048
▁attendance	-10.7054
▁definition	-10.7057
▁Let	-10.7061
▁map	-10.7061
▁option	-10.7063
▁importan	-10.7065
▁destroyers	-10.7067
▁windows	-10.7075
▁1905	-10.7076
▁PC	-10.7079
▁evil	-10.7079
tion	-10.7084
▁1908	-10.7084
▁friendly	-10.7085
▁stress	-10.7086
▁Benjamin	-10.7086
▁wings	-10.7091
▁parent	-10.7091
▁elevation	-10.7092
▁disappear	-10.7093
▁89	-10.7093
▁victories	-10.7098
▁Seven	-10.7099
▁bombers	-10.71
▁argument	-10.71
▁bishop	-10.7101
▁Blood	-10.7101
▁Saxon	-10.7103
▁jump	-10.7104
▁percentage	-10.7108
▁races	-10.7112
▁lieutenant	-10.7112
▁1909	-10.7116
▁influences	-10.7117
▁originat	-10.712
▁Cold	-10.7126
▁elsewhere	-10.7127
▁Hockey	-10.713
▁priest	-10.7137
ward	-10.7143
▁Halo	-10.7144
▁Roosevelt	-10.7145
▁opponent	-10.7147
▁statue	-10.7147
power	-10.7147
▁pursue	-10.7148
going	-10.715
▁pitched	-10.7152
▁favorabl	-10.7154
▁operational	-10.7157
▁USS	-10.7157
▁fighters	-10.7162
▁entertainment	-10.7164
▁Edge	-10.7166
▁stick	-10.7172
▁evolv	-10.7173
ative	-10.7174
▁aggressive	-10.7175
pped	-10.7182
▁Alfred	-10.7186
▁Chronicle	-10.7187
▁beam	-10.7188
itt	-10.7191
ü	-10.7195
▁handed	-10.7196
ball	-10.7197
▁scholar	-10.72
▁languages	-10.7202
▁92	-10.7205
war	-10.7206
▁Fred	-10.7211
▁Manhattan	-10.7215
▁span	-10.7216
▁absorb	-10.7223
▁Franklin	-10.7224
sburg	-10.7227
▁danger	-10.7229
▁pool	-10.7229
▁marry	-10.7235
▁starts	-10.7239
▁construct	-10.7241
▁Born	-10.7242
ala	-10.7256
▁reli	-10.726
▁concrete	-10.7267
▁audition	-10.7272
▁signing	-10.7283
▁con	-10.7285
▁organizations	-10.7291
if	-10.7298
▁Ya	-10.7298
▁1907	-10.7299
▁Margaret	-10.7308
▁Digital	-10.7308
▁charit	-10.7315
▁advisor	-10.7316
▁regain	-10.732
▁westward	-10.7322
idden	-10.7328
▁profit	-10.7329
▁thin	-10.733
▁Kansas	-10.7342
▁indicat	-10.7344
▁Dar	-10.7352
▁abilities	-10.7353
▁custom	-10.7354
▁Fu	-10.7357
▁Industry	-10.7357
▁profile	-10.7357
isation	-10.7359
▁Miss	-10.7359
▁accurate	-10.7361
▁courts	-10.7362
▁credits	-10.7369
▁listing	-10.7369
ach	-10.7379
▁Mississippi	-10.738
▁impossible	-10.7387
▁guide	-10.7388
▁notice	-10.7389
▁Portland	-10.7395
▁assembl	-10.7395
▁agricultural	-10.7398
▁Nash	-10.74
▁boys	-10.7401
▁Brand	-10.7404
▁survivors	-10.7406
▁situat	-10.7408
▁understanding	-10.7414
▁telling	-10.7416
▁investment	-10.7419
▁Tar	-10.7428
▁Roy	-10.7428
selling	-10.7429
▁Saturday	-10.7433
▁Independent	-10.7433
▁truth	-10.7444
▁Del	-10.7447
▁orchestra	-10.745
▁Ice	-10.7454
▁armament	-10.7457
▁Hong	-10.7462
▁horror	-10.7463
▁Spring	-10.7465
▁occasion	-10.7469
▁Campbell	-10.7471
▁dense	-10.7472
bar	-10.7482
▁oxygen	-10.7482
▁tests	-10.7485
▁occasions	-10.7485
▁escap	-10.7489
▁1880	-10.7491
▁communist	-10.7491
▁restoration	-10.7493
▁fifteen	-10.7495
▁mine	-10.7499
▁closing	-10.7501
▁seal	-10.7502
▁truck	-10.7512
▁distinctive	-10.7514
▁introduce	-10.7518
▁tornado	-10.752
▁sample	-10.7523
▁bombing	-10.7527
▁explosion	-10.7531
▁guy	-10.7531
▁behalf	-10.7536
▁virtual	-10.7536
▁labor	-10.7538
gan	-10.754
▁Are	-10.7546
▁symptoms	-10.7547
▁rhythm	-10.7548
▁ammunition	-10.7559
▁Rick	-10.7562
▁Hell	-10.7562
▁relationships	-10.7563
▁dancer	-10.7568
▁seats	-10.7572
▁covering	-10.7575
sis	-10.7575
▁Liberal	-10.7575
fi	-10.7576
▁context	-10.7578
ona	-10.7582
▁sank	-10.7582
▁execution	-10.7582
▁acknowledg	-10.7584
▁Sullivan	-10.7587
▁burn	-10.7596
▁lock	-10.76
▁offices	-10.7604
▁angle	-10.7606
▁complet	-10.7607
▁concerts	-10.7615
▁illness	-10.7615
lu	-10.7622
▁panel	-10.7623
▁l	-10.7627
▁sunk	-10.7628
▁Enterprise	-10.7632
▁Warren	-10.7633
▁resemble	-10.7636
▁celebration	-10.7638
▁philosoph	-10.7642
▁assert	-10.7645
▁legend	-10.7648
▁fourteen	-10.7651
▁paintings	-10.7653
▁explore	-10.7658
▁CR	-10.7662
and	-10.7666
▁organis	-10.7666
▁Historic	-10.7668
▁Graham	-10.7671
ju	-10.7675
▁artistic	-10.7677
▁faction	-10.7678
▁exile	-10.7678
▁Small	-10.7679
▁Tennessee	-10.7682
▁skull	-10.7682
▁underground	-10.7685
▁Scout	-10.7685
▁scatter	-10.7686
▁Pe	-10.7688
▁Louisiana	-10.769
▁explain	-10.7692
▁cargo	-10.7693
▁regulation	-10.7704
▁dramatic	-10.7709
ano	-10.7709
▁Villa	-10.771
▁bonus	-10.7711
▁spell	-10.7712
ay	-10.7714
▁arc	-10.773
▁Missouri	-10.7733
ella	-10.7733
▁Lucas	-10.7734
▁Honor	-10.774
▁earthquake	-10.7741
▁realize	-10.7744
▁Kirk	-10.7744
oft	-10.7744
▁sing	-10.7745
▁1906	-10.7745
▁organ	-10.7745
▁bridges	-10.775
▁feed	-10.7752
▁Montreal	-10.776
▁Labour	-10.776
▁360	-10.7764
▁Tamil	-10.7769
▁fift	-10.7772
▁grey	-10.7772
▁fantas	-10.7779
▁1904	-10.778
▁bear	-10.7783
rose	-10.7786
▁communication	-10.7787
▁Depression	-10.7788
▁drum	-10.7797
▁queen	-10.78
▁Call	-10.7801
▁Ban	-10.7806
ble	-10.7808
▁1870	-10.7808
▁Season	-10.7809
▁bat	-10.7809
var	-10.7809
▁mayor	-10.7814
▁loose	-10.782
▁wins	-10.782
▁Ja	-10.7824
▁newspapers	-10.7827
ib	-10.7827
▁Bros	-10.7829
▁temporari	-10.7831
▁purposes	-10.7832
▁plus	-10.7833
▁guitarist	-10.7836
▁Mitchell	-10.7839
▁Ali	-10.7842
▁Persian	-10.7847
ić	-10.7848
yn	-10.7851
▁Harvey	-10.7851
▁wicket	-10.7856
ram	-10.7857
▁nav	-10.7858
▁solution	-10.7864
▁proper	-10.7867
▁Win	-10.7873
▁Championships	-10.7878
▁expensive	-10.7879
▁Week	-10.7884
▁Bus	-10.7885
▁Ridge	-10.7892
▁Bach	-10.7896
▁cult	-10.7897
▁jazz	-10.7898
▁strengthen	-10.7901
▁Fi	-10.7903
ified	-10.7904
▁sees	-10.7904
▁wreck	-10.7906
▁administrative	-10.791
▁Marie	-10.7915
▁artwork	-10.792
▁radical	-10.7922
▁interesting	-10.7924
▁brick	-10.7926
▁08	-10.7928
▁dozen	-10.7931
▁realiz	-10.7932
▁bid	-10.7934
▁permitt	-10.794
▁Philippines	-10.7944
▁drove	-10.7946
▁investigate	-10.7946
▁Report	-10.7953
▁Gun	-10.7955
▁familiar	-10.7955
▁Pen	-10.7958
hill	-10.7963
ize	-10.7966
▁measured	-10.797
▁Critics	-10.797
▁publicly	-10.7972
▁Business	-10.7974
▁Cuba	-10.7976
▁degrees	-10.7978
▁allie	-10.798
▁Near	-10.7981
▁initiat	-10.7983
▁Dun	-10.7986
ag	-10.7988
▁Dragon	-10.7993
▁rebuil	-10.7999
▁meat	-10.8017
▁bronze	-10.8018
ft	-10.8021
▁parish	-10.8022
ex	-10.8026
▁disorder	-10.8026
▁cancelled	-10.8027
▁halt	-10.8027
▁Cook	-10.8029
▁strict	-10.803
▁Wild	-10.8031
▁inhabitant	-10.8031
▁values	-10.8032
▁Take	-10.8033
▁abuse	-10.8034
▁regime	-10.8035
▁coverage	-10.8042
▁alcohol	-10.8043
tu	-10.8045
▁revolt	-10.8059
▁characteriz	-10.806
▁runner	-10.8061
▁clock	-10.8067
▁helping	-10.8068
stream	-10.8075
▁DC	-10.8076
▁enabl	-10.8078
▁Forces	-10.808
▁Plan	-10.8082
▁rising	-10.8086
▁monster	-10.8087
▁racing	-10.8088
▁Box	-10.8095
▁minimal	-10.8097
ena	-10.8102
▁fled	-10.8102
▁defender	-10.8105
▁mechanism	-10.8107
▁render	-10.8113
▁Files	-10.8115
▁behaviour	-10.8115
▁ownership	-10.8116
▁practical	-10.8121
▁associate	-10.8121
▁application	-10.8121
▁Arizona	-10.8127
fer	-10.8128
▁cousin	-10.8132
▁colonie	-10.8132
▁songwriter	-10.8133
▁repairs	-10.8139
▁feelings	-10.814
▁exhibition	-10.8141
▁Tag	-10.8147
▁rebellion	-10.8148
▁organisation	-10.8152
▁Bureau	-10.8153
▁Dylan	-10.8156
▁absolute	-10.816
▁ruling	-10.816
▁pointed	-10.8161
▁09	-10.8169
▁villain	-10.8174
▁Athletic	-10.818
▁Tokyo	-10.818
▁Ph	-10.8192
▁recordings	-10.8196
▁string	-10.8197
▁waves	-10.8197
▁Ta	-10.8199
▁reward	-10.8199
▁Yo	-10.8201
▁god	-10.8201
wall	-10.8202
▁Wars	-10.8205
▁Indies	-10.8205
▁Kar	-10.8206
▁representation	-10.8207
ility	-10.8216
▁Die	-10.822
▁typhoon	-10.8222
▁Base	-10.8223
ama	-10.8227
▁assists	-10.8232
▁Sony	-10.8233
▁conversion	-10.8234
▁Victor	-10.8235
▁willing	-10.8248
▁vari	-10.8251
▁adventure	-10.8251
▁predecessor	-10.8251
▁Ku	-10.8252
▁Sha	-10.8261
▁Nine	-10.8266
▁bell	-10.8269
▁tribes	-10.827
▁flagship	-10.8272
▁Mint	-10.8276
stein	-10.8277
ranging	-10.8279
▁respond	-10.8284
▁surger	-10.8289
▁Karl	-10.8291
▁Oklahoma	-10.8304
▁Murphy	-10.8304
▁prize	-10.8307
▁reinforcement	-10.8309
▁prett	-10.8312
▁remnants	-10.8317
▁83	-10.8322
▁Delaware	-10.8325
▁shall	-10.8328
▁Album	-10.833
▁functions	-10.8331
▁reverse	-10.8334
▁Eve	-10.8336
▁Ram	-10.8341
mm	-10.8341
▁legislature	-10.8341
▁Such	-10.8341
▁chapel	-10.8345
▁thinking	-10.8347
WC	-10.835
▁earning	-10.8351
▁Federation	-10.8354
▁gust	-10.8357
▁flee	-10.836
▁Bel	-10.8363
▁perceiv	-10.8367
▁marine	-10.8367
ivity	-10.8369
▁embark	-10.837
▁kW	-10.8371
aj	-10.8372
▁quiet	-10.8374
min	-10.8375
▁dominant	-10.8377
▁Switzerland	-10.8378
▁sight	-10.8382
▁cancel	-10.8383
▁obvious	-10.8383
▁console	-10.8384
▁Glen	-10.8385
▁basin	-10.8393
▁Prize	-10.8396
era	-10.8399
▁Rico	-10.8404
▁Broadway	-10.8408
▁shield	-10.841
▁excellent	-10.8412
▁musician	-10.8414
ill	-10.8415
▁frigate	-10.8416
▁universal	-10.8416
▁shells	-10.8424
▁Personal	-10.8425
▁manufacture	-10.8428
tes	-10.843
▁Blues	-10.8432
▁spore	-10.8432
▁contributions	-10.8433
▁1901	-10.8434
▁announcement	-10.8438
▁playoffs	-10.844
qu	-10.8445
av	-10.8446
▁VII	-10.8457
▁Juan	-10.8458
▁par	-10.8461
bridge	-10.8464
▁Ward	-10.8467
▁quarterback	-10.8467
▁subspecies	-10.8471
▁fur	-10.8471
▁ABC	-10.8472
▁imp	-10.8473
▁Iraq	-10.8478
▁battles	-10.8479
▁storage	-10.848
▁neutral	-10.849
▁Soul	-10.849
▁institutions	-10.8496
▁Baker	-10.8497
▁bann	-10.8504
▁Hard	-10.8505
ture	-10.8511
▁suggestion	-10.8512
▁concentrat	-10.8513
▁Dam	-10.8514
▁impression	-10.8515
of	-10.8519
▁warship	-10.8521
▁1903	-10.8522
▁urge	-10.8526
▁Baby	-10.8527
▁Shakespeare	-10.8533
▁Leslie	-10.8534
▁1902	-10.8535
▁settler	-10.8538
▁striking	-10.8538
▁Mal	-10.854
▁Grove	-10.8545
▁apply	-10.8547
▁Owen	-10.8547
▁Well	-10.8553
▁legac	-10.8555
▁useful	-10.8557
vin	-10.8558
▁compliment	-10.856
illa	-10.856
▁neighbor	-10.8563
▁riders	-10.8571
▁vast	-10.8572
▁Mer	-10.8574
af	-10.8575
▁Perry	-10.8579
▁theatrical	-10.8581
▁Bull	-10.8587
▁stole	-10.8589
▁marks	-10.859
▁baby	-10.8593
▁yield	-10.8593
▁altitude	-10.8595
▁patterns	-10.8596
▁Nixon	-10.8598
ique	-10.8604
▁Dick	-10.8606
▁plate	-10.8613
▁cable	-10.8616
▁feud	-10.8616
▁Amy	-10.8618
▁arts	-10.862
▁objective	-10.8621
31	-10.8623
▁Atlanta	-10.8623
▁biographer	-10.8627
▁liquid	-10.8627
▁Kurt	-10.8631
▁liberal	-10.8632
▁explains	-10.8632
▁ensu	-10.8633
▁Actor	-10.8642
▁Denmark	-10.8649
▁Jonatha	-10.8649
▁hunt	-10.8649
lock	-10.8651
▁sequences	-10.8652
▁emotion	-10.8655
ement	-10.866
che	-10.8662
hood	-10.8669
▁portrayal	-10.8674
▁Know	-10.8674
▁reconnaissance	-10.8675
▁Baseball	-10.8675
▁Je	-10.8677
▁Rihanna	-10.8679
dding	-10.8685
▁Trust	-10.8685
▁dubb	-10.8688
▁mountains	-10.8689
ane	-10.869
▁circumstances	-10.869
▁ban	-10.8691
▁farmer	-10.8692
▁Friday	-10.8696
▁fixed	-10.8698
tre	-10.8699
▁leak	-10.871
▁Stan	-10.8711
▁rounds	-10.8712
▁EP	-10.8712
▁Hudson	-10.8714
▁Jacob	-10.8715
▁incorporate	-10.8725
▁Johnny	-10.8725
▁Abbey	-10.8727
▁Sar	-10.8734
▁jet	-10.8734
▁ritual	-10.8735
▁displac	-10.8735
▁Rain	-10.8742
▁Shin	-10.8742
▁Mother	-10.8742
▁expect	-10.8745
▁friendship	-10.8746
▁expression	-10.8747
▁Express	-10.8752
▁tissue	-10.8752
▁conventional	-10.8754
▁Mid	-10.8754
▁Gray	-10.8756
▁Campaign	-10.8756
▁holiday	-10.8756
▁customer	-10.8757
du	-10.8761
▁examples	-10.8766
▁se	-10.8767
▁offense	-10.877
▁prepar	-10.8775
▁mature	-10.878
▁Dor	-10.8783
▁investigat	-10.8791
▁Gate	-10.8792
▁05	-10.8795
▁payment	-10.8796
▁rap	-10.8804
▁Sel	-10.8806
▁da	-10.8808
▁Communist	-10.881
▁subjects	-10.8811
▁Arnold	-10.8813
▁refuse	-10.8815
▁net	-10.8819
▁suitabl	-10.882
▁Tan	-10.8821
▁revis	-10.8824
▁alive	-10.8824
▁electron	-10.8827
▁Snow	-10.883
▁cat	-10.8833
▁Railroad	-10.8835
▁delegate	-10.8835
▁Cole	-10.8835
▁Vi	-10.8839
▁proportion	-10.8842
▁represents	-10.8842
▁Shaw	-10.8845
▁Obama	-10.8848
▁Type	-10.8848
▁remarked	-10.8849
nt	-10.8851
▁merg	-10.8853
▁cinema	-10.8856
▁VI	-10.8858
▁ignor	-10.8868
▁Keith	-10.8868
▁Jimmy	-10.887
▁Get	-10.8872
▁advis	-10.8873
ula	-10.8874
▁bases	-10.8875
▁employ	-10.8876
▁Potter	-10.8879
▁Wayne	-10.8881
cu	-10.8881
▁warn	-10.8886
▁105	-10.8887
▁impos	-10.8888
▁Reserve	-10.8892
▁punk	-10.8897
▁flights	-10.8904
▁Rachel	-10.8905
▁exposure	-10.8905
▁readers	-10.8908
▁Natural	-10.8908
▁Internet	-10.8909
▁pioneer	-10.8909
sch	-10.8912
▁soldier	-10.8919
▁hook	-10.892
▁mainland	-10.8928
▁Israeli	-10.8929
▁et	-10.8929
cation	-10.893
▁donat	-10.8932
▁goods	-10.8934
▁tight	-10.8934
▁cutting	-10.8936
▁Pearl	-10.8936
▁Hugh	-10.8945
▁duo	-10.8946
▁external	-10.8949
qualified	-10.8949
▁poems	-10.8951
▁cook	-10.8951
▁Tracy	-10.8954
▁Kenne	-10.8957
▁Penn	-10.8957
▁taste	-10.8958
row	-10.896
uck	-10.8963
▁strain	-10.8964
▁06	-10.8964
▁resist	-10.8971
▁Bal	-10.8972
▁meter	-10.898
▁Eventual	-10.898
▁empire	-10.8984
▁strengthened	-10.8987
▁Birmingham	-10.8989
▁Impact	-10.8989
▁sp	-10.8989
▁mines	-10.899
▁dancing	-10.8993
▁Peace	-10.8993
▁routine	-10.8997
▁Ever	-10.9004
▁commenc	-10.9005
▁Inc	-10.9006
▁Universal	-10.9006
▁Drive	-10.9011
▁Belgian	-10.9011
▁Yu	-10.9011
▁sq	-10.9013
▁mobile	-10.9015
▁nominations	-10.9015
▁demolished	-10.9016
▁Yankees	-10.9019
▁expense	-10.902
▁conversation	-10.902
▁reduction	-10.9021
▁experimental	-10.9022
▁Bur	-10.9023
▁Ear	-10.9023
▁evacuat	-10.9027
▁casting	-10.9027
▁Defence	-10.9029
▁restore	-10.9032
▁compound	-10.9033
▁uncle	-10.9034
▁Leonard	-10.9034
▁constitutional	-10.9035
▁artificial	-10.9042
▁culminat	-10.9042
▁constitution	-10.9045
▁McCartney	-10.9051
▁coup	-10.9055
▁Maya	-10.9061
ken	-10.9063
▁Morrison	-10.9064
▁Phoenix	-10.9064
▁attraction	-10.907
sha	-10.9072
▁plain	-10.908
▁bearing	-10.9086
ó	-10.9086
▁Classic	-10.909
▁Social	-10.9093
▁harm	-10.9095
▁factory	-10.9105
▁cannon	-10.9108
▁Sub	-10.9109
▁manga	-10.911
ator	-10.9113
▁researcher	-10.9114
▁Sin	-10.9114
▁Boat	-10.912
▁crest	-10.9121
▁deliberate	-10.9122
▁Secret	-10.9126
▁renew	-10.9126
▁Bobby	-10.9126
▁Connecticut	-10.9127
▁sitting	-10.9127
▁waste	-10.9127
▁oversea	-10.9129
▁drugs	-10.9129
▁depiction	-10.9132
▁favourite	-10.9134
▁infection	-10.9135
▁Our	-10.9136
▁Madagascar	-10.9136
▁acoustic	-10.914
▁delivery	-10.9141
▁secretary	-10.9144
▁07	-10.9146
zi	-10.9146
▁roots	-10.9149
▁Lost	-10.9149
▁Todd	-10.9155
▁shirt	-10.9169
▁electrical	-10.9169
worth	-10.917
▁knee	-10.9179
ef	-10.9187
▁Lion	-10.9188
▁stores	-10.9191
▁inherit	-10.9194
▁Ontario	-10.9194
▁backing	-10.9195
▁promis	-10.9196
▁Champion	-10.9199
▁cup	-10.9208
ged	-10.921
▁discussion	-10.9211
▁react	-10.9216
▁Bu	-10.922
▁Canterbury	-10.9222
▁aerial	-10.9222
▁withdrawal	-10.9223
▁placing	-10.9231
▁removal	-10.9236
▁Jupiter	-10.9244
▁license	-10.9245
aw	-10.9247
▁Still	-10.9247
▁Community	-10.9249
ology	-10.9249
▁guid	-10.9252
▁magic	-10.9257
▁Fleming	-10.9258
▁strategic	-10.9259
ock	-10.926
▁decorat	-10.926
▁kid	-10.9262
▁imperial	-10.9262
▁Wi	-10.9262
▁diamond	-10.9262
▁underst	-10.9265
▁funn	-10.9266
▁Bernard	-10.9267
▁mechanical	-10.9271
EFA	-10.9275
▁Convention	-10.9276
▁solar	-10.9277
ide	-10.9278
yan	-10.9281
▁sky	-10.9288
▁Napoleon	-10.929
▁articles	-10.9294
▁Foreign	-10.9294
▁prohibit	-10.9296
▁Oak	-10.9296
▁pitcher	-10.9302
▁Ultimate	-10.9304
▁specimen	-10.9308
lon	-10.9316
▁prospect	-10.9322
▁undergo	-10.9328
fallen	-10.9331
▁tube	-10.9339
▁authoriz	-10.9339
▁Mrs	-10.9341
▁revolution	-10.9343
▁Ly	-10.9346
▁compil	-10.9347
▁translat	-10.935
▁Roll	-10.936
▁Windows	-10.9367
▁inhabit	-10.9367
▁Conservative	-10.9368
▁Rights	-10.9372
▁gray	-10.9377
▁grass	-10.9378
▁amateur	-10.9386
▁decay	-10.9386
ries	-10.9389
▁Victorian	-10.9395
▁garner	-10.94
▁aftermath	-10.9401
▁Hi	-10.9401
▁Greg	-10.9401
▁bone	-10.9402
▁trans	-10.9402
▁Fe	-10.9402
▁Ab	-10.9404
▁translation	-10.9405
▁parliament	-10.9408
▁battalions	-10.9409
▁jurisdiction	-10.9409
▁Titan	-10.941
▁covers	-10.9415
eb	-10.9417
▁Vancouver	-10.9418
▁explor	-10.9422
▁fame	-10.9431
▁membership	-10.9432
▁cave	-10.9436
▁publishing	-10.944
▁Unit	-10.9447
ring	-10.9447
▁rivers	-10.9452
player	-10.9453
▁wheel	-10.9456
▁Portugues	-10.946
▁Pu	-10.9472
▁lover	-10.9472
▁Marvel	-10.9473
▁suppress	-10.9479
▁anchor	-10.9482
▁encourage	-10.9486
▁Dog	-10.9486
▁Ber	-10.9488
▁trailer	-10.9488
▁Administration	-10.9488
▁planets	-10.9491
▁TNA	-10.9492
ily	-10.9497
▁Works	-10.9505
▁tenure	-10.951
▁Gary	-10.9514
bert	-10.9516
▁Boe	-10.9517
▁Triple	-10.9521
▁Village	-10.9521
▁racial	-10.9523
▁dam	-10.9527
▁μ	-10.9534
▁listen	-10.9539
▁compounds	-10.954
▁Hardy	-10.9544
▁Alice	-10.9548
▁125	-10.9553
▁petition	-10.9553
▁bombs	-10.9555
▁steps	-10.9555
▁blocks	-10.9557
▁battlecruiser	-10.9558
▁Local	-10.9559
▁Rand	-10.9559
▁exceed	-10.9564
▁Brit	-10.9565
▁Hor	-10.9565
▁pages	-10.9566
▁Trophy	-10.9568
▁bond	-10.957
▁characteristic	-10.957
▁upgrade	-10.9573
▁invad	-10.9576
▁intercept	-10.9577
▁Trail	-10.9578
▁sang	-10.9581
▁examin	-10.9585
▁Fish	-10.9585
▁watershed	-10.9586
▁mill	-10.9588
▁substitute	-10.9589
▁exploit	-10.9589
▁sisters	-10.959
▁Dwight	-10.9591
▁putting	-10.9592
▁1893	-10.9593
▁competitive	-10.9594
▁1860	-10.9597
▁accomplish	-10.9599
18	-10.9606
▁improvements	-10.9607
▁Off	-10.9607
▁mushroom	-10.9615
▁architectural	-10.9615
▁collaps	-10.9616
ora	-10.9623
▁Hampshire	-10.9624
▁wine	-10.963
▁Deep	-10.9631
▁matters	-10.9632
▁qualit	-10.9632
▁intervention	-10.9634
▁relocat	-10.9634
hitting	-10.9636
▁vs	-10.9637
▁1896	-10.9637
▁trigger	-10.9638
ith	-10.9639
▁Oliver	-10.964
▁supplement	-10.9643
▁sum	-10.9644
▁birthday	-10.9646
▁intellectual	-10.9648
▁provincial	-10.9648
▁guarantee	-10.9652
▁fault	-10.9653
▁disturbance	-10.9653
▁density	-10.9655
▁insects	-10.9657
▁Edinburgh	-10.9662
▁hydrogen	-10.9667
▁chas	-10.9669
▁Marge	-10.9671
▁Professor	-10.9671
▁Collins	-10.9674
▁NCAA	-10.9676
▁Alaska	-10.9676
▁dispatch	-10.9681
▁explosive	-10.9681
▁identical	-10.9686
▁educational	-10.9688
tan	-10.9692
▁Armenian	-10.9693
uc	-10.9694
▁Pakistan	-10.9697
▁anticipat	-10.9697
aki	-10.9699
▁shallow	-10.97
▁Mont	-10.9702
▁pleas	-10.9706
▁le	-10.9711
▁feeding	-10.9716
▁banks	-10.9718
led	-10.9719
▁sung	-10.9719
▁Grey	-10.972
▁immun	-10.9724
▁chase	-10.9727
▁creek	-10.9728
▁voyage	-10.9728
▁muscle	-10.9728
▁wire	-10.9729
▁ratio	-10.9729
▁walking	-10.9734
▁examination	-10.9735
▁parody	-10.9743
▁1898	-10.9745
▁heading	-10.9745
▁neighbour	-10.9747
▁duration	-10.9754
▁Lang	-10.976
▁expert	-10.9761
▁terrain	-10.9763
▁Trade	-10.9769
ware	-10.977
▁bay	-10.9772
qua	-10.9773
down	-10.9776
▁Province	-10.9776
▁seized	-10.978
▁automatic	-10.9783
▁condemn	-10.9784
▁ca	-10.9786
▁Stock	-10.9788
▁streak	-10.9791
▁photograph	-10.9793
▁bones	-10.9797
▁medicine	-10.98
▁cartoon	-10.9801
utstanding	-10.9802
tis	-10.9804
▁Champions	-10.9804
▁assembly	-10.9806
▁bare	-10.9807
▁Historical	-10.9808
ida	-10.981
▁elaborate	-10.9811
▁export	-10.9812
▁List	-10.9816
▁Thos	-10.982
▁trough	-10.9821
▁promotional	-10.9822
▁rifle	-10.9824
▁Ralph	-10.9824
▁sav	-10.9826
▁Argentina	-10.9829
▁Virgin	-10.9831
▁exclusive	-10.9834
▁JT	-10.9834
bra	-10.9835
▁Cro	-10.9836
gh	-10.9837
▁trend	-10.9839
rie	-10.9847
enberg	-10.9847
▁Yorkshire	-10.9849
▁Kan	-10.9852
▁x	-10.9853
▁Beck	-10.9858
▁jury	-10.9858
▁mistake	-10.986
▁Wii	-10.986
▁requires	-10.9863
▁advertising	-10.9863
▁accidental	-10.9863
▁Em	-10.9864
▁repeat	-10.9864
▁inde	-10.9864
▁assess	-10.9867
▁Performance	-10.9868
▁ceased	-10.9872
▁flower	-10.9877
▁Lloyd	-10.9877
▁conservation	-10.9878
▁unclear	-10.9879
▁Ve	-10.9882
▁Sen	-10.9882
▁Hal	-10.9883
▁tubes	-10.9884
▁Side	-10.9884
▁magnitude	-10.9887
▁350	-10.9887
▁fortification	-10.9888
▁Craig	-10.9888
▁output	-10.9895
▁sat	-10.9896
ich	-10.9907
▁float	-10.9908
▁software	-10.9908
cal	-10.992
▁wake	-10.9922
▁employment	-10.9923
▁Mur	-10.9923
▁Jerry	-10.9926
▁Overall	-10.9927
▁progressive	-10.9929
▁arrangements	-10.9937
▁Rio	-10.9938
▁swimm	-10.9938
▁recall	-10.9939
▁arch	-10.9939
▁repli	-10.994
▁distant	-10.9941
▁Globe	-10.9941
▁drummer	-10.9941
▁Horn	-10.9943
▁succession	-10.9943
9	-10.9944
▁bi	-10.9946
▁Mission	-10.9949
▁Johnston	-10.995
27	-10.995
▁predominant	-10.9951
▁Turner	-10.9951
▁blind	-10.9955
▁Ste	-10.9956
▁1899	-10.9957
▁explanation	-10.996
▁origins	-10.9961
▁defences	-10.9962
▁contribution	-10.9968
▁commitment	-10.997
▁jobs	-10.9974
▁preserve	-10.9982
▁phrase	-10.9982
▁Subsequent	-10.9984
▁worship	-10.9985
▁Anti	-10.9987
▁Steven	-10.9987
▁approaching	-10.9988
▁Bennett	-10.999
▁biograph	-10.9991
▁mirror	-10.9994
▁Boys	-10.9995
▁commentary	-10.9999
▁proclaim	-10.9999
▁Celtic	-10.9999
burg	-11.0003
▁Sk	-11.0004
▁photo	-11.0004
▁remark	-11.0005
▁mate	-11.0007
▁reluctant	-11.0008
▁drinking	-11.0008
▁imagery	-11.0009
▁Swift	-11.0009
▁hole	-11.0013
▁Finland	-11.0014
▁directors	-11.0018
⁄	-11.0019
ire	-11.0024
▁lawsuit	-11.0024
▁improvement	-11.0025
▁liner	-11.0029
▁vary	-11.0032
▁ruler	-11.0037
▁monaster	-11.0038
ox	-11.0039
▁electricity	-11.0041
tte	-11.0043
▁Brothers	-11.0043
▁Howe	-11.0043
▁structural	-11.0043
▁Ana	-11.0044
▁dynamic	-11.0045
▁hid	-11.0048
▁disband	-11.0048
▁Voice	-11.0054
ón	-11.0056
▁Bird	-11.0061
▁Norfolk	-11.0063
▁destroyer	-11.0065
19	-11.0065
pen	-11.0068
▁sending	-11.007
▁releases	-11.0071
▁Mountains	-11.0074
▁Kate	-11.0075
▁Grace	-11.008
▁burial	-11.0088
▁smoke	-11.0088
▁cabinet	-11.0088
▁Mayor	-11.0089
▁Che	-11.009
▁branches	-11.009
nautical	-11.0091
▁Burton	-11.0092
▁Judge	-11.0093
▁publications	-11.0096
▁Queensland	-11.0099
▁Heritage	-11.0103
▁activist	-11.0111
▁presentation	-11.0113
▁dive	-11.0114
▁failing	-11.0114
▁Helen	-11.0115
▁divorce	-11.0116
▁Hills	-11.0117
▁Jam	-11.0118
▁j	-11.012
▁Euro	-11.0125
▁radiation	-11.0129
▁Hawaii	-11.0135
▁Blu	-11.0137
▁turbine	-11.0137
▁Nicholas	-11.0137
ean	-11.0143
▁pale	-11.0143
▁mask	-11.0143
▁Barry	-11.0147
▁instrument	-11.0152
▁Mason	-11.0153
▁tip	-11.0154
▁Girls	-11.0156
ort	-11.0157
▁Brazilian	-11.016
▁leads	-11.016
▁atomic	-11.0163
▁precipitation	-11.0168
▁Den	-11.0171
kar	-11.0171
▁pump	-11.0172
▁heir	-11.0172
▁demonstrate	-11.0174
▁eagle	-11.0177
▁orient	-11.0184
▁essay	-11.0187
▁1850	-11.0189
▁Vincent	-11.0192
mat	-11.0195
▁Catherine	-11.0197
▁athletic	-11.0197
▁Davies	-11.0199
▁Syria	-11.02
▁gender	-11.0202
▁pursuit	-11.0203
▁Medical	-11.0204
▁Guinea	-11.0204
▁tape	-11.0204
▁grave	-11.0208
▁eastward	-11.021
▁Mil	-11.0212
▁Emmy	-11.0212
MA	-11.0214
▁videos	-11.0218
▁attending	-11.0219
▁exclusively	-11.022
idae	-11.022
▁photographs	-11.0222
▁reinforc	-11.0224
▁Harbor	-11.0226
▁root	-11.0227
OK	-11.0233
▁loved	-11.0236
▁04	-11.0236
▁inscription	-11.0237
idi	-11.0238
ible	-11.0243
▁Dis	-11.0244
▁signature	-11.0248
▁Min	-11.0252
▁Rat	-11.0252
▁eligib	-11.0252
▁web	-11.0255
▁Sega	-11.026
▁Ur	-11.0261
▁accommodate	-11.0262
▁Next	-11.0262
▁para	-11.0274
▁Transportation	-11.0274
ros	-11.0276
▁Rangers	-11.0277
▁rent	-11.0282
▁virus	-11.0283
▁Common	-11.0289
▁contribute	-11.0291
▁Darwin	-11.0298
▁Sweet	-11.0298
▁Ag	-11.0298
▁Hughes	-11.0298
▁hybrid	-11.0303
burn	-11.0304
▁Prix	-11.0304
▁sheet	-11.0306
▁Bat	-11.031
▁beaut	-11.0312
▁Credits	-11.0312
▁serial	-11.0314
▁1897	-11.0315
▁Abu	-11.0315
▁volumes	-11.0316
▁Beginning	-11.0323
▁Yellow	-11.0323
▁champions	-11.0324
▁crystal	-11.0324
rat	-11.0328
▁lyrical	-11.0329
▁Farm	-11.033
▁Oslo	-11.0333
▁Kane	-11.0334
36	-11.0335
oid	-11.0335
▁survival	-11.0336
fo	-11.0341
▁celebrate	-11.0342
▁dogs	-11.0342
▁Magic	-11.0343
▁crews	-11.0344
▁copper	-11.0344
▁frequency	-11.0345
▁Training	-11.0348
▁Harvard	-11.0348
lis	-11.0348
▁Vol	-11.0354
▁discipline	-11.0358
▁Cameron	-11.0358
▁legislative	-11.0364
▁conquer	-11.0369
▁Lin	-11.0369
▁demo	-11.037
▁Mc	-11.037
rum	-11.0371
▁Edwards	-11.0372
▁Hans	-11.0375
▁collective	-11.0378
end	-11.038
say	-11.038
▁valuable	-11.0382
▁anger	-11.0382
▁shut	-11.0383
▁Swiss	-11.0386
▁Salt	-11.0387
▁sixteen	-11.0389
▁sugar	-11.0389
▁respective	-11.0393
▁conceived	-11.0399
▁scar	-11.0399
▁Moscow	-11.0399
▁Micros	-11.0402
▁Cho	-11.0403
▁volunteer	-11.0404
▁moon	-11.0406
▁Officer	-11.0411
▁Susan	-11.0412
dom	-11.0413
▁Indonesia	-11.0417
▁initiative	-11.0417
wick	-11.0419
▁Pittsburgh	-11.042
▁commentator	-11.042
sey	-11.0421
▁ports	-11.0424
uri	-11.0425
▁Gallery	-11.0425
▁Shi	-11.0425
▁Sc	-11.0427
▁representatives	-11.0428
▁airfield	-11.0428
▁chord	-11.043
▁voting	-11.043
▁Eight	-11.0431
▁Rap	-11.0432
▁Child	-11.0434
▁recognize	-11.0438
▁Protestant	-11.0445
bro	-11.0446
ua	-11.0448
▁Antonio	-11.0451
▁Luke	-11.0451
▁summit	-11.0452
ito	-11.0457
▁Female	-11.0461
▁steep	-11.0461
val	-11.0461
▁servant	-11.0472
ftermath	-11.0477
rus	-11.0479
▁dealing	-11.0481
▁Orange	-11.0482
▁Pin	-11.0483
▁spoken	-11.0484
▁Junior	-11.0491
▁confidence	-11.0491
▁Neil	-11.0492
▁Indonesian	-11.0494
▁autumn	-11.0502
▁celebrit	-11.0502
▁Terry	-11.0503
▁lists	-11.0503
anime	-11.0505
▁shaft	-11.0507
▁slaver	-11.0507
96	-11.0509
▁Tree	-11.0513
▁boss	-11.0513
▁laborator	-11.0514
▁sacrifice	-11.0518
▁quit	-11.0519
▁photography	-11.0519
▁recommendation	-11.0528
▁Wallace	-11.0528
▁Ruth	-11.0528
q	-11.0529
▁victim	-11.0531
▁Books	-11.0534
▁fate	-11.0535
▁humor	-11.0536
▁attorney	-11.0543
▁scout	-11.0543
▁urani	-11.0543
▁Upper	-11.0548
▁stuff	-11.0548
▁Section	-11.0548
▁presum	-11.0549
▁Edition	-11.0549
▁Bath	-11.0551
▁mini	-11.0558
▁Mon	-11.056
▁Bryan	-11.056
▁Fo	-11.0563
▁tactics	-11.0566
▁evacuation	-11.0573
▁explicit	-11.0574
tt	-11.0578
▁Formation	-11.0581
▁flowers	-11.0581
▁melody	-11.0584
▁hide	-11.0586
▁institution	-11.0589
▁roadway	-11.059
▁inclusion	-11.059
▁burned	-11.0596
▁None	-11.0596
▁Hope	-11.0605
▁Defense	-11.0605
▁Jefferson	-11.0611
▁Beth	-11.0614
ore	-11.0618
▁patron	-11.062
▁Control	-11.0621
▁jaw	-11.0621
▁careful	-11.0623
har	-11.0623
▁minority	-11.0625
▁Description	-11.0626
▁ma	-11.0627
▁assume	-11.0628
master	-11.0633
▁revolutionar	-11.0634
▁Transport	-11.0635
▁Liz	-11.064
chemistry	-11.0641
▁Studio	-11.0644
osaurus	-11.0645
▁Tang	-11.0647
▁occupy	-11.0652
▁sweet	-11.0653
▁Com	-11.0656
▁170	-11.0657
▁forecast	-11.0657
▁programming	-11.0658
▁steal	-11.0659
▁opt	-11.0662
kh	-11.0664
▁harbour	-11.0668
▁Ol	-11.0672
▁Sheffield	-11.0673
▁fossil	-11.0674
▁demonstration	-11.0676
▁Charts	-11.0677
▁tag	-11.0678
▁Nova	-11.0682
tter	-11.0684
▁fundamental	-11.0689
▁Larry	-11.069
▁tru	-11.0693
▁burning	-11.07
▁Thing	-11.07
▁devices	-11.0704
let	-11.0706
▁Allie	-11.0717
▁1895	-11.0717
▁fold	-11.0717
▁Security	-11.072
iness	-11.0723
▁collaborat	-11.0724
▁users	-11.0725
ä	-11.0728
ogether	-11.0729
▁puzzle	-11.0736
▁volcano	-11.0736
▁package	-11.0738
▁recurr	-11.0745
▁compromise	-11.0747
▁riding	-11.0748
iz	-11.0751
▁Work	-11.0753
▁Cyrus	-11.0753
▁Son	-11.0757
▁Dallas	-11.0757
▁gear	-11.0758
▁Gil	-11.0759
▁mail	-11.076
▁Clay	-11.0763
▁uncertain	-11.0768
▁warfare	-11.0768
▁Zero	-11.0768
▁Herald	-11.0768
uff	-11.0768
▁warrior	-11.0773
▁fortress	-11.0779
az	-11.0781
▁Mor	-11.0783
oo	-11.0785
▁airline	-11.0785
▁fisher	-11.0787
▁admir	-11.0787
▁bombardment	-11.079
▁rivalry	-11.0793
▁convey	-11.0794
▁wage	-11.0794
▁Collection	-11.0795
▁pen	-11.0796
▁Malaysia	-11.0798
▁consult	-11.0799
▁Ros	-11.0799
▁administer	-11.08
▁samples	-11.0802
▁participation	-11.0803
▁Amendment	-11.0805
ves	-11.0806
▁fatal	-11.0808
▁modification	-11.081
▁Austin	-11.0816
▁Hunt	-11.0818
▁fung	-11.0818
▁Room	-11.082
▁inflict	-11.0826
▁Picture	-11.0829
play	-11.0831
▁Kaiser	-11.0832
tle	-11.0835
▁Past	-11.0837
▁scandal	-11.0837
▁girlfriend	-11.0842
▁remote	-11.0842
CE	-11.0844
▁tempo	-11.0848
▁Musical	-11.0848
▁Clarke	-11.0851
▁cruise	-11.0851
▁Parsons	-11.0853
▁FBI	-11.0854
ight	-11.0857
07	-11.0867
▁transportation	-11.0868
▁imprison	-11.0868
▁Gill	-11.0869
▁papers	-11.0871
tur	-11.0874
▁kiss	-11.0877
▁Chelsea	-11.088
▁Fund	-11.0882
▁tale	-11.0882
▁brilliant	-11.0885
▁Woman	-11.0887
▁widow	-11.089
cat	-11.0895
▁Wilhelm	-11.0897
▁Mag	-11.0905
▁salary	-11.0912
▁Danish	-11.0915
▁Tra	-11.0919
▁Mix	-11.0919
▁03	-11.092
▁Armstrong	-11.0923
▁grandfather	-11.0923
ban	-11.0925
▁principle	-11.0929
▁expectation	-11.0931
▁onward	-11.0931
▁educat	-11.0932
▁Metro	-11.0932
▁Vo	-11.0933
▁advocate	-11.0936
dra	-11.0936
Q	-11.0938
mont	-11.0939
fe	-11.0942
▁Quebec	-11.0944
▁Cathedral	-11.0944
▁bull	-11.0949
▁persuad	-11.0949
▁noise	-11.0955
▁significan	-11.0956
▁habit	-11.0958
20	-11.0963
▁dinosaur	-11.0971
▁Cu	-11.0973
▁Fisher	-11.0974
▁flash	-11.0977
▁playoff	-11.0983
▁Apollo	-11.0986
▁Var	-11.0986
▁Cultural	-11.0987
▁diverse	-11.0989
▁Fighter	-11.0991
▁Place	-11.0993
polis	-11.0993
▁Cast	-11.0996
▁Fourth	-11.1002
▁wrestler	-11.1003
▁revival	-11.1003
ode	-11.1006
▁deteriorat	-11.1006
▁vulnerable	-11.1008
▁borrow	-11.1009
▁mytholog	-11.1012
▁Ivan	-11.1012
▁Carr	-11.1013
▁principles	-11.1014
▁dinner	-11.1015
▁sculpture	-11.1015
▁recovery	-11.1016
▁instruct	-11.1016
▁advertisement	-11.102
ose	-11.1022
▁carrie	-11.1023
▁Half	-11.1023
▁Gre	-11.1024
▁Spider	-11.1025
▁orange	-11.1032
▁platforms	-11.1037
▁Serbian	-11.1038
▁Tor	-11.1039
▁Authority	-11.1039
itis	-11.1039
▁o	-11.104
▁Mass	-11.104
▁01	-11.1041
OC	-11.1042
▁calculat	-11.1042
▁Plant	-11.1045
▁vi	-11.1046
▁confirm	-11.1047
Y	-11.1049
▁Male	-11.1051
where	-11.1052
▁Movie	-11.1052
▁Buffalo	-11.1052
▁conquest	-11.1052
Z	-11.1053
▁beating	-11.1057
▁curv	-11.1062
▁mixture	-11.1064
▁Tyler	-11.1064
▁Mega	-11.1067
▁variable	-11.1068
▁Meta	-11.1069
16	-11.107
▁exclud	-11.1071
▁Pictures	-11.1072
ika	-11.1073
▁statistics	-11.1074
▁Orleans	-11.1074
gon	-11.1075
▁Pam	-11.1076
▁trick	-11.1077
▁Stra	-11.1078
lla	-11.108
▁descent	-11.108
▁Agency	-11.1082
ret	-11.1082
▁carv	-11.1083
▁Reform	-11.1091
▁Cricket	-11.1092
▁Got	-11.1095
▁efficient	-11.1096
▁terminal	-11.1097
▁conclude	-11.1098
▁Utah	-11.1102
▁connections	-11.1102
▁rebels	-11.1104
▁Guitar	-11.1104
▁unexpected	-11.1107
▁Bri	-11.1108
▁Ex	-11.1109
▁opin	-11.111
▁beats	-11.1112
▁Stuart	-11.1113
▁Minor	-11.1118
▁outcome	-11.1118
▁error	-11.1119
▁115	-11.1122
▁steer	-11.1124
▁clothes	-11.1124
▁chest	-11.1124
▁requir	-11.1127
▁cathedral	-11.1129
▁tribe	-11.1134
38	-11.1136
ug	-11.1137
▁upset	-11.1141
▁myth	-11.1141
tha	-11.1148
▁Constantine	-11.1148
▁FIFA	-11.1151
▁1861	-11.1153
48	-11.1155
▁Charlotte	-11.1156
▁Baron	-11.1162
▁Regional	-11.1162
▁drift	-11.1165
▁descendant	-11.1169
▁CBS	-11.1169
▁southeaster	-11.1171
▁installation	-11.1173
▁Richmond	-11.1173
▁Stevens	-11.1175
▁HD	-11.1175
▁1889	-11.1176
▁Pine	-11.1176
▁Justin	-11.1176
ky	-11.1178
▁mood	-11.1179
▁Dal	-11.1183
▁Spirit	-11.1184
▁kilometer	-11.1184
▁Years	-11.1189
▁Metropolitan	-11.119
oli	-11.119
▁aft	-11.1192
SA	-11.1197
▁Oh	-11.1198
▁experiments	-11.1201
▁theories	-11.1205
maker	-11.1205
▁Hunter	-11.1206
▁li	-11.121
▁Sri	-11.1215
28	-11.1215
▁Nor	-11.1217
▁Muhammad	-11.1217
▁1894	-11.1219
▁Newton	-11.122
▁pm	-11.1223
▁trapp	-11.1224
▁Bulgarian	-11.1225
▁Stand	-11.1228
▁Ri	-11.1234
▁Want	-11.1235
mus	-11.1235
▁killer	-11.1238
hr	-11.1238
▁screenplay	-11.1246
▁scholarship	-11.1246
▁texts	-11.1248
▁Gi	-11.1249
▁Executive	-11.125
▁Der	-11.1251
▁Scientology	-11.1256
▁illustrat	-11.1257
▁physic	-11.1258
▁dual	-11.1259
▁destination	-11.1263
▁lifetime	-11.1263
▁formula	-11.1267
▁surge	-11.1268
▁Pink	-11.1268
▁elite	-11.1268
▁1891	-11.1269
▁Las	-11.1269
▁resolv	-11.127
▁heritage	-11.1273
▁rug	-11.1273
▁diplomatic	-11.1275
▁Bible	-11.1279
▁enable	-11.1279
HL	-11.128
▁saving	-11.128
▁empty	-11.129
▁competitor	-11.129
▁decisive	-11.1295
▁accord	-11.1299
▁Rhodes	-11.1301
▁Pete	-11.131
▁rejoin	-11.1312
wi	-11.1313
▁Za	-11.1316
▁YouTube	-11.1317
▁Freedom	-11.1318
▁variation	-11.1322
▁processes	-11.1322
▁nice	-11.1322
net	-11.1327
▁magazines	-11.1328
ira	-11.1329
▁widen	-11.1331
world	-11.1346
▁tune	-11.135
▁movies	-11.1352
▁Gay	-11.1352
▁1000	-11.1354
▁agriculture	-11.1357
▁coordinate	-11.1358
▁taxe	-11.1359
▁batt	-11.1361
▁millimeter	-11.1362
▁Spin	-11.1362
▁markets	-11.1363
ria	-11.1364
▁tough	-11.1365
▁sings	-11.1367
▁seventeen	-11.1368
▁confusion	-11.1368
▁pregnan	-11.1371
▁Hand	-11.1372
▁Rod	-11.1375
▁MP	-11.1378
tel	-11.1379
▁biological	-11.1379
▁1892	-11.1381
ological	-11.1382
▁Ring	-11.1382
cast	-11.1384
▁dwarf	-11.1385
▁telephone	-11.1385
▁disrupt	-11.1385
▁devoted	-11.1386
▁golden	-11.1386
▁Code	-11.1387
▁Cardiff	-11.139
long	-11.1392
▁sword	-11.1393
nna	-11.1395
▁Typhoon	-11.1396
▁evident	-11.1396
▁Register	-11.1396
▁barrier	-11.1396
oll	-11.1397
▁grain	-11.1399
▁Symphony	-11.1402
igan	-11.1406
▁talks	-11.1406
▁Zone	-11.1406
ob	-11.1409
39	-11.141
▁scenario	-11.1413
▁Come	-11.1413
▁measurement	-11.1415
▁lit	-11.1415
▁Wells	-11.1416
▁Pr	-11.1418
▁Burns	-11.1419
▁bulk	-11.1423
▁disabl	-11.1426
▁skill	-11.1429
▁bowler	-11.1429
▁Conservation	-11.143
▁ramp	-11.1431
▁proof	-11.1433
▁Kyle	-11.1436
▁Grade	-11.1437
▁Electric	-11.1442
▁precise	-11.1447
▁lie	-11.1451
▁reliev	-11.1452
15	-11.1453
▁extinct	-11.1455
▁Nature	-11.1459
▁lion	-11.146
▁pin	-11.1464
▁timber	-11.1464
▁Danny	-11.1465
▁asset	-11.1468
▁nose	-11.1478
matic	-11.148
▁Orchestra	-11.1481
▁infrastructure	-11.1482
▁communications	-11.1483
▁dimension	-11.1483
▁applications	-11.1485
▁Cavalry	-11.1486
▁Until	-11.1486
▁Services	-11.1487
▁noble	-11.1488
▁tooth	-11.149
▁mock	-11.1491
▁Sox	-11.1491
▁1800	-11.1493
▁pink	-11.1494
▁followers	-11.1495
▁highways	-11.1499
▁Ground	-11.1503
▁micro	-11.1503
▁rotation	-11.1506
▁pound	-11.1508
bus	-11.1508
▁rebuild	-11.1508
▁refugee	-11.1517
▁Isle	-11.1518
▁possess	-11.1519
▁prince	-11.1519
▁poison	-11.1531
▁Actress	-11.1533
▁Oscar	-11.1538
▁Say	-11.154
▁manuscript	-11.1541
▁observer	-11.1544
▁Sho	-11.1545
▁Leo	-11.1546
▁sailing	-11.155
▁Record	-11.1552
₹	-11.1555
▁arena	-11.1556
▁Watch	-11.1558
▁Jerusalem	-11.1561
▁Marc	-11.1563
art	-11.1567
▁literal	-11.1568
▁ordinar	-11.1568
▁02	-11.1572
▁resort	-11.1572
▁Airlines	-11.1572
▁peninsula	-11.1578
▁Shiva	-11.158
▁impressive	-11.158
bin	-11.1581
▁Start	-11.1586
ila	-11.1587
▁Brooks	-11.1588
rmies	-11.1589
▁retail	-11.1589
▁Rub	-11.1589
▁gang	-11.1591
▁Bor	-11.1593
fire	-11.1593
▁commenting	-11.1594
▁Montgomery	-11.1595
▁Wisconsin	-11.1595
▁Father	-11.1596
dium	-11.1598
▁census	-11.1601
▁tonne	-11.1601
▁bats	-11.1605
▁Sonic	-11.1609
▁afford	-11.1612
▁absent	-11.1612
▁cash	-11.1616
▁disappoint	-11.1622
▁240	-11.1622
▁crack	-11.1624
▁tr	-11.1626
▁CE	-11.1627
lam	-11.1634
▁pupil	-11.1637
▁Barnes	-11.1641
▁manufacturer	-11.1642
▁Pierre	-11.1643
▁clan	-11.1647
wich	-11.1649
▁inning	-11.1649
▁realistic	-11.165
▁Donald	-11.1657
▁fortune	-11.1659
▁portrait	-11.1659
▁lesson	-11.1662
▁Bow	-11.1667
▁Walt	-11.1671
naming	-11.1671
▁overlook	-11.1676
▁Independence	-11.1676
▁alert	-11.1677
▁Chapel	-11.1685
▁Br	-11.1686
▁nucle	-11.1689
▁prototype	-11.1689
▁Falls	-11.1691
▁spark	-11.1691
▁autobiograph	-11.1693
▁mineral	-11.1694
▁parliamentar	-11.1695
▁Sh	-11.1695
▁Turkey	-11.1696
▁tea	-11.1697
▁Attorney	-11.1699
▁blast	-11.1699
▁ear	-11.1701
▁1888	-11.1702
▁str	-11.1704
▁Scots	-11.1706
▁cr	-11.1707
▁exhaust	-11.1708
▁MacArthur	-11.1711
tal	-11.1711
▁Then	-11.1712
▁Sherman	-11.1713
▁Century	-11.1717
▁spawn	-11.1717
ids	-11.1717
▁hostile	-11.1718
▁traditions	-11.1721
▁drain	-11.1722
▁Hol	-11.1722
▁pictures	-11.1723
▁Baltic	-11.1723
▁speculation	-11.1725
▁tomb	-11.1727
▁censor	-11.1727
▁Evil	-11.1732
▁Panzer	-11.1734
▁ski	-11.1737
ating	-11.1737
▁hang	-11.1741
▁oversee	-11.1741
▁remov	-11.1744
▁Cemetery	-11.1746
▁reforms	-11.1746
rac	-11.1747
▁metric	-11.1748
▁1885	-11.1749
▁Branch	-11.1749
▁equally	-11.175
▁relation	-11.1751
▁Saturn	-11.1752
▁Draft	-11.1757
▁epic	-11.1763
▁Sean	-11.1763
▁captur	-11.1763
▁strand	-11.1764
▁Ter	-11.1765
▁dependent	-11.1765
▁proceeding	-11.1768
▁Czech	-11.1769
▁vital	-11.1769
▁amendment	-11.177
08	-11.1771
35	-11.1775
▁Resident	-11.1775
ert	-11.1777
▁wet	-11.1779
wan	-11.1784
▁infant	-11.1791
etic	-11.1794
ducted	-11.1801
▁rescu	-11.1803
▁Carol	-11.1803
▁swing	-11.1804
▁dying	-11.1812
rin	-11.1813
▁explaining	-11.1813
▁airing	-11.1819
▁closure	-11.1822
▁rumor	-11.1822
▁galax	-11.1822
▁twist	-11.1828
▁hurt	-11.1828
▁daughters	-11.1828
oon	-11.183
▁comprise	-11.1835
zer	-11.1837
▁laps	-11.1841
▁comment	-11.1848
▁concurrent	-11.1852
mbar	-11.1852
▁drink	-11.1853
▁Reagan	-11.1857
▁Beat	-11.1859
▁104	-11.1859
▁Rear	-11.186
dar	-11.1861
▁Joan	-11.1862
▁Management	-11.1869
▁Tribune	-11.1869
▁Article	-11.1869
▁romance	-11.1871
▁circular	-11.1875
▁Thames	-11.1875
▁scrap	-11.1879
▁Romney	-11.1881
▁persons	-11.1883
▁Glee	-11.1884
▁Nanc	-11.1884
▁venture	-11.1885
▁separation	-11.1886
▁el	-11.1886
▁Rogers	-11.1886
▁suspension	-11.1887
▁Athens	-11.1893
▁Barbara	-11.1894
▁111	-11.1899
▁Organization	-11.1899
▁distinction	-11.1902
▁intent	-11.1902
▁rider	-11.1902
▁disagree	-11.1903
▁1865	-11.1907
▁bitter	-11.1908
ris	-11.1908
▁Program	-11.1914
lf	-11.1915
▁columns	-11.192
▁doctrine	-11.1922
▁109	-11.1924
▁generate	-11.1925
▁Set	-11.1928
▁bomber	-11.1932
wept	-11.1936
▁Ci	-11.1936
89	-11.1937
▁invest	-11.1939
▁homosexual	-11.1946
▁manufacturing	-11.1946
▁NATO	-11.1952
▁Comedy	-11.1954
▁Op	-11.1955
nor	-11.1956
▁Legend	-11.1957
▁abroad	-11.1958
▁handling	-11.1958
▁blend	-11.196
rk	-11.196
▁Miles	-11.1963
▁enhanc	-11.1965
▁myster	-11.1968
▁Bon	-11.197
▁pav	-11.197
▁velocity	-11.1974
▁enroll	-11.1975
▁harsh	-11.1976
▁continent	-11.1981
▁Sur	-11.1982
▁volcanic	-11.1982
▁shortage	-11.1982
▁segments	-11.1984
▁viewer	-11.1985
▁Action	-11.1991
▁Ven	-11.2002
▁universities	-11.2004
▁Bang	-11.2005
▁stroke	-11.2006
▁Cyclone	-11.2006
▁sin	-11.2007
▁Kill	-11.2011
▁sinking	-11.2015
air	-11.2016
▁Rosa	-11.2018
▁Robin	-11.2023
▁unveil	-11.2024
▁interrupt	-11.2024
▁Chan	-11.2025
▁egg	-11.2026
ré	-11.203
ives	-11.2034
▁dust	-11.2035
▁client	-11.2036
▁Walk	-11.204
▁Portugal	-11.2042
85	-11.2047
▁bears	-11.2048
▁cattle	-11.2048
▁physician	-11.205
▁cards	-11.2052
▁belonging	-11.2053
yne	-11.2056
▁usage	-11.2058
▁Auto	-11.206
▁Count	-11.2063
▁Rad	-11.2068
▁Ernest	-11.2069
▁Sol	-11.2071
▁Newcastle	-11.2072
owing	-11.2078
pl	-11.2079
▁Burn	-11.208
▁kings	-11.2087
▁marking	-11.2089
29	-11.2089
▁Constantinople	-11.209
▁corps	-11.209
ā	-11.2096
▁approache	-11.21
▁participants	-11.2102
ei	-11.2107
▁Shadow	-11.2108
▁licens	-11.2109
tar	-11.2113
ew	-11.2115
▁assessment	-11.2116
▁ch	-11.2116
▁Representatives	-11.2116
▁Drake	-11.2122
▁Had	-11.2125
▁Personnel	-11.2132
▁Heavyweight	-11.2132
critic	-11.2134
▁loyal	-11.2137
▁lo	-11.2138
▁José	-11.2139
▁Char	-11.2144
cus	-11.2145
68	-11.2147
▁strange	-11.2148
▁commanders	-11.2149
▁studying	-11.2149
▁450	-11.2149
▁companion	-11.2149
▁pole	-11.215
▁organisms	-11.215
▁massacre	-11.2151
▁Continental	-11.2152
▁Joint	-11.2154
▁trait	-11.2155
iff	-11.2156
▁enzyme	-11.2157
▁advocat	-11.2157
▁sentenc	-11.2161
zo	-11.2167
gle	-11.2167
▁demographic	-11.2169
und	-11.2171
▁Sport	-11.2172
▁cheap	-11.2175
rich	-11.2177
▁Shah	-11.2179
▁boyfriend	-11.2181
▁millimetre	-11.2181
lor	-11.2181
▁Laboratory	-11.2182
▁Hy	-11.2183
▁1864	-11.2183
▁Ser	-11.2187
▁Cornwall	-11.2187
▁admit	-11.219
▁Liberty	-11.2192
▁Ancient	-11.2193
▁ceiling	-11.2193
▁goddess	-11.2193
▁Future	-11.2194
▁debri	-11.2197
▁lighter	-11.22
▁settle	-11.2201
▁101	-11.2202
▁Tournament	-11.2205
▁choir	-11.2206
▁gods	-11.2206
▁operates	-11.2207
▁batteries	-11.221
elle	-11.2211
▁Rama	-11.2211
▁reactions	-11.2211
▁volunteers	-11.2212
▁Des	-11.2213
adi	-11.2214
hall	-11.2217
▁ambassador	-11.2218
▁Standard	-11.2218
▁visits	-11.2219
▁Marshal	-11.222
▁genuine	-11.2221
▁blam	-11.2225
▁inquir	-11.2232
▁quot	-11.2236
ath	-11.2239
▁persist	-11.224
▁Affairs	-11.2244
▁Ellis	-11.2244
▁squadrons	-11.2249
▁Cena	-11.2251
▁extract	-11.2253
ain	-11.2254
▁corporate	-11.2255
▁Nam	-11.2255
▁ballot	-11.2257
▁Leon	-11.2261
▁cameo	-11.2261
▁Sue	-11.2263
▁reache	-11.2264
▁remake	-11.2267
▁transmission	-11.2267
▁navigation	-11.2267
ux	-11.2268
▁options	-11.2269
Tune	-11.227
▁Link	-11.2277
▁occurr	-11.2278
▁indigenous	-11.2281
therapy	-11.2282
44	-11.2284
▁cyclones	-11.2284
▁Leicester	-11.2285
▁Strait	-11.2286
▁logo	-11.2288
▁easier	-11.2289
▁Alberta	-11.2289
cho	-11.229
▁blues	-11.2292
▁definite	-11.2293
▁random	-11.2299
▁measur	-11.2304
▁Gal	-11.2306
21	-11.2309
▁deputy	-11.231
▁consumption	-11.231
▁Tre	-11.231
ii	-11.2313
▁Isaac	-11.2315
▁Normand	-11.2315
▁Career	-11.2316
▁dies	-11.2319
▁Nar	-11.2323
▁Meyer	-11.2324
▁Boulevard	-11.2328
▁helicopter	-11.2333
▁Commissioner	-11.2333
▁Malcolm	-11.2335
▁resignation	-11.2336
▁integrat	-11.234
▁campaigns	-11.2343
▁scrapp	-11.2343
▁fulfill	-11.2345
▁fat	-11.2346
▁Capital	-11.2347
▁transit	-11.2352
▁Energy	-11.2353
▁metre	-11.2354
fall	-11.2355
▁ties	-11.2358
▁Chamberlain	-11.2359
▁Dublin	-11.236
▁Pedro	-11.236
▁referee	-11.2364
▁Lower	-11.2368
▁excess	-11.2371
▁vocalist	-11.2371
▁flesh	-11.2372
▁allocat	-11.2375
▁challenges	-11.2377
▁dreadnought	-11.2378
▁shadow	-11.2378
▁punishment	-11.2385
pur	-11.2395
▁parks	-11.2395
▁Thor	-11.2396
▁Archbishop	-11.2397
▁relat	-11.2398
▁Meteorologica	-11.2401
▁restrictions	-11.2407
▁Friends	-11.2407
▁Yugoslavia	-11.2408
▁statements	-11.241
▁ERA	-11.2411
▁wash	-11.2412
▁accessibl	-11.2415
▁Opera	-11.2418
▁hills	-11.2419
lot	-11.2421
▁1862	-11.2424
▁Roberts	-11.2425
▁polar	-11.2427
▁benefits	-11.2427
▁Electronic	-11.2428
▁Hawk	-11.2434
▁collision	-11.244
▁Julian	-11.2441
▁breast	-11.2441
▁Monte	-11.2443
▁DJ	-11.2446
▁Yard	-11.2455
uma	-11.2458
▁Hearts	-11.2458
▁angr	-11.2458
une	-11.2459
▁nephew	-11.2459
▁corresponding	-11.2459
▁judges	-11.246
▁territorial	-11.2462
▁Ge	-11.2462
▁Wonder	-11.2462
▁Angelo	-11.2465
▁attribute	-11.2467
▁Romanian	-11.2468
▁doors	-11.2472
ase	-11.2475
gy	-11.2478
ori	-11.2478
bel	-11.248
▁Eddie	-11.2485
▁Machine	-11.2485
▁Bradley	-11.2488
▁municipal	-11.249
▁industrie	-11.2491
▁shipment	-11.2493
▁organic	-11.2494
▁speculat	-11.2496
▁Guild	-11.2497
ulu	-11.25
▁rapper	-11.2501
▁Dennis	-11.2505
▁beliefs	-11.2506
Hg	-11.2506
▁Origin	-11.2507
▁bore	-11.2508
▁kilogram	-11.251
ison	-11.251
zy	-11.2513
▁Where	-11.2514
awa	-11.2515
▁sack	-11.2521
▁vicinit	-11.2522
sson	-11.2523
▁Number	-11.2524
▁variations	-11.2527
▁corridor	-11.2528
▁Dale	-11.2529
▁Serbia	-11.253
▁mixing	-11.2531
▁particles	-11.2535
aga	-11.2537
▁Sex	-11.2539
▁Rush	-11.254
▁valid	-11.2541
cla	-11.2543
onic	-11.2544
▁Historian	-11.2545
▁Make	-11.2545
▁Political	-11.2547
▁decid	-11.2551
▁Crystal	-11.2554
▁thunderstorm	-11.2554
▁observe	-11.2554
▁infect	-11.2555
▁Fur	-11.2556
▁pounder	-11.2558
▁Dakota	-11.256
▁Fer	-11.256
▁Morning	-11.256
▁stall	-11.2567
▁Petr	-11.2568
▁loud	-11.2568
▁averag	-11.2572
▁Youth	-11.2574
ato	-11.2575
ray	-11.2575
▁inaugura	-11.2578
ologist	-11.2578
▁Jake	-11.258
▁burst	-11.2581
▁Reich	-11.2581
▁circulat	-11.2585
▁specializ	-11.2586
▁complicated	-11.2588
▁consumer	-11.2591
ien	-11.2591
▁roster	-11.2598
▁Tommy	-11.2598
▁Springfield	-11.2599
▁stern	-11.2604
▁Mat	-11.2605
DOT	-11.2605
▁Angle	-11.2607
▁prayer	-11.261
▁screening	-11.261
▁humanity	-11.2613
▁barrel	-11.2614
25	-11.2618
▁Alliance	-11.2621
45	-11.2621
▁hail	-11.2624
▁Serb	-11.2628
▁fluid	-11.2631
▁rely	-11.2632
pop	-11.2635
▁Michel	-11.2637
▁Range	-11.2638
▁Sy	-11.2638
▁Shu	-11.264
▁Gibraltar	-11.2643
▁honest	-11.2643
▁mysterious	-11.2643
▁troop	-11.2645
▁reconstruction	-11.2645
ification	-11.2647
▁Low	-11.2649
▁Burke	-11.2649
▁Wagner	-11.2649
▁breach	-11.2649
▁ferry	-11.265
cia	-11.2652
49	-11.2652
▁Bears	-11.2654
▁domain	-11.2655
▁mansion	-11.2657
▁Ages	-11.2657
osa	-11.266
▁Studies	-11.2663
▁Scar	-11.2667
▁convicted	-11.2668
▁Cincinnati	-11.2668
▁Stein	-11.2671
▁sharks	-11.2672
▁Kal	-11.2673
▁combine	-11.2673
▁Montana	-11.2675
▁silent	-11.2681
▁1840	-11.2683
▁Blake	-11.2683
▁maps	-11.2683
▁steadi	-11.2684
▁colours	-11.2688
▁Schuma	-11.2688
▁AA	-11.2688
▁labour	-11.2689
▁Yan	-11.2689
▁Malta	-11.2689
▁sheep	-11.269
▁Maine	-11.269
▁Kin	-11.2691
▁Kh	-11.2692
▁sentiment	-11.2694
▁exterior	-11.2694
▁publish	-11.2696
▁Hit	-11.2699
brook	-11.2708
▁wonder	-11.2711
ali	-11.2714
▁Bear	-11.2722
och	-11.2724
▁user	-11.2725
▁stain	-11.2726
▁Bud	-11.2727
eau	-11.2731
▁Taiwan	-11.2733
▁medals	-11.2736
▁sick	-11.2737
▁sad	-11.2739
▁Inside	-11.274
▁Eli	-11.2742
▁Friedrich	-11.2745
▁knight	-11.2746
oma	-11.2746
▁Nation	-11.2747
24	-11.2747
▁Fear	-11.2748
▁mammals	-11.2751
eng	-11.2751
▁gunner	-11.2752
▁prestig	-11.2752
▁permit	-11.2756
▁voters	-11.2758
▁abolish	-11.2758
▁Hull	-11.2759
▁congregation	-11.2763
▁220	-11.2766
▁gathering	-11.2767
▁Hop	-11.277
▁mutual	-11.2771
▁spider	-11.2771
▁dock	-11.2779
▁compar	-11.2783
lie	-11.2784
▁Olivia	-11.2784
uch	-11.2784
▁invent	-11.2787
▁reporter	-11.2789
▁outdoor	-11.2791
▁stunt	-11.2791
mouth	-11.2799
▁elevat	-11.2803
▁stepp	-11.2804
▁ensur	-11.2806
PA	-11.2808
▁Break	-11.281
97	-11.2812
▁sphere	-11.2813
▁threatening	-11.2814
▁gam	-11.2815
▁feathers	-11.2815
▁Ak	-11.2816
▁Yugoslav	-11.2818
▁1887	-11.2819
▁varie	-11.2822
▁Mann	-11.2822
▁Shield	-11.2823
▁Antarctic	-11.2823
▁Devil	-11.2825
▁quarters	-11.2827
ope	-11.2828
▁installment	-11.2833
▁camps	-11.2834
▁patent	-11.2836
▁Curtis	-11.2837
▁log	-11.284
▁remarkabl	-11.2841
▁prosper	-11.2843
▁Arena	-11.2844
hl	-11.2848
set	-11.2848
▁Afghanistan	-11.2849
▁Steam	-11.2851
▁Was	-11.2861
▁Tin	-11.2862
▁filmmaker	-11.2862
▁Madison	-11.2862
▁VIII	-11.2863
▁1863	-11.2864
▁outstanding	-11.2866
▁Twitter	-11.2869
▁Circle	-11.2869
lia	-11.2871
11	-11.2877
▁Ty	-11.288
▁Edmund	-11.2882
▁1886	-11.2885
▁Technology	-11.2888
41	-11.2895
▁Orton	-11.2896
▁Vegas	-11.2901
▁propagand	-11.2901
▁readi	-11.2903
hold	-11.2906
▁enact	-11.2907
▁skeleton	-11.2908
▁courses	-11.2909
reby	-11.291
▁Mir	-11.2911
▁migration	-11.2912
▁Former	-11.2914
gel	-11.2916
▁trio	-11.2916
▁Gregory	-11.2921
▁cuts	-11.2923
▁gauge	-11.2928
pper	-11.2934
▁mild	-11.2935
26	-11.2937
▁Poké	-11.2941
▁dropping	-11.2941
▁Buck	-11.2942
▁electro	-11.2942
▁tools	-11.2944
▁plates	-11.2945
▁Millenni	-11.2948
ole	-11.296
à	-11.296
▁teenager	-11.2961
rated	-11.2967
▁Brooklyn	-11.2967
▁judicial	-11.2968
▁fl	-11.2968
▁Mind	-11.297
▁exploration	-11.297
▁varying	-11.2973
▁Mercury	-11.2974
▁conspiracy	-11.2974
▁102	-11.2974
▁nurse	-11.2977
▁Cher	-11.2979
▁lasting	-11.2981
▁assassination	-11.2982
lay	-11.2984
▁Comics	-11.2985
worthy	-11.2987
▁Princeton	-11.2991
▁Nu	-11.2992
mic	-11.2992
▁vers	-11.2993
▁McKinley	-11.2993
▁faculty	-11.2994
OS	-11.2999
▁Austro	-11.3
form	-11.3003
978	-11.3005
▁harbor	-11.3007
▁Too	-11.3007
▁Josh	-11.3011
▁Banks	-11.3012
▁emission	-11.3014
▁grid	-11.3017
ister	-11.3017
▁Hubbard	-11.3027
▁submerg	-11.3027
▁complement	-11.3027
▁conced	-11.3027
▁anthem	-11.3027
▁Herbert	-11.3028
▁intermediate	-11.3033
▁Veni	-11.3035
▁Marines	-11.3035
▁witnesses	-11.3038
▁Milan	-11.304
▁voices	-11.3048
▁blockade	-11.305
▁Fat	-11.3054
▁comics	-11.3054
▁pet	-11.3056
▁enormous	-11.306
▁psychological	-11.306
▁routing	-11.306
▁zero	-11.306
▁MLB	-11.306
▁Hood	-11.3061
▁Buddhist	-11.3066
▁milk	-11.3067
▁Urban	-11.3067
night	-11.3067
▁bombard	-11.3067
▁Holland	-11.3068
▁Iran	-11.307
▁Brook	-11.307
▁sketch	-11.3071
▁corporation	-11.3073
▁Eagle	-11.3076
nes	-11.3077
lus	-11.3084
▁Large	-11.3086
▁Pit	-11.3087
▁NASA	-11.3087
▁magnetic	-11.3088
▁mad	-11.3088
▁Solar	-11.3092
▁commend	-11.3093
79	-11.3094
▁gene	-11.3096
▁Rich	-11.3098
▁declaration	-11.3102
▁1884	-11.3103
tus	-11.3103
▁coastline	-11.3107
▁Month	-11.311
▁Ye	-11.3111
▁Glasgow	-11.3113
ero	-11.3113
▁confin	-11.3113
▁Tigers	-11.3114
▁Official	-11.3116
▁Talk	-11.3117
▁acquisition	-11.3127
gue	-11.3127
▁Fa	-11.3127
▁locomotives	-11.3128
▁Pet	-11.313
▁detect	-11.3133
▁Sultan	-11.3139
▁Canucks	-11.314
▁holes	-11.314
▁stability	-11.3145
sbury	-11.3147
▁boost	-11.315
▁harvest	-11.3153
▁excessive	-11.3154
▁consequence	-11.3158
▁Mile	-11.3161
▁insurance	-11.3162
▁decoration	-11.3163
▁Computer	-11.3163
een	-11.3166
▁confused	-11.3166
▁martial	-11.3167
▁allegation	-11.3168
▁Pal	-11.3168
▁Theater	-11.3168
▁murdered	-11.3169
▁rebel	-11.317
▁atop	-11.3172
nell	-11.3173
▁Smack	-11.3174
▁bench	-11.3177
▁Jacque	-11.318
▁Lev	-11.318
▁Lauren	-11.3183
▁flown	-11.319
▁uprising	-11.319
▁violation	-11.3191
▁Phillies	-11.3194
▁ambush	-11.3194
▁Fifth	-11.3194
▁whale	-11.3195
▁tender	-11.3195
▁echo	-11.3199
▁torpedoes	-11.32
kovic	-11.32
▁Ghost	-11.3201
▁spur	-11.3202
▁worse	-11.3205
▁Train	-11.3205
▁rice	-11.3209
88	-11.3211
▁Theodore	-11.3216
▁Raj	-11.3218
▁Lock	-11.3221
▁adjust	-11.3223
▁Cre	-11.3224
▁Ottawa	-11.3228
▁Round	-11.3229
▁resembl	-11.3233
naissance	-11.3234
▁Tell	-11.3235
▁Percy	-11.3236
▁Planet	-11.3237
86	-11.3237
aire	-11.3239
mas	-11.3239
itch	-11.3241
▁diversity	-11.3241
▁remind	-11.3242
98	-11.3247
pan	-11.325
▁Mercede	-11.3251
▁cotton	-11.3255
▁Westminster	-11.3255
▁rains	-11.3262
▁quest	-11.3264
▁calm	-11.3266
▁CO	-11.3269
▁Total	-11.3271
▁1877	-11.3271
▁Kings	-11.3275
▁diminish	-11.3275
▁Tintin	-11.3275
én	-11.3277
▁collector	-11.3278
▁Cool	-11.3278
ensis	-11.3278
▁exceptional	-11.328
saw	-11.3282
▁Alpha	-11.3284
▁CEO	-11.3289
▁Denver	-11.3289
atory	-11.3291
▁engineers	-11.3294
▁jersey	-11.3295
zu	-11.3298
▁touchdowns	-11.3299
▁Trans	-11.3301
▁Revolutionar	-11.3304
▁collections	-11.3307
ami	-11.331
▁myself	-11.331
▁emphasiz	-11.3312
▁Gor	-11.3312
▁outfit	-11.3313
una	-11.3314
▁Basketball	-11.3316
▁1876	-11.3319
▁Name	-11.3321
▁DS	-11.3322
▁Current	-11.3323
▁compris	-11.3324
▁conviction	-11.3325
▁Gang	-11.3325
▁bottle	-11.333
bri	-11.3334
ect	-11.3335
▁dissolv	-11.3336
▁Manuel	-11.3337
▁Nevada	-11.3343
▁finals	-11.3344
▁donation	-11.3344
▁hypothesis	-11.3344
▁Sword	-11.3345
▁battlefield	-11.3345
▁deployment	-11.3346
▁Gothic	-11.335
▁jail	-11.335
▁Bro	-11.3353
▁Chuck	-11.3354
▁rebounds	-11.3355
▁aesthetic	-11.3357
▁aggregate	-11.3357
▁Albany	-11.3363
▁Fan	-11.3366
▁eliminate	-11.3368
nix	-11.3369
▁intelligent	-11.3371
50	-11.3373
▁hint	-11.3378
▁nationalist	-11.3381
▁Otto	-11.3381
▁Gloucester	-11.3384
▁detected	-11.3385
▁Ronald	-11.3385
▁Ship	-11.3385
▁Strong	-11.3385
▁viewing	-11.3385
17	-11.3386
13	-11.3388
fin	-11.3391
▁scores	-11.3395
▁Colin	-11.3397
▁agencies	-11.3398
▁Æthel	-11.34
▁ghost	-11.3405
▁motif	-11.3405
▁consideration	-11.341
zz	-11.341
▁revenge	-11.3412
▁relate	-11.3414
ibility	-11.3414
▁Kid	-11.3415
▁sensitive	-11.3419
▁Str	-11.342
erson	-11.342
Brien	-11.3421
▁radius	-11.3421
uro	-11.3423
▁file	-11.3426
▁assignment	-11.3427
▁Days	-11.3427
▁Emma	-11.3429
▁Ellen	-11.3429
ction	-11.3431
▁beside	-11.3432
▁threats	-11.3433
▁Anton	-11.3435
▁Franco	-11.3437
nan	-11.3444
▁Stage	-11.3447
▁accelerat	-11.3449
▁hatch	-11.3452
▁cemetery	-11.3458
▁Barcelona	-11.346
▁Economic	-11.346
▁Territory	-11.346
▁Composition	-11.346
▁reviv	-11.3462
lar	-11.3463
▁Cox	-11.3465
nic	-11.3467
▁Churchill	-11.3469
▁guests	-11.3471
▁declare	-11.3471
some	-11.3472
▁Chester	-11.3474
▁enthusiastic	-11.3476
▁Belle	-11.3477
▁editions	-11.3479
▁indirect	-11.3483
▁1830	-11.3484
Down	-11.3491
▁Canyon	-11.3495
▁specialist	-11.3496
▁Les	-11.3498
lum	-11.35
▁1875	-11.3504
▁Devon	-11.3504
▁punt	-11.3507
▁width	-11.3509
▁Foster	-11.351
▁odd	-11.3511
▁resolve	-11.3512
▁crush	-11.3512
▁emerge	-11.3529
shaw	-11.3529
▁Turn	-11.353
▁prompting	-11.3532
▁Pra	-11.3536
▁abundant	-11.3537
▁consequent	-11.3537
▁resign	-11.3537
33	-11.3538
chan	-11.3538
oi	-11.3546
▁fossils	-11.3554
▁competitions	-11.3555
▁lava	-11.3556
▁Mari	-11.3558
▁Bosnia	-11.3559
▁strikes	-11.3561
▁Author	-11.3563
iki	-11.3564
▁Parkway	-11.3564
▁Carlos	-11.3567
▁Delta	-11.3567
▁cubic	-11.3567
▁rocks	-11.3572
▁Duncan	-11.3572
▁Marsh	-11.3572
▁Raymond	-11.3572
▁manag	-11.3573
stage	-11.3575
▁functional	-11.3579
▁LP	-11.3579
▁Sim	-11.3581
▁Leigh	-11.3582
▁1883	-11.3588
▁Derby	-11.3588
▁mono	-11.3591
▁linear	-11.3591
hart	-11.3593
▁RBI	-11.3594
▁links	-11.3597
▁weakness	-11.3599
▁Non	-11.3599
▁Weather	-11.36
▁southwestern	-11.36
▁Geoffr	-11.3601
▁Lamb	-11.3601
▁Mak	-11.3611
▁harmon	-11.3613
▁blame	-11.3613
▁successive	-11.362
▁Calgar	-11.3622
▁notion	-11.3623
▁notic	-11.3623
▁1881	-11.3623
▁laugh	-11.3624
bal	-11.3629
▁procedure	-11.3634
▁memoir	-11.3635
▁detach	-11.3635
heim	-11.364
▁Northwest	-11.3642
▁Professional	-11.3642
▁properly	-11.3644
▁tier	-11.3648
▁Blair	-11.3651
▁hence	-11.3654
▁proxim	-11.3656
▁Labor	-11.3657
▁instant	-11.3658
▁aside	-11.3659
▁Starr	-11.366
▁Gra	-11.3663
▁Ru	-11.3663
▁vegetation	-11.3663
▁Reed	-11.3665
▁Jamaica	-11.3665
▁presidenc	-11.3669
▁invitation	-11.3669
▁leaf	-11.367
▁kit	-11.3674
▁update	-11.3674
ink	-11.3674
▁archaeological	-11.3675
oni	-11.3676
lium	-11.3678
▁pan	-11.3679
▁acquire	-11.3681
▁dur	-11.3683
ér	-11.3684
▁orchestral	-11.3684
▁Lancashire	-11.3685
▁smok	-11.3685
▁Richardson	-11.3685
▁Powell	-11.3686
▁prefer	-11.3687
avi	-11.3688
▁crucial	-11.3689
ima	-11.369
▁coaches	-11.369
feld	-11.369
▁Henderson	-11.3692
▁pine	-11.3693
▁consciousness	-11.3693
▁bio	-11.3693
▁continental	-11.3694
▁Gene	-11.3697
mura	-11.3698
▁borough	-11.3698
▁delegation	-11.3699
▁Cardinals	-11.3699
▁encounters	-11.3703
▁mast	-11.3704
▁RNA	-11.3706
▁Desert	-11.3706
gal	-11.3706
▁1869	-11.3709
▁hunter	-11.371
▁dri	-11.3718
▁verses	-11.3722
hen	-11.3723
oh	-11.3729
gé	-11.373
▁tendenc	-11.3731
▁Wa	-11.3733
▁landmark	-11.3736
▁190	-11.3737
▁230	-11.3741
30	-11.3743
del	-11.3746
▁True	-11.3748
▁Chad	-11.375
▁1866	-11.3751
▁northeastern	-11.3753
hor	-11.3753
refore	-11.3755
▁Christin	-11.3755
▁Pitt	-11.3756
▁prevail	-11.3756
▁Store	-11.3761
▁Ferdinand	-11.3763
▁127	-11.3764
▁Cam	-11.3764
▁tow	-11.3769
▁Veronica	-11.377
▁nervous	-11.377
▁Floyd	-11.377
▁detachment	-11.3771
84	-11.3773
▁woodland	-11.3775
▁Hendri	-11.3779
▁Ren	-11.378
69	-11.3782
uit	-11.3792
▁larva	-11.3793
▁updat	-11.3798
▁boom	-11.38
▁horn	-11.3805
▁bag	-11.3805
▁genres	-11.381
▁Wellington	-11.3813
log	-11.3816
▁consensu	-11.382
▁phenomenon	-11.382
par	-11.382
ante	-11.3821
▁corruption	-11.3822
▁forth	-11.3834
▁Crawford	-11.3834
▁authentic	-11.3834
CS	-11.384
▁Malay	-11.3845
▁modest	-11.3847
▁Palestin	-11.3848
▁yd	-11.3855
stra	-11.3858
▁Episode	-11.3863
▁consent	-11.3863
▁Din	-11.3869
▁championships	-11.387
▁golf	-11.3872
▁induc	-11.3873
▁instructions	-11.3877
▁hamlet	-11.3878
▁Aaron	-11.3878
▁Using	-11.3878
▁Culture	-11.3878
▁sortie	-11.3879
iya	-11.3881
▁sailors	-11.3883
▁throat	-11.3885
can	-11.3886
▁populat	-11.3888
▁Market	-11.3891
▁surprising	-11.3892
▁Viet	-11.3894
▁Truman	-11.3895
▁Tucker	-11.3896
far	-11.3896
▁750	-11.3898
▁XI	-11.3898
bank	-11.3901
▁Members	-11.3902
▁eighteen	-11.3905
▁poverty	-11.3907
▁philosopher	-11.3909
▁comfortabl	-11.3909
sley	-11.391
▁possessed	-11.391
▁kitchen	-11.3914
▁arcade	-11.3914
▁lifestyle	-11.3915
▁eruption	-11.3916
12	-11.3916
▁Colt	-11.3917
▁Poe	-11.3919
▁fix	-11.3921
▁Fischer	-11.3921
▁Telegraph	-11.3921
▁flu	-11.3923
▁rehearsal	-11.3924
▁input	-11.3927
▁Headquarters	-11.3928
▁stripp	-11.3932
stock	-11.3932
▁thanks	-11.3933
▁ambition	-11.3936
▁innovation	-11.3936
▁printing	-11.3936
▁Solomon	-11.3936
▁Site	-11.3937
▁Why	-11.3937
▁1873	-11.3938
▁dimensional	-11.3939
▁auto	-11.3939
99	-11.3941
▁frontier	-11.3944
56	-11.3951
▁1882	-11.3951
▁Single	-11.3952
▁variant	-11.3953
▁insert	-11.3954
▁seeming	-11.3957
▁175	-11.396
▁1871	-11.396
▁fatalit	-11.3962
▁Lead	-11.3963
▁ensemble	-11.3965
▁molecular	-11.3966
34	-11.3971
CI	-11.3972
▁Beij	-11.3974
▁Ger	-11.3977
▁silk	-11.3979
▁persuade	-11.398
▁pleasure	-11.398
▁Il	-11.398
▁Punk	-11.3981
▁Monster	-11.3983
sfield	-11.3983
▁filter	-11.3983
▁listening	-11.3985
▁Flanders	-11.3987
▁Heavy	-11.3987
▁Cloud	-11.3988
▁Steel	-11.3989
▁Mall	-11.3989
▁1867	-11.3989
▁worker	-11.3992
▁Food	-11.3993
cc	-11.3997
▁Chile	-11.3998
▁marsh	-11.4
▁rocket	-11.4
elli	-11.4001
▁Adrian	-11.4001
▁overcome	-11.4002
▁bra	-11.4004
▁Mail	-11.4007
▁interact	-11.4007
SU	-11.4009
kan	-11.4011
▁acceptance	-11.4011
▁tactical	-11.4011
▁button	-11.4012
▁realm	-11.4014
▁Mos	-11.4014
▁Kepler	-11.4016
▁reopen	-11.4016
▁Mis	-11.4016
▁Jet	-11.4018
▁Artist	-11.4019
die	-11.402
▁Tir	-11.4021
▁percussion	-11.4024
▁fierce	-11.4024
▁Watson	-11.4024
▁shopp	-11.4025
▁Quest	-11.4026
▁Sid	-11.403
▁Mine	-11.403
pin	-11.4034
▁Metal	-11.4036
▁Bengal	-11.4037
▁peasant	-11.4038
▁und	-11.4038
▁relay	-11.4041
▁135	-11.4041
▁sh	-11.4044
▁Wu	-11.4044
▁clip	-11.4051
▁mechanics	-11.4051
▁arguments	-11.4052
▁1878	-11.4055
▁tributar	-11.406
▁Dudley	-11.406
▁Heaven	-11.406
▁canon	-11.4061
aging	-11.4063
▁erupt	-11.4065
▁cl	-11.4065
▁Gabriel	-11.4068
▁Travel	-11.4069
▁Deputy	-11.4073
▁unanimous	-11.4075
▁memori	-11.4081
▁performers	-11.4081
▁thorough	-11.4082
▁syndrome	-11.4082
▁reminiscen	-11.4085
▁overwhelming	-11.4086
▁Clement	-11.4087
▁clash	-11.4088
▁Chase	-11.4092
▁winners	-11.4095
▁McCarthy	-11.4097
▁165	-11.4098
mond	-11.4101
▁graphic	-11.4102
rom	-11.4105
▁Caesar	-11.4112
▁Trinity	-11.4112
▁realis	-11.4114
▁Damage	-11.4115
▁ease	-11.4115
▁Gibson	-11.4119
▁surpassed	-11.4119
▁Movement	-11.412
▁Norse	-11.4121
▁revealing	-11.4125
▁pocket	-11.4126
▁fitting	-11.4127
▁Lone	-11.4128
oul	-11.413
▁conducting	-11.413
▁Para	-11.4133
▁headline	-11.4133
▁elephant	-11.4134
▁Commercial	-11.4134
▁divine	-11.4135
▁irregular	-11.4136
37	-11.4137
▁Hawaiian	-11.4138
▁Region	-11.4143
ado	-11.4144
AT	-11.4145
▁Bru	-11.4146
▁Luftwaffe	-11.4149
▁privilege	-11.415
▁Mov	-11.4157
▁Gas	-11.4159
▁regiments	-11.416
▁Cry	-11.4162
▁genera	-11.4162
▁dirt	-11.4164
▁Hale	-11.4166
▁Isles	-11.4169
▁pos	-11.4173
▁statute	-11.4178
ress	-11.4184
▁Expedition	-11.4186
▁UB	-11.4187
king	-11.4191
000	-11.4197
▁Burger	-11.4199
▁bacteria	-11.4204
▁reinforce	-11.4205
ites	-11.4205
▁feminist	-11.4208
▁Choice	-11.4208
▁Mobile	-11.4208
ave	-11.421
▁missile	-11.4219
kov	-11.422
▁Bermuda	-11.4223
▁legitimate	-11.4224
▁reader	-11.4224
▁Leader	-11.4227
▁Adult	-11.4231
▁raw	-11.4231
▁Rath	-11.4234
67	-11.4235
▁dome	-11.4237
▁lesbian	-11.4238
moto	-11.4241
▁Notable	-11.4243
▁plantation	-11.4243
▁qualification	-11.4246
▁Th	-11.4248
▁bowled	-11.4253
▁Shelley	-11.4254
47	-11.4255
▁Bla	-11.426
▁Monroe	-11.4261
▁conductor	-11.4261
▁Newman	-11.4268
▁declar	-11.427
▁Kerr	-11.4273
▁immigrants	-11.4275
▁loyalty	-11.4277
aten	-11.4278
▁oak	-11.4284
▁Manager	-11.4284
▁Monument	-11.4291
▁caution	-11.4291
▁Spencer	-11.4292
▁perception	-11.4293
▁Has	-11.4293
▁teach	-11.4303
▁adequate	-11.4306
▁intact	-11.4306
▁Combat	-11.4308
book	-11.4308
▁Logan	-11.4315
▁1872	-11.4316
▁Aguilera	-11.4321
▁Selena	-11.4321
▁elde	-11.4322
▁Wings	-11.4324
▁1868	-11.4324
14	-11.4327
▁Various	-11.4329
▁fragments	-11.433
vert	-11.4331
▁caliber	-11.4336
▁duck	-11.4338
▁sic	-11.4338
▁whales	-11.4342
▁Chandler	-11.4343
▁coalition	-11.4343
▁manual	-11.4344
▁RPG	-11.4347
rick	-11.4347
▁desperate	-11.435
▁locomotive	-11.435
▁telescope	-11.4351
▁mud	-11.4352
▁flame	-11.4357
phy	-11.4359
▁poly	-11.4359
▁Body	-11.436
▁em	-11.4361
▁Leed	-11.4366
▁astronomer	-11.4366
▁Cabinet	-11.4366
▁pinn	-11.4368
▁detective	-11.4369
▁appreciat	-11.437
▁Right	-11.4371
▁comprised	-11.4371
▁batsman	-11.4372
▁trademark	-11.4374
▁twentieth	-11.4375
▁instrumentation	-11.4377
▁propeller	-11.4378
▁greet	-11.4381
▁Marcus	-11.4381
▁horizontal	-11.4382
▁songwriting	-11.4382
▁Price	-11.4384
char	-11.4385
▁complaints	-11.4386
▁synthesis	-11.4389
ava	-11.4391
▁stake	-11.4393
▁peaceful	-11.4399
▁Butler	-11.4401
▁knowing	-11.4407
▁receiver	-11.4411
▁Generation	-11.4412
▁slot	-11.4412
ground	-11.4414
▁objection	-11.4414
▁Engineering	-11.4418
▁Griffin	-11.4419
▁engaging	-11.4419
▁renovation	-11.4423
▁captive	-11.4427
ute	-11.4433
▁preliminar	-11.4435
▁MVP	-11.4435
▁cabin	-11.4436
▁Barrett	-11.4436
▁Springs	-11.4441
▁rally	-11.4441
away	-11.4442
▁insufficient	-11.4442
▁Genesis	-11.4443
▁spectators	-11.4445
▁motivat	-11.4445
▁tram	-11.4445
▁pregnanc	-11.4446
▁confrontation	-11.4447
▁Tam	-11.4452
▁cur	-11.4456
▁ants	-11.4467
▁Money	-11.4468
▁divert	-11.447
▁Arch	-11.4473
▁motorway	-11.4474
▁spare	-11.4475
▁155	-11.4476
fr	-11.4476
▁revision	-11.4477
▁Reading	-11.4477
▁Commons	-11.4479
▁preference	-11.4481
▁utiliz	-11.4481
▁judgment	-11.4481
▁Newport	-11.4483
▁WWF	-11.4489
▁Maxwell	-11.449
RC	-11.4492
▁Flames	-11.4493
▁ash	-11.4494
▁Contemporar	-11.4495
▁internationally	-11.4496
▁Adelaide	-11.4496
▁Tiger	-11.4497
▁etc	-11.4502
core	-11.4504
▁homeless	-11.4504
▁meal	-11.4504
▁Riley	-11.4505
▁subsid	-11.4506
▁maneuver	-11.4507
▁Raven	-11.4508
▁Lou	-11.4513
▁counsel	-11.4517
▁neutron	-11.4519
▁interference	-11.4519
▁stance	-11.452
▁kn	-11.452
▁texture	-11.4522
▁Parachute	-11.4527
▁objectives	-11.4527
▁Chamber	-11.4533
held	-11.4533
▁Surrey	-11.4535
▁Motor	-11.4535
▁attachment	-11.4535
▁lemurs	-11.4537
▁attractive	-11.4539
▁Stars	-11.4542
▁cylinder	-11.4547
▁Flag	-11.455
▁Sciences	-11.455
▁Essex	-11.4551
▁ministers	-11.4553
mu	-11.4553
▁roller	-11.4554
▁Skinner	-11.4558
▁focuse	-11.4558
▁consequences	-11.456
▁Cle	-11.4563
▁Zo	-11.4565
▁mathematics	-11.4565
▁Sara	-11.4569
▁riot	-11.4569
▁alarm	-11.457
▁Abraham	-11.4573
▁Chancellor	-11.4573
▁extraordinar	-11.4573
▁unaware	-11.4573
▁Plymouth	-11.4573
▁Baldwin	-11.4573
▁dislik	-11.4574
▁reactor	-11.4576
▁machines	-11.4576
▁Madrid	-11.4581
WA	-11.4581
▁Banksia	-11.4583
▁layout	-11.4583
▁depot	-11.4584
drawn	-11.4585
ome	-11.4587
▁gallery	-11.4589
▁Regard	-11.4589
▁Legion	-11.4591
71	-11.4594
▁Preston	-11.4598
▁warrant	-11.4598
nam	-11.4603
▁Hancock	-11.4604
▁stor	-11.4605
olo	-11.4608
▁quote	-11.4612
▁Brigadier	-11.4612
nce	-11.4613
▁Zu	-11.4614
▁derive	-11.4615
▁liver	-11.462
▁locate	-11.4621
▁Waters	-11.4622
ene	-11.4623
▁Christians	-11.4623
▁Er	-11.4623
▁laud	-11.4625
▁terror	-11.4626
▁passion	-11.4627
rian	-11.4627
▁Lancaster	-11.4627
▁thickness	-11.4628
▁Edgar	-11.4629
▁Stoke	-11.4632
▁rope	-11.4634
▁endors	-11.4635
eri	-11.4635
▁baron	-11.4635
▁Page	-11.4635
▁Tunnel	-11.4635
▁frog	-11.4636
graph	-11.4639
▁Ark	-11.4643
viation	-11.4647
▁Model	-11.465
▁blade	-11.4651
▁civilization	-11.4653
▁enclos	-11.4659
mor	-11.466
▁pier	-11.4662
▁Principal	-11.4664
▁machinery	-11.4665
▁neglect	-11.4666
▁configuration	-11.4667
▁runway	-11.4667
▁citizen	-11.4667
▁conceal	-11.4674
61	-11.4676
46	-11.4677
cht	-11.4678
▁weld	-11.4678
chen	-11.4682
▁instruction	-11.4687
▁Florence	-11.469
87	-11.4691
▁auction	-11.4691
▁parade	-11.4692
▁rookie	-11.4693
▁flaw	-11.4697
▁Aviation	-11.4698
▁cluster	-11.47
▁Diamond	-11.47
▁depress	-11.47
▁clay	-11.4701
▁merger	-11.4702
▁Cra	-11.4705
▁Tai	-11.4707
▁loaded	-11.4713
▁confident	-11.4713
▁custody	-11.4713
▁Foot	-11.4714
▁revers	-11.4714
ij	-11.4715
▁tap	-11.4716
▁defect	-11.4716
▁wishe	-11.4717
▁Mills	-11.4718
wo	-11.472
▁Senior	-11.4721
▁Jeremy	-11.4729
▁nominee	-11.4729
▁Usher	-11.4729
▁redesign	-11.4731
66	-11.4732
▁Poll	-11.4733
hurst	-11.4734
▁mob	-11.4734
▁Publishing	-11.4736
▁Cuban	-11.4736
▁Glass	-11.474
▁Harper	-11.4742
▁progression	-11.4742
▁Admiralty	-11.4743
▁Heath	-11.4743
▁currency	-11.4744
▁Twenty	-11.4745
▁grandson	-11.4749
▁pronounced	-11.4753
▁Palm	-11.4755
▁spaces	-11.476
▁triumph	-11.476
▁Arkansas	-11.4761
▁Vienna	-11.4761
▁incomplete	-11.4761
▁supervis	-11.4761
▁Jennifer	-11.4761
▁fertil	-11.4762
▁Circuit	-11.4769
▁Andrea	-11.4771
▁Nobel	-11.4772
▁AC	-11.4774
▁Flood	-11.4777
▁Romania	-11.4779
▁fake	-11.4783
▁Mack	-11.4785
▁accommodation	-11.4785
▁divide	-11.4786
▁Ltd	-11.4788
▁McCain	-11.4788
77	-11.4788
▁Hank	-11.4792
▁suburb	-11.4795
▁organize	-11.4795
▁Phillips	-11.4796
▁Stories	-11.4796
band	-11.4797
▁sibling	-11.48
named	-11.4809
ú	-11.4809
▁editorial	-11.481
▁reef	-11.4812
▁McDonald	-11.4816
▁Ac	-11.482
▁cream	-11.4824
▁Coach	-11.4824
▁Gri	-11.4825
▁molecules	-11.4827
whil	-11.4828
è	-11.483
▁fed	-11.4831
▁obstacle	-11.4832
▁centered	-11.4833
▁1879	-11.4835
▁correspond	-11.4839
▁northwestern	-11.484
▁merit	-11.484
▁keen	-11.484
▁Monday	-11.4841
▁Bowie	-11.4843
▁Panama	-11.4843
▁ascend	-11.4846
▁Minogue	-11.4848
▁platoon	-11.4848
▁Caroline	-11.4849
▁devis	-11.4849
▁southward	-11.4853
▁Kat	-11.4856
▁atmospheric	-11.4858
ben	-11.486
▁funk	-11.4864
▁Capitol	-11.4864
tti	-11.4864
▁Lithuanian	-11.4867
stan	-11.4868
ico	-11.4869
▁rings	-11.4872
▁proud	-11.4873
▁Tales	-11.4873
▁Manning	-11.4875
▁clergy	-11.4876
▁Orthodox	-11.488
▁dawn	-11.488
▁Barr	-11.4886
▁pose	-11.4888
▁Newfoundland	-11.4896
▁sediment	-11.4896
▁Sierra	-11.4896
hin	-11.4896
▁array	-11.4896
▁productions	-11.4896
▁Allmusic	-11.4896
▁drill	-11.4897
▁Swan	-11.4897
nant	-11.49
▁batter	-11.4902
▁scorer	-11.4904
▁nineteenth	-11.491
▁Edmonton	-11.4914
▁113	-11.4914
▁deny	-11.4921
▁postpon	-11.4921
▁Palmer	-11.4923
▁photographer	-11.4924
▁Cala	-11.4925
▁solve	-11.4925
▁Beautiful	-11.4928
▁Mirror	-11.4928
▁admission	-11.4928
▁Perth	-11.4928
▁operator	-11.4928
hil	-11.4929
▁Lynch	-11.4929
▁Motion	-11.493
▁soap	-11.4932
▁Industrial	-11.4936
▁thrust	-11.4936
▁Rail	-11.4937
▁Clan	-11.494
▁Drama	-11.4947
hal	-11.495
▁duet	-11.4952
▁gravity	-11.4952
▁northwestward	-11.4953
inus	-11.4955
▁Arabian	-11.4958
▁Kil	-11.4958
▁Mun	-11.4959
▁guards	-11.496
▁Ze	-11.496
▁Task	-11.4961
▁Found	-11.4962
▁theoretical	-11.4968
▁besieg	-11.4968
▁Hammer	-11.497
▁Janet	-11.497
▁prosecution	-11.497
▁Nothing	-11.4971
▁bout	-11.4971
▁discontinued	-11.4971
▁Continu	-11.4976
▁ambitious	-11.4976
▁spann	-11.4979
▁steady	-11.4982
▁accumulat	-11.4982
▁processing	-11.4983
hand	-11.4983
▁recount	-11.4992
▁cooperation	-11.4993
etta	-11.4993
▁corn	-11.4993
▁teachers	-11.4996
▁employer	-11.5005
▁memorabl	-11.5009
▁Operations	-11.5009
▁subtropic	-11.5012
▁punish	-11.5016
▁Bass	-11.5021
▁patch	-11.5023
▁necessari	-11.5024
▁Double	-11.5024
10	-11.5031
▁conjunction	-11.5033
▁Spartan	-11.5033
lli	-11.5033
rop	-11.5034
▁Berkel	-11.5035
▁106	-11.5038
▁pot	-11.5039
▁captivity	-11.5041
▁latitude	-11.5041
▁Nad	-11.5042
▁partners	-11.5045
▁substance	-11.5046
▁commit	-11.5046
š	-11.5048
▁Zoo	-11.5049
57	-11.505
▁Eye	-11.5054
hn	-11.5057
▁Consequent	-11.5057
▁Intelligence	-11.5057
▁strings	-11.5062
▁synth	-11.5065
▁commemorate	-11.5066
izing	-11.5068
how	-11.5068
ichi	-11.507
▁busy	-11.5072
▁ibn	-11.5074
berry	-11.5077
▁clerk	-11.5081
▁muzzle	-11.5081
▁masse	-11.5082
▁JG	-11.5083
▁discharge	-11.5084
▁reconstruct	-11.5087
▁magical	-11.5088
lim	-11.5089
▁Plaza	-11.509
lle	-11.509
▁extinction	-11.5094
cut	-11.5095
▁directing	-11.5095
▁Bern	-11.5095
▁Kra	-11.5095
▁Edwin	-11.5098
ue	-11.5101
▁Armenia	-11.5101
ati	-11.5102
erman	-11.5104
▁Protection	-11.5107
▁slip	-11.5108
▁bath	-11.5109
▁mentions	-11.5114
▁editing	-11.5115
▁testimon	-11.5116
▁Berg	-11.512
ending	-11.512
▁Bun	-11.5121
▁finger	-11.5122
▁Calvin	-11.5123
▁wonderful	-11.5123
nie	-11.5124
▁chess	-11.5124
▁examine	-11.5127
▁antagonist	-11.5127
▁certification	-11.5131
▁honors	-11.5132
tsu	-11.5135
▁gambl	-11.5135
▁Jun	-11.514
▁welcome	-11.5141
hy	-11.5144
▁Thunder	-11.5147
▁Survey	-11.5147
ović	-11.5148
▁terrorist	-11.5155
▁membrane	-11.5155
▁offshor	-11.516
▁Combin	-11.5166
▁mall	-11.5167
▁Chairman	-11.5168
▁Sta	-11.5169
▁sporting	-11.5169
▁AllMusic	-11.5172
▁refit	-11.5173
▁disappointment	-11.5173
▁topic	-11.5174
ER	-11.5176
▁Busch	-11.5178
aba	-11.5179
▁Panther	-11.518
▁trophy	-11.5182
oke	-11.5183
▁270	-11.5184
▁Crew	-11.5184
▁Cong	-11.5186
tail	-11.5188
▁priorit	-11.5188
▁SH	-11.5193
ã	-11.5196
▁copyright	-11.5196
▁honorar	-11.5197
▁Emily	-11.52
▁Form	-11.5205
▁retire	-11.5205
▁Masters	-11.5207
▁anonymous	-11.5208
▁Luis	-11.5208
▁Dai	-11.521
▁108	-11.5214
▁Rhine	-11.5215
▁delet	-11.5217
▁rec	-11.5218
▁enlarg	-11.5221
▁NL	-11.5224
▁subordinate	-11.5225
▁transformation	-11.5226
▁Paramount	-11.5229
▁152	-11.5229
▁icon	-11.5234
▁Online	-11.5236
▁Fen	-11.5236
▁Garfield	-11.5239
▁trap	-11.5242
▁Gro	-11.5242
▁jumping	-11.5245
▁Kon	-11.525
bla	-11.525
65	-11.5251
▁Maurice	-11.5254
▁Hat	-11.5258
▁ironclad	-11.5262
▁rumour	-11.5262
osis	-11.5264
▁tide	-11.5268
▁Fl	-11.527
▁relevan	-11.527
▁112	-11.5272
▁Crane	-11.5279
▁clause	-11.5279
▁thriller	-11.5281
bach	-11.5282
▁backup	-11.5286
▁Junction	-11.5287
▁Arctic	-11.5288
room	-11.5294
▁balls	-11.5294
▁compare	-11.5296
▁Cad	-11.5296
▁Louise	-11.5297
▁Yet	-11.5299
augh	-11.5301
▁rulers	-11.5301
▁chapters	-11.5302
▁Care	-11.5303
▁Laura	-11.5303
FC	-11.5304
▁Peak	-11.5305
▁decree	-11.5305
mark	-11.5311
▁Toy	-11.5311
▁metropolitan	-11.5312
▁Hanna	-11.5313
▁panels	-11.5313
▁Formula	-11.5313
▁Cop	-11.5313
▁shrine	-11.532
▁1874	-11.5323
▁Knights	-11.5324
▁arise	-11.5324
▁distract	-11.5324
▁erosion	-11.5329
▁intensify	-11.5329
▁Alien	-11.5332
▁1848	-11.5333
CN	-11.5334
▁Windsor	-11.5337
▁Kl	-11.5338
ingham	-11.5338
▁bullet	-11.5341
▁drown	-11.5341
wy	-11.5342
▁Mongol	-11.5342
▁align	-11.5345
▁nickel	-11.5345
▁Spy	-11.5349
▁undergraduate	-11.5354
▁speaker	-11.5354
▁Nicola	-11.5356
▁secular	-11.5362
▁colonel	-11.5371
▁tennis	-11.5371
▁rape	-11.5373
▁Corner	-11.5374
▁Sto	-11.5374
ă	-11.5377
▁decommission	-11.5379
▁Bee	-11.5383
▁reserves	-11.5384
▁Look	-11.5386
▁Hopkins	-11.5387
▁discussions	-11.5387
▁tin	-11.539
▁Irving	-11.5391
▁quantit	-11.5392
hem	-11.5395
▁symbolic	-11.5395
▁View	-11.5396
▁Holly	-11.5397
▁Michelle	-11.54
▁tasks	-11.54
▁riff	-11.5402
▁plutoni	-11.5404
▁reservoir	-11.5404
▁lobby	-11.5404
▁plastic	-11.5404
▁Woods	-11.5405
▁Holmes	-11.5408
▁worried	-11.5412
▁unhapp	-11.5413
▁Pierce	-11.5415
▁specifi	-11.5415
▁speeds	-11.5418
▁reserved	-11.5419
▁Partisan	-11.5421
▁silence	-11.5424
▁vein	-11.5426
▁FM	-11.5427
▁concentrate	-11.5427
▁hyper	-11.5428
▁diving	-11.543
▁Hour	-11.5433
▁PS	-11.5433
▁Variet	-11.5434
▁gland	-11.5438
▁Martha	-11.5446
▁Argentine	-11.5447
▁Axi	-11.5448
▁disagreement	-11.5448
▁item	-11.5448
▁Turnpike	-11.5455
▁Global	-11.5455
▁Stalin	-11.5455
▁investor	-11.5457
pol	-11.5459
▁Stop	-11.5464
▁Case	-11.5465
▁contestant	-11.5466
▁vampire	-11.5466
▁Arabic	-11.5467
ame	-11.5468
▁unlock	-11.5469
▁Thi	-11.5471
▁tongue	-11.5472
▁Face	-11.5473
▁Block	-11.5476
▁Tal	-11.5478
▁activat	-11.5479
unt	-11.5479
▁Sm	-11.548
▁Ob	-11.5485
▁Manor	-11.5486
vel	-11.5488
▁groove	-11.5489
horn	-11.5492
▁Rhodesia	-11.5495
▁Blo	-11.5497
▁compact	-11.5497
▁geographical	-11.5497
▁luck	-11.5498
▁Stanford	-11.5499
▁teenage	-11.5499
▁writings	-11.5502
▁identification	-11.5507
▁Spiel	-11.5507
gram	-11.5508
▁Rhode	-11.5511
▁Any	-11.5512
▁oxide	-11.5514
▁Kara	-11.5517
▁lease	-11.5518
▁Ir	-11.5519
▁AL	-11.5519
▁Moor	-11.5521
▁Claire	-11.5522
▁Snake	-11.5523
▁lakes	-11.5524
▁uncover	-11.5525
▁Bah	-11.5527
▁diagnosed	-11.5529
▁210	-11.553
ott	-11.553
▁Gerald	-11.5531
▁Presley	-11.5532
ois	-11.5533
▁fox	-11.5533
ska	-11.5539
▁Iceland	-11.554
▁witch	-11.5542
▁instructor	-11.5543
▁Basin	-11.5543
▁feat	-11.5544
eur	-11.5544
▁fr	-11.5546
▁SpongeBo	-11.5548
▁fusion	-11.5548
▁Willis	-11.5549
▁electoral	-11.5551
▁Stefani	-11.5552
▁counterattack	-11.5557
ternet	-11.5557
▁Paper	-11.5557
▁seize	-11.5561
▁spite	-11.5562
▁Vin	-11.5563
▁Kir	-11.5563
▁hectare	-11.5565
▁pyramid	-11.5565
▁garage	-11.5565
▁naked	-11.5565
▁haul	-11.5568
▁rounded	-11.5569
▁reflection	-11.5574
▁145	-11.5578
▁loading	-11.5578
▁Member	-11.5579
▁funnel	-11.558
▁Bos	-11.5581
▁Observer	-11.5586
▁lineup	-11.5586
▁Bulgaria	-11.5587
▁Jennings	-11.5591
▁pirate	-11.5593
grad	-11.5596
arrow	-11.5596
▁Recreation	-11.56
▁Row	-11.56
▁Soundtrack	-11.5608
▁Patriot	-11.5608
▁woods	-11.5611
RA	-11.5611
▁1851	-11.5611
game	-11.5616
▁comprehensive	-11.5617
▁Chapman	-11.5618
▁Glenn	-11.5619
▁Advance	-11.5621
tting	-11.5622
▁Warwick	-11.5623
▁terribl	-11.5625
▁bedroom	-11.5625
▁hire	-11.5627
č	-11.5629
aku	-11.563
▁Vocal	-11.5634
▁Beside	-11.5634
▁Delhi	-11.5635
▁Que	-11.5639
▁Mk	-11.5639
▁lodge	-11.5643
▁Cur	-11.5645
▁bread	-11.5649
▁waterline	-11.5649
▁Others	-11.5651
23	-11.5654
▁Gone	-11.5655
lash	-11.5656
bul	-11.5658
▁Broadcasting	-11.5663
▁violat	-11.5665
▁accent	-11.5668
▁plead	-11.5669
▁coloured	-11.5669
▁landings	-11.5669
58	-11.5673
▁Booth	-11.5676
▁Living	-11.5676
▁unofficial	-11.5677
▁comparabl	-11.5678
▁131	-11.5679
bol	-11.5682
▁Card	-11.5684
▁Ran	-11.5685
▁mathematical	-11.5686
▁Universe	-11.5686
▁Bueno	-11.5687
▁Castro	-11.5689
▁disk	-11.5691
▁Nichols	-11.5691
▁centimetre	-11.5694
▁Jeffrey	-11.5694
▁Quarter	-11.5695
ways	-11.5696
▁Mas	-11.5698
▁Pol	-11.5701
▁Singer	-11.5703
▁Southampton	-11.5703
▁await	-11.5703
▁Outside	-11.5708
cin	-11.5709
onso	-11.5711
▁compensation	-11.5712
bit	-11.5714
▁Chang	-11.5714
beat	-11.5715
▁genes	-11.5719
▁Alternative	-11.572
▁resume	-11.5721
▁neo	-11.5721
▁Baptist	-11.5721
▁Dominican	-11.5724
▁Hayes	-11.5725
▁turtle	-11.5729
▁sacred	-11.5729
▁Pilot	-11.573
▁Nathan	-11.5731
▁Hipp	-11.5734
enburg	-11.5735
▁Fletcher	-11.5738
▁Lightning	-11.5738
▁Berry	-11.5741
▁Venus	-11.5745
▁Mina	-11.5745
▁lights	-11.5746
▁Prussian	-11.5749
▁intersections	-11.5752
▁Lie	-11.5755
▁André	-11.5756
▁quant	-11.5764
▁Borough	-11.5766
▁Annie	-11.5771
▁Shore	-11.5772
ides	-11.5774
▁amazing	-11.5775
▁tours	-11.5778
▁Patton	-11.5778
▁Comic	-11.5781
▁Kor	-11.5781
▁drainage	-11.5783
▁wagon	-11.5783
urism	-11.5787
▁maker	-11.5788
iest	-11.5789
▁escalat	-11.579
▁corpse	-11.5791
▁Kenny	-11.5791
▁freight	-11.5799
▁Concert	-11.58
▁propose	-11.5802
▁Senators	-11.5803
canal	-11.5806
▁torture	-11.5806
▁Ferrari	-11.5808
vy	-11.5813
▁eleventh	-11.5814
▁denounc	-11.5816
▁dorsal	-11.5816
▁midnight	-11.5818
▁upward	-11.5818
▁Hear	-11.582
▁mandat	-11.5825
▁Bolton	-11.583
▁entertaining	-11.583
▁Wei	-11.5831
▁Daniels	-11.5832
▁Kiss	-11.5833
▁mosque	-11.5834
▁backward	-11.5835
nar	-11.5837
▁lemur	-11.584
TC	-11.5841
▁Eisenhower	-11.5843
▁coffee	-11.5843
▁comet	-11.5843
▁choos	-11.5843
▁Porter	-11.5844
▁Marco	-11.5844
▁mistaken	-11.5849
▁Style	-11.5851
▁Johann	-11.5852
▁Retriev	-11.5852
BC	-11.5852
nia	-11.5855
▁Lords	-11.5856
▁bassist	-11.5858
▁Artillery	-11.586
▁collid	-11.586
ela	-11.5863
▁280	-11.5864
▁diary	-11.5866
▁expell	-11.5866
▁unpopular	-11.5869
▁sophisticat	-11.5869
▁Pirates	-11.5871
▁nests	-11.5872
▁bars	-11.5873
▁EU	-11.5874
▁NA	-11.5875
▁reprint	-11.5879
▁monks	-11.588
▁contributor	-11.588
▁Syrian	-11.5882
▁Mana	-11.5885
▁Distinguish	-11.5887
▁Guadal	-11.5887
▁Rugby	-11.5887
▁punch	-11.5888
▁experts	-11.5888
beit	-11.589
▁rotat	-11.5891
▁103	-11.5896
▁Ant	-11.5898
▁reunit	-11.5898
▁Sometime	-11.5898
▁placement	-11.5899
▁Rare	-11.5902
▁painter	-11.5904
▁convincing	-11.5904
▁toxic	-11.5905
▁Truth	-11.5906
▁Rhodesian	-11.5912
▁foul	-11.5915
▁swamp	-11.5915
▁Vince	-11.5916
▁manor	-11.5919
▁Cave	-11.5919
▁Treasury	-11.5922
▁flashback	-11.5923
lumni	-11.5924
▁mint	-11.5924
▁shooter	-11.5924
xtant	-11.5925
▁diseases	-11.5925
▁exciting	-11.5926
▁leather	-11.5931
▁outline	-11.5933
▁Lodge	-11.5933
▁pub	-11.5934
▁Chu	-11.5935
▁MI	-11.5937
▁conscious	-11.5938
▁accurac	-11.594
▁Jesse	-11.5942
▁App	-11.5942
▁capabilit	-11.5943
▁negotiate	-11.5949
together	-11.5951
▁basement	-11.5951
▁affiliate	-11.5952
rr	-11.5953
▁Wat	-11.5957
▁Warsaw	-11.5963
ht	-11.5964
54	-11.5964
▁contend	-11.5968
▁VH	-11.5968
▁hanging	-11.5968
▁promising	-11.5969
▁dragon	-11.597
▁Neptune	-11.5976
▁AIDS	-11.5976
▁Ferguson	-11.5976
▁teen	-11.5978
▁Dodger	-11.5979
▁evacuate	-11.598
▁refuge	-11.5981
▁Cl	-11.5981
▁Doug	-11.5984
▁forgot	-11.5985
ometric	-11.5987
kie	-11.5988
▁limestone	-11.5994
▁Sussex	-11.5994
▁Engineer	-11.5994
▁370	-11.5995
▁disturb	-11.5996
▁intentional	-11.5999
▁Bangladesh	-11.6002
▁hazard	-11.6002
▁demon	-11.6003
▁Eu	-11.6007
▁fever	-11.6008
▁Lea	-11.6011
▁barrack	-11.6011
▁Lat	-11.6012
▁homage	-11.6012
▁Gaza	-11.6013
uf	-11.6014
▁socialist	-11.6017
▁errors	-11.6019
▁Hispanic	-11.602
▁coaster	-11.6021
via	-11.6024
▁Serbs	-11.6025
▁Lucy	-11.6025
▁ages	-11.6027
▁Nord	-11.6028
▁Ode	-11.6028
rant	-11.6029
▁Source	-11.6029
▁tribal	-11.603
▁Columbus	-11.6031
borough	-11.6038
▁Reynolds	-11.6038
▁stomach	-11.6038
▁negotiated	-11.604
▁cultivat	-11.6043
▁Im	-11.6045
▁Easter	-11.6046
▁Taxonom	-11.6047
▁marble	-11.6047
▁administrator	-11.6047
▁goalkeeper	-11.6048
▁Avon	-11.6048
▁Rice	-11.6048
▁Close	-11.6052
▁invention	-11.6053
tory	-11.6053
▁Morton	-11.6054
uring	-11.6055
▁sanction	-11.6058
▁Pac	-11.6059
ash	-11.606
▁robot	-11.6062
▁cantata	-11.6065
ø	-11.6066
▁Vic	-11.6068
▁Hip	-11.6071
▁vault	-11.6074
ili	-11.6076
▁expir	-11.6077
nu	-11.6077
▁presid	-11.6082
▁zoo	-11.6083
▁planes	-11.6085
▁prop	-11.6088
▁Scotia	-11.609
▁Laf	-11.609
▁suburban	-11.6095
▁Lau	-11.6095
▁utter	-11.6095
lt	-11.6097
▁Lex	-11.6098
▁Franz	-11.6099
▁hate	-11.6099
▁nobility	-11.6102
▁consumed	-11.6103
ception	-11.6109
▁seizure	-11.611
▁Munich	-11.611
90	-11.6113
court	-11.6114
▁overlap	-11.6114
uous	-11.6114
lit	-11.6115
▁Jin	-11.6115
▁Lithuania	-11.6115
▁evolutionar	-11.6116
▁cu	-11.6119
▁incorrect	-11.6119
ST	-11.612
née	-11.6122
▁blown	-11.6124
▁mentor	-11.6127
▁constituenc	-11.6128
▁enforcement	-11.6129
▁shipyard	-11.613
▁Beyond	-11.6132
▁Lanka	-11.6134
▁storey	-11.6134
rah	-11.6135
▁innovative	-11.6137
▁imprisonment	-11.6139
▁Tru	-11.614
fold	-11.6145
season	-11.6145
BA	-11.6146
sville	-11.6146
▁twelfth	-11.6146
64	-11.6148
▁referendum	-11.6155
▁shale	-11.6156
▁Siege	-11.6157
▁Dart	-11.6161
▁poster	-11.6163
▁hostage	-11.6165
▁Tall	-11.6168
▁incorporat	-11.6169
ema	-11.6169
▁suspicion	-11.6173
▁Java	-11.6174
▁informal	-11.6174
nk	-11.6182
▁Nebraska	-11.6183
▁Hebrew	-11.6183
▁Popular	-11.6183
▁analog	-11.6184
▁honours	-11.6184
▁crater	-11.6184
▁refin	-11.6185
ugg	-11.6188
▁imagin	-11.6188
▁scope	-11.6192
▁Costa	-11.6192
▁limitations	-11.6193
▁Luc	-11.6198
▁farms	-11.6199
chy	-11.6201
▁chronicle	-11.6201
▁Salis	-11.6203
▁Qui	-11.6203
▁maneuvers	-11.6205
arm	-11.6205
▁proven	-11.6206
▁cow	-11.6209
▁260	-11.6209
€	-11.621
▁parasite	-11.621
▁Dawn	-11.621
▁bonds	-11.6214
▁rectang	-11.6219
▁Hammond	-11.6219
▁maturity	-11.622
are	-11.6222
▁bold	-11.6224
wine	-11.6224
▁missiles	-11.6225
▁commerce	-11.6228
▁renown	-11.6228
vision	-11.6229
▁municipality	-11.6231
▁Linda	-11.6231
▁Lois	-11.6231
▁guitars	-11.6235
smith	-11.6236
▁seasonal	-11.6237
▁Pas	-11.6238
▁Rhys	-11.6239
▁Plann	-11.6239
▁Raja	-11.624
▁Southeast	-11.6241
▁comfort	-11.6243
▁orbital	-11.6246
▁Sunderland	-11.6246
▁Attack	-11.6247
▁Chapter	-11.6247
▁Derek	-11.6247
▁Blaine	-11.625
▁Eugene	-11.6251
▁Apart	-11.6253
▁Ski	-11.6253
xi	-11.6254
att	-11.6254
hole	-11.6255
▁Lar	-11.6255
▁Athenian	-11.6256
▁Volume	-11.6256
▁democrac	-11.6256
▁determin	-11.6257
▁gu	-11.6257
▁desir	-11.6261
▁bin	-11.6263
▁illustrations	-11.6265
▁communicate	-11.6266
▁1859	-11.6268
01	-11.6272
▁Beast	-11.6274
▁chicken	-11.6277
▁MS	-11.6278
▁amino	-11.6278
▁AP	-11.6279
▁adaptations	-11.6279
▁Pier	-11.6282
▁fortifi	-11.6285
bat	-11.6288
ín	-11.629
▁Robertson	-11.6294
▁insult	-11.6295
▁happi	-11.6296
rez	-11.6296
EF	-11.63
▁genius	-11.6302
gin	-11.6302
▁Maple	-11.6303
CA	-11.6306
▁Volt	-11.6307
pha	-11.6311
▁virtue	-11.6311
▁balloon	-11.6312
DS	-11.6316
▁rendition	-11.632
▁diagnosi	-11.632
▁vector	-11.632
▁Remix	-11.632
▁Midland	-11.6323
▁organs	-11.6325
▁Rev	-11.6326
win	-11.6326
not	-11.6327
▁welcom	-11.6327
▁Kn	-11.6327
▁subsidiary	-11.6329
▁pac	-11.633
take	-11.6331
▁Cut	-11.6335
▁Hon	-11.6338
▁miner	-11.6338
▁efficiency	-11.6338
▁reliabl	-11.6341
▁sink	-11.6345
▁Fraser	-11.6348
▁117	-11.6348
▁protective	-11.6348
▁preview	-11.6349
▁invite	-11.6349
▁topics	-11.635
▁Hugo	-11.635
▁Joyce	-11.635
sex	-11.6352
▁Canberra	-11.6357
▁triangle	-11.6357
▁Cecil	-11.6357
▁decease	-11.6357
▁Rapid	-11.6358
▁Palestinian	-11.6359
▁preservation	-11.6363
▁Primar	-11.6363
▁Wide	-11.6365
▁Đ	-11.6367
▁explod	-11.637
ties	-11.6375
▁deficit	-11.6375
▁Winchester	-11.6376
▁correspondence	-11.6376
▁cement	-11.6379
▁Lesser	-11.638
▁animator	-11.6383
▁Hamburg	-11.6383
▁pigeon	-11.6385
▁Guards	-11.6389
▁torn	-11.6389
▁1845	-11.6389
▁tyre	-11.6395
▁procedures	-11.6396
▁societies	-11.6396
cl	-11.6397
▁relieve	-11.6399
croft	-11.6399
▁binding	-11.64
72	-11.6403
▁acute	-11.6404
▁powder	-11.6405
▁Danub	-11.6405
▁Pont	-11.6407
onia	-11.6411
▁Krishna	-11.6413
▁adoption	-11.6413
▁mouse	-11.6413
▁penn	-11.6413
▁screens	-11.6413
▁summary	-11.6413
▁senator	-11.6414
mel	-11.6422
▁Willie	-11.6423
▁Jenna	-11.6423
▁Brighton	-11.6425
▁axis	-11.6427
▁dig	-11.6429
▁sprint	-11.6432
LL	-11.6432
▁variet	-11.6435
▁Joel	-11.6436
▁Quinn	-11.6436
▁sweep	-11.6439
▁disco	-11.6439
▁safely	-11.6441
▁findings	-11.6444
right	-11.6446
▁Philippine	-11.6447
▁Leg	-11.6449
▁Films	-11.645
▁Minne	-11.645
▁indication	-11.6452
▁Have	-11.6452
▁collaborator	-11.6453
▁operas	-11.6454
▁Bert	-11.6455
▁thank	-11.6459
▁contrary	-11.6459
▁fraud	-11.6459
ges	-11.6459
▁amend	-11.6461
▁keyboard	-11.6468
▁Timberlake	-11.6469
▁sexuality	-11.6469
▁Alexandria	-11.647
▁breakdown	-11.6471
▁speakers	-11.6471
▁tool	-11.6472
aka	-11.6475
▁plug	-11.6476
▁HIV	-11.6478
▁Holocaust	-11.6478
▁interface	-11.6478
▁Evan	-11.6481
‘	-11.6487
▁relax	-11.6487
▁Assistant	-11.6487
▁sympath	-11.6494
jan	-11.6495
▁trunk	-11.6496
▁modes	-11.6497
▁fears	-11.6499
▁Lenin	-11.6501
aya	-11.6501
▁cats	-11.6504
▁adviser	-11.6504
▁Omaha	-11.6506
▁Racing	-11.6506
▁Karen	-11.6508
▁Reg	-11.6509
▁Rip	-11.6509
▁subtle	-11.6512
▁heaven	-11.6516
▁Petersburg	-11.6519
▁vol	-11.652
▁Gwen	-11.6521
▁Woll	-11.6522
▁saint	-11.6524
▁utilit	-11.6524
cum	-11.6528
▁Kemp	-11.6531
▁excavat	-11.6532
▁juvenile	-11.6533
▁Portsmouth	-11.6534
▁atoms	-11.6535
▁brass	-11.6537
▁Norton	-11.6538
▁Challenge	-11.6544
▁scream	-11.6544
▁Bailey	-11.6545
▁availability	-11.6546
etti	-11.6546
uli	-11.6546
▁dispers	-11.6548
▁swim	-11.6548
▁constitute	-11.6549
▁Giant	-11.6551
▁emigrat	-11.6552
atic	-11.6553
▁1200	-11.6555
▁emphasize	-11.6559
▁Tank	-11.6562
å	-11.6562
▁Destin	-11.6563
▁Information	-11.6563
▁Put	-11.6566
▁tackle	-11.6567
▁Toward	-11.6567
▁Witch	-11.657
▁nominal	-11.6572
▁Wolverine	-11.6572
▁striker	-11.6574
▁contaminat	-11.6581
▁excited	-11.6583
boy	-11.6588
▁calendar	-11.6591
▁Chen	-11.6592
▁fantastic	-11.6592
▁Aircraft	-11.6597
▁Singh	-11.6597
ui	-11.6599
lag	-11.6601
▁keyboards	-11.6603
▁Elliott	-11.6609
▁dominate	-11.6609
▁hymn	-11.661
▁dose	-11.6612
▁Dayton	-11.6613
▁Change	-11.6616
▁Forbes	-11.662
▁veto	-11.662
73	-11.6621
▁mann	-11.6622
nik	-11.6624
▁Sicily	-11.6629
▁Duchess	-11.6629
▁citizenship	-11.663
▁studios	-11.663
▁Neu	-11.6631
▁Webber	-11.6631
▁Given	-11.6632
▁rode	-11.6632
▁define	-11.6633
▁Ny	-11.6634
▁Places	-11.6634
▁Bil	-11.6635
▁relegat	-11.6636
▁determination	-11.6641
▁profits	-11.6641
▁Saw	-11.6644
▁puppet	-11.6648
▁concluding	-11.6648
▁Torres	-11.6649
shot	-11.6651
▁poisoning	-11.6651
▁Gamepla	-11.6652
81	-11.6654
SO	-11.6654
78	-11.6654
▁Cri	-11.6656
▁comedian	-11.6656
▁plaque	-11.6657
▁ESPN	-11.6657
▁Associat	-11.6659
▁generations	-11.6661
▁Pack	-11.6665
arch	-11.6665
NC	-11.6666
▁Hoffman	-11.6667
▁Austen	-11.6667
▁Fiction	-11.6667
▁photos	-11.667
▁gentle	-11.6671
▁1820	-11.6672
▁predecessors	-11.6674
▁televis	-11.6674
▁generator	-11.6674
▁gospel	-11.6677
▁Durham	-11.6677
▁endangered	-11.6677
94	-11.6678
IAA	-11.6681
▁Productions	-11.6681
▁Lynn	-11.6682
▁SMS	-11.6682
▁dug	-11.6684
▁countryside	-11.669
tric	-11.6692
▁Wick	-11.6694
rock	-11.6696
▁sympathetic	-11.6696
▁Pepper	-11.6696
oka	-11.6702
▁Ramon	-11.6703
▁Gardner	-11.6705
stuck	-11.6709
▁performer	-11.671
▁tear	-11.6712
▁floors	-11.6715
▁Mumbai	-11.6715
▁controll	-11.6715
▁114	-11.6716
▁....	-11.6719
▁intern	-11.6719
▁alteration	-11.6722
▁terrestrial	-11.6724
▁Direct	-11.6728
burgh	-11.6728
▁Gan	-11.673
▁chances	-11.673
kel	-11.6731
59	-11.6734
▁primitive	-11.6734
▁maritime	-11.6735
▁workshop	-11.6735
▁Peru	-11.6736
▁Gardens	-11.6736
▁Nan	-11.6743
▁ceremonial	-11.6747
▁dominan	-11.675
▁eject	-11.675
▁oral	-11.6754
▁retir	-11.6754
point	-11.6754
▁Step	-11.6756
▁wrapp	-11.6757
▁Crash	-11.6757
▁bills	-11.6759
▁Speed	-11.676
aker	-11.6763
▁reservation	-11.6763
▁Jazz	-11.6763
▁Data	-11.6764
▁trilog	-11.6764
odi	-11.6767
▁implementation	-11.6769
▁Bahamas	-11.6773
▁coral	-11.6773
eh	-11.6773
star	-11.6775
▁vent	-11.6775
bon	-11.6778
▁121	-11.6778
▁skiing	-11.6778
▁Wang	-11.6779
▁Bran	-11.678
▁superstructure	-11.6782
▁dump	-11.6783
▁announce	-11.6784
▁conn	-11.6784
pot	-11.6787
▁enforc	-11.6789
▁Prussia	-11.6789
eaten	-11.679
view	-11.6792
▁starter	-11.6792
▁Monica	-11.6793
▁draws	-11.6793
▁Tab	-11.6794
▁Crow	-11.6795
RS	-11.6801
▁Savage	-11.6802
▁Commodore	-11.6803
▁melt	-11.6803
oque	-11.6804
▁Ap	-11.6804
▁oppose	-11.6805
▁slide	-11.6811
▁Pearson	-11.6812
▁northeastward	-11.6812
▁narrator	-11.6814
▁SA	-11.6818
uda	-11.6819
▁Distribution	-11.6821
▁Tampa	-11.6822
▁1854	-11.6825
▁Cruz	-11.6826
▁Rise	-11.6826
▁lunch	-11.6831
▁Lopez	-11.6831
▁consultant	-11.6832
▁badge	-11.6834
▁Guest	-11.6836
▁IX	-11.6837
▁Bomb	-11.6839
▁Jose	-11.6841
▁Rovers	-11.6841
▁jewel	-11.6841
▁Angela	-11.6843
▁1857	-11.6844
IT	-11.6845
box	-11.6846
▁coincid	-11.6846
▁Arn	-11.6847
▁clever	-11.6848
▁characteris	-11.6848
TV	-11.685
▁Mah	-11.6852
▁frustrated	-11.6853
▁ancestors	-11.6856
▁brutal	-11.6857
PD	-11.6858
▁satisfied	-11.6858
▁advertise	-11.6859
lob	-11.6859
▁distress	-11.6861
▁Iraqi	-11.6862
iva	-11.6863
get	-11.6865
▁motivation	-11.6866
▁Maxim	-11.687
▁submission	-11.687
▁NME	-11.687
▁Producer	-11.6875
ł	-11.6875
▁Nas	-11.6879
▁prominence	-11.6879
▁augment	-11.6879
▁Newark	-11.6879
▁Private	-11.688
▁precursor	-11.6889
elda	-11.689
▁Wong	-11.689
esh	-11.6893
▁merge	-11.6894
▁businessman	-11.6898
iel	-11.6899
▁Mick	-11.6902
▁Diana	-11.6903
▁encompass	-11.6903
▁McMahon	-11.6909
▁overthrow	-11.6909
▁thermal	-11.6909
▁democratic	-11.6909
▁Kam	-11.6912
▁Need	-11.6914
▁Denis	-11.6916
▁contingent	-11.6918
▁flourish	-11.6919
▁helicopters	-11.6922
93	-11.6923
▁Wilm	-11.6926
▁Ré	-11.6926
agh	-11.6928
▁Kay	-11.6929
▁immigration	-11.6929
▁smart	-11.693
▁Georgian	-11.6933
▁suite	-11.6936
▁pu	-11.6937
▁oz	-11.6938
▁tar	-11.6938
▁Jar	-11.6941
▁lung	-11.6944
▁buses	-11.6946
▁Joshua	-11.6948
▁chant	-11.6951
▁Holden	-11.6951
▁prediction	-11.6952
▁Bio	-11.6955
▁Methodist	-11.6959
▁imagination	-11.696
▁Dana	-11.6961
stable	-11.6962
▁Environmental	-11.6963
▁farmland	-11.6965
▁Diệm	-11.6967
▁flie	-11.6971
▁shortened	-11.6973
▁burden	-11.6978
09	-11.6981
▁Gol	-11.6982
zen	-11.699
▁inspection	-11.6991
▁Tel	-11.6991
22	-11.6991
▁Barber	-11.6993
▁tracking	-11.6993
▁Ara	-11.6996
▁Dame	-11.7
▁commemorat	-11.7
▁suburbs	-11.7001
▁banner	-11.7001
60	-11.7002
91	-11.7004
▁median	-11.7005
▁Lyon	-11.7005
mun	-11.7006
▁displacement	-11.7007
▁derivative	-11.7008
▁worsen	-11.7008
TS	-11.7009
▁systematic	-11.701
▁stopping	-11.701
▁morale	-11.7019
▁recreational	-11.7021
▁Elder	-11.7021
▁graduation	-11.7024
▁superhero	-11.7027
▁Claude	-11.7027
▁Engineers	-11.7027
▁restart	-11.7029
▁contradict	-11.703
▁Ivy	-11.7031
▁illustrate	-11.7036
▁Net	-11.7037
▁owl	-11.7037
▁cord	-11.7046
▁Phantom	-11.7046
▁compartment	-11.7046
▁overhaul	-11.7046
chester	-11.7054
cap	-11.7054
pon	-11.7059
▁Spitfire	-11.7066
▁Gospel	-11.7067
AC	-11.7072
aur	-11.7072
▁isotopes	-11.7075
▁Knowles	-11.7076
▁Persona	-11.7077
ridge	-11.7081
▁Tur	-11.7084
▁surf	-11.7084
dia	-11.7085
▁185	-11.7086
▁Sergeant	-11.7087
40	-11.7089
▁Ashley	-11.709
▁Kingston	-11.7094
▁replica	-11.7096
▁enthusiasm	-11.7096
▁Immediate	-11.7096
▁observ	-11.7096
▁glider	-11.71
▁Mach	-11.7102
▁Joy	-11.7103
▁Hannah	-11.7104
▁Table	-11.7106
▁Inn	-11.7106
leigh	-11.7109
74	-11.711
▁profession	-11.711
born	-11.7112
ritten	-11.7115
NT	-11.7116
▁ideolog	-11.7117
▁brake	-11.7118
throp	-11.7119
orial	-11.712
▁mat	-11.7124
▁transmitt	-11.7124
▁Adriatic	-11.7126
▁cancellation	-11.7126
▁breakthrough	-11.7126
▁acids	-11.7127
▁registration	-11.7127
▁bite	-11.7128
▁Browns	-11.7131
▁Cow	-11.7132
▁hub	-11.7134
▁Mai	-11.7136
▁landslide	-11.7136
▁Yang	-11.7136
▁1858	-11.7139
icken	-11.7146
▁Allan	-11.7147
▁Vel	-11.7148
▁dull	-11.7149
▁Dover	-11.7149
▁dedication	-11.7151
▁isolation	-11.7154
▁treasure	-11.7155
▁outlets	-11.7155
▁Antille	-11.7158
▁liken	-11.7158
▁charm	-11.7159
▁orientation	-11.716
terim	-11.7161
▁bias	-11.7163
▁Haven	-11.7163
▁Reid	-11.7164
aged	-11.7165
▁spectrum	-11.7166
▁Sugar	-11.7168
▁ballet	-11.7168
▁rational	-11.717
▁brush	-11.7171
hra	-11.7175
FR	-11.7175
▁abrupt	-11.7176
▁Literar	-11.7176
▁Interior	-11.7179
▁patroll	-11.718
▁ears	-11.7182
▁antibod	-11.7183
Spot	-11.7184
▁Broad	-11.7186
▁affirm	-11.7186
▁Individual	-11.7186
▁Comp	-11.7189
▁Meg	-11.719
▁corrupt	-11.7194
▁innocent	-11.7196
▁contemporari	-11.7196
▁Medicine	-11.7197
▁Wheeler	-11.72
▁Fringe	-11.7208
▁Disc	-11.7209
▁Dot	-11.7214
▁Broke	-11.7216
▁cod	-11.7216
ulation	-11.7216
▁Betty	-11.7217
▁vow	-11.7217
▁Hollow	-11.7218
▁alloy	-11.7221
ayette	-11.7221
▁Pike	-11.7222
▁Cru	-11.7223
esque	-11.7223
▁gase	-11.7225
dor	-11.7226
▁swift	-11.7227
▁Amazon	-11.7227
▁kidney	-11.7228
▁sandstone	-11.7228
▁1812	-11.7232
▁Powers	-11.7233
▁persona	-11.7235
▁spiral	-11.7237
▁Balkan	-11.7237
▁compose	-11.7239
▁stripe	-11.7241
▁Dev	-11.7241
▁320	-11.7241
▁favourabl	-11.7241
▁Event	-11.7245
32	-11.7245
▁constellation	-11.7247
▁smuggl	-11.7247
▁unwilling	-11.7247
▁entries	-11.7247
▁dissent	-11.7247
▁spy	-11.7247
▁ministr	-11.7248
▁intimate	-11.7248
▁Left	-11.7249
▁slopes	-11.7252
▁Presidential	-11.7252
sistence	-11.7255
▁Julia	-11.7257
guel	-11.7258
ywhere	-11.7259
▁neuro	-11.7259
▁Zi	-11.7262
▁Def	-11.7263
▁technologies	-11.7267
▁Lyn	-11.7267
▁bred	-11.7268
▁refusal	-11.7269
▁hell	-11.727
▁550	-11.7272
PC	-11.7273
rim	-11.7274
ovich	-11.7274
▁wool	-11.7275
▁ho	-11.7275
▁Agent	-11.728
▁Speaker	-11.728
▁drag	-11.7284
▁Rutherford	-11.7287
▁plumage	-11.7288
▁consolidat	-11.7291
▁Ot	-11.7291
▁umpire	-11.7294
idge	-11.7295
rna	-11.7296
▁doubled	-11.7296
▁grandmother	-11.7298
▁climax	-11.7298
▁nitrogen	-11.7299
▁107	-11.7299
▁provok	-11.7299
▁Complete	-11.73
▁quantity	-11.7301
▁Sad	-11.7301
▁XIII	-11.7303
▁solutions	-11.7304
rate	-11.7305
▁Au	-11.7306
▁Donna	-11.7306
▁undertake	-11.7306
▁medley	-11.7309
▁1849	-11.7312
▁Rem	-11.7316
▁Barn	-11.7317
▁insight	-11.7317
▁plaza	-11.7318
▁Visual	-11.7318
▁demolition	-11.7318
▁reasonable	-11.7318
▁jacket	-11.7318
▁Maj	-11.7319
▁Sebastian	-11.7319
▁rubber	-11.7322
▁Spect	-11.7326
▁Rican	-11.7326
▁Brock	-11.7326
▁explorer	-11.7327
▁Jain	-11.7328
▁Underground	-11.7329
▁digit	-11.7329
▁sovereignt	-11.7329
▁ni	-11.7331
▁showcase	-11.7332
▁Limited	-11.7334
▁Halifax	-11.7338
▁Oppenheim	-11.7338
▁Hutton	-11.7338
▁Crazy	-11.7338
▁Faith	-11.7338
▁Writers	-11.7339
self	-11.734
▁Carte	-11.7344
53	-11.7345
▁Horror	-11.7348
▁assumption	-11.7348
▁swallow	-11.7348
▁generic	-11.7349
▁Metroid	-11.735
▁fer	-11.7351
▁offence	-11.7351
▁enhance	-11.7355
▁violin	-11.7356
▁inadequate	-11.7359
ova	-11.736
▁Sharon	-11.7362
chu	-11.7363
▁assign	-11.7366
▁variants	-11.7367
▁occurrence	-11.7369
▁gale	-11.7372
sdale	-11.7373
ace	-11.7373
▁continual	-11.7373
▁Dynasty	-11.7375
▁opener	-11.7375
▁Screen	-11.7379
▁retrieve	-11.7379
▁inferior	-11.7379
▁freestyle	-11.738
▁Thailand	-11.738
▁philosophical	-11.738
▁Pel	-11.7384
▁Cod	-11.7385
▁Away	-11.7387
▁casemate	-11.739
▁projection	-11.7391
▁sitcom	-11.7391
▁Gran	-11.7394
▁Drew	-11.7394
▁Archer	-11.7395
Craft	-11.7397
▁Sul	-11.7397
▁Dy	-11.7398
▁hamper	-11.74
▁118	-11.74
▁mo	-11.74
▁Freeway	-11.7402
▁acknowledge	-11.7402
▁Shar	-11.7404
▁flags	-11.7404
▁Vaugh	-11.7405
▁controller	-11.7406
ime	-11.7409
elfare	-11.7409
▁WrestleMania	-11.741
▁Level	-11.7411
76	-11.7413
▁Leaf	-11.7417
▁Arms	-11.742
▁embass	-11.742
▁Trafford	-11.742
▁Wizard	-11.7421
▁Saudi	-11.7421
▁seas	-11.7421
▁Corn	-11.7423
▁revelation	-11.7431
▁Soviets	-11.7432
▁Erie	-11.7434
▁dwelling	-11.7434
rod	-11.7435
▁drawings	-11.7436
vet	-11.744
▁Spa	-11.744
▁computers	-11.744
▁ARIA	-11.7441
▁timing	-11.7442
▁discard	-11.7443
▁Rec	-11.7445
▁Mori	-11.7446
▁submit	-11.7446
▁Thorp	-11.7446
▁Discovery	-11.7447
▁Sei	-11.745
▁slope	-11.7451
▁leap	-11.7452
▁prolong	-11.7452
▁criteria	-11.7453
▁tract	-11.7454
▁joy	-11.7454
▁supervisor	-11.7463
▁Bradford	-11.7465
▁digest	-11.7468
▁McG	-11.7468
▁mortar	-11.7471
▁Reviewer	-11.7471
▁siz	-11.7472
▁motive	-11.7475
▁Afterwards	-11.7475
posed	-11.7476
lee	-11.7479
▁premise	-11.7481
▁Tina	-11.7482
▁Norwich	-11.7482
▁Wake	-11.7483
▁Wade	-11.7483
▁clinical	-11.7485
95	-11.7485
▁SAS	-11.7486
▁Idol	-11.7487
▁organisations	-11.7487
▁Title	-11.7488
▁boarding	-11.7488
▁deplet	-11.7493
▁trumpet	-11.7493
ffer	-11.7494
▁hometown	-11.7503
▁warehouse	-11.7503
▁Jessica	-11.7503
▁helmet	-11.7503
▁improvis	-11.7504
▁faithful	-11.7505
▁Jamie	-11.7508
▁practic	-11.7509
▁330	-11.7511
▁Penguin	-11.7513
▁Stewie	-11.7513
▁Gould	-11.7514
▁uncertaint	-11.7514
▁sued	-11.7515
▁exceeding	-11.752
▁Twin	-11.7526
▁robber	-11.7526
▁Dre	-11.7529
▁Echo	-11.7529
▁Pur	-11.7533
▁Brittan	-11.7535
▁Student	-11.7535
▁Qa	-11.7535
equality	-11.7536
▁cage	-11.7537
▁Diane	-11.754
▁recipient	-11.7546
▁calci	-11.7547
▁combin	-11.7548
hara	-11.7549
▁tired	-11.7552
▁Negro	-11.7557
▁freed	-11.7559
front	-11.7559
meter	-11.7561
▁flex	-11.7564
▁Cope	-11.7565
▁Rochester	-11.7566
▁discrimination	-11.7567
ele	-11.7568
lund	-11.757
▁Tr	-11.7576
▁eager	-11.7576
▁judg	-11.7577
▁disput	-11.7578
▁Oil	-11.758
▁sparse	-11.7581
list	-11.7581
fl	-11.7587
▁Brother	-11.7587
▁hitter	-11.7591
▁Gustav	-11.7597
▁pretend	-11.7597
▁Az	-11.7597
▁blog	-11.7597
▁128	-11.7599
▁Pla	-11.7599
▁Ker	-11.7599
lets	-11.7607
▁Jen	-11.7608
▁É	-11.7609
▁Joker	-11.761
▁Liu	-11.7611
▁enforce	-11.7611
▁Weber	-11.7613
achi	-11.7613
▁Spot	-11.7615
▁Canadiens	-11.7618
poli	-11.7619
▁spar	-11.762
DF	-11.7622
ender	-11.7622
▁bush	-11.7623
▁Mini	-11.7625
▁Emine	-11.763
▁Farmer	-11.7631
▁Prison	-11.7632
▁Ji	-11.7635
▁Mul	-11.7637
▁Hick	-11.7637
▁dolphin	-11.7639
▁automobile	-11.7639
▁Must	-11.7639
▁cease	-11.7639
wal	-11.764
▁Fun	-11.764
▁mess	-11.764
▁Hokie	-11.7641
▁highlights	-11.7643
▁Romans	-11.7643
▁Myster	-11.7644
top	-11.7645
▁202	-11.7646
▁Brunswick	-11.7649
▁Carpenter	-11.7649
▁lecture	-11.765
▁Lan	-11.765
ES	-11.7651
▁archaeologist	-11.7653
▁ward	-11.7653
▁Full	-11.7654
▁iconic	-11.7654
▁ancestor	-11.7654
51	-11.7657
▁Happy	-11.766
▁Sleep	-11.766
▁jungle	-11.766
cellular	-11.766
▁650	-11.7661
▁Height	-11.7664
▁posts	-11.7669
▁abstract	-11.7671
oda	-11.7671
▁stamp	-11.7673
AR	-11.7675
cision	-11.7676
▁Anders	-11.7677
▁marker	-11.7678
▁physicist	-11.768
▁Lions	-11.7681
▁inevitabl	-11.7681
▁Cornell	-11.7682
cra	-11.7682
▁amid	-11.7682
▁Behind	-11.7683
▁CIA	-11.7685
▁manuscripts	-11.7686
▁encouraging	-11.7686
▁choices	-11.7688
▁fence	-11.7689
▁Structure	-11.7692
▁gesture	-11.7692
▁nationwide	-11.7692
▁1852	-11.7694
▁mortality	-11.7694
▁annex	-11.77
amba	-11.7701
▁AU	-11.7702
▁pipe	-11.7702
▁confiscat	-11.7702
▁Wyatt	-11.7702
▁Von	-11.7703
▁Cohen	-11.7703
▁Preparation	-11.7704
bia	-11.7707
▁Birds	-11.7708
▁gills	-11.7709
▁132	-11.771
▁Color	-11.771
like	-11.7712
▁Hindi	-11.7713
▁Giro	-11.7713
▁Gates	-11.7716
▁Clear	-11.7716
▁regret	-11.7717
▁purple	-11.7718
▁Eagles	-11.7719
▁tales	-11.772
▁Boyd	-11.7722
▁unrest	-11.7723
▁spontaneous	-11.7723
▁medication	-11.7724
▁tiger	-11.7724
▁radioactive	-11.7724
▁cheer	-11.7724
▁destin	-11.7728
▁nerve	-11.773
▁Evening	-11.7731
▁Lance	-11.7733
▁humid	-11.7734
▁Shakir	-11.7737
▁deadline	-11.7739
▁lament	-11.7741
▁stereotype	-11.7742
▁Anglican	-11.7745
▁Thursday	-11.7745
▁reads	-11.7747
▁chick	-11.7752
▁Perfect	-11.7755
▁indoor	-11.7755
sham	-11.7757
▁colonist	-11.7759
▁cricketer	-11.776
▁gravel	-11.7761
▁devastat	-11.7761
▁Julie	-11.7762
▁Better	-11.7767
▁revert	-11.7768
▁Neo	-11.7769
▁facilitate	-11.777
▁Hyde	-11.777
▁Wait	-11.777
▁1847	-11.777
▁pap	-11.7771
▁forbidd	-11.7774
▁poetic	-11.7776
▁polish	-11.7777
▁perimeter	-11.7777
▁Rey	-11.7778
Reilly	-11.778
▁mutation	-11.778
piece	-11.7781
▁lab	-11.7781
rov	-11.7781
▁fog	-11.7786
▁Inde	-11.7786
▁goaltender	-11.7787
▁Annual	-11.7787
▁reproduction	-11.7788
▁gig	-11.7789
▁confess	-11.7789
▁accomplishment	-11.779
rb	-11.779
▁Parks	-11.779
▁Met	-11.7791
▁Volunteer	-11.7798
▁sac	-11.7802
▁ACC	-11.7804
▁Nolan	-11.7805
▁capability	-11.7807
▁remnant	-11.7807
▁announc	-11.7808
▁Harbour	-11.7809
▁monsoon	-11.7809
▁foster	-11.7809
▁Lars	-11.7809
▁Kre	-11.781
▁Flash	-11.7812
▁betray	-11.7813
pole	-11.7814
▁Pick	-11.7816
▁particle	-11.7818
gna	-11.7819
▁Fellow	-11.7819
▁Technical	-11.7819
▁denomination	-11.782
▁Mou	-11.7821
▁Milton	-11.7824
▁Erik	-11.7824
▁Len	-11.7825
▁sovereign	-11.7828
▁clearing	-11.783
▁compatib	-11.783
unk	-11.7831
cene	-11.7835
▁AM	-11.7836
▁adventures	-11.7836
▁Louisville	-11.7837
▁Roth	-11.7839
▁Verde	-11.784
▁Mode	-11.7841
▁Recent	-11.7841
▁melodi	-11.7846
▁breath	-11.7849
▁sensor	-11.785
▁Less	-11.7851
▁Concern	-11.7851
▁Lexington	-11.7852
▁Match	-11.7854
▁Alt	-11.7854
▁Made	-11.7856
cro	-11.7859
rap	-11.7863
▁barn	-11.7864
▁1855	-11.7865
▁Darre	-11.7868
▁drunk	-11.787
nate	-11.7871
UP	-11.7872
▁chains	-11.7872
▁Greene	-11.7873
▁hollow	-11.7873
▁lady	-11.7874
▁Lebanon	-11.7875
▁1846	-11.7877
▁lord	-11.7877
▁Fight	-11.7882
▁lyric	-11.7883
▁abundance	-11.7884
▁Heat	-11.7884
▁Forever	-11.7888
▁labell	-11.789
▁hung	-11.7891
▁insect	-11.7893
▁Damascus	-11.7895
▁Fernand	-11.7895
▁Exe	-11.7896
▁Wend	-11.7897
lly	-11.7899
▁analyst	-11.7901
▁CM	-11.7904
▁122	-11.7904
tia	-11.7905
▁cottage	-11.7905
▁coronation	-11.7905
▁na	-11.7906
som	-11.7906
▁developments	-11.7914
uga	-11.7915
▁Cover	-11.7915
▁Falcon	-11.7916
▁Humphrey	-11.7916
▁reply	-11.7918
▁pi	-11.7919
▁116	-11.7921
▁viral	-11.7923
▁Brett	-11.7925
▁Rupert	-11.7927
▁humour	-11.7927
▁offspring	-11.7927
▁stump	-11.7927
▁exhibits	-11.7928
▁bail	-11.7929
▁Strike	-11.7929
▁alternat	-11.7929
▁ethic	-11.793
▁concurrenc	-11.7932
▁barge	-11.7935
▁rib	-11.7937
▁enterprise	-11.7938
▁Hastings	-11.7939
sworth	-11.794
inal	-11.7942
▁Hir	-11.7942
ecology	-11.7943
OR	-11.7945
▁jam	-11.7948
▁luxur	-11.7948
▁Hundred	-11.7949
▁Sil	-11.7951
▁FC	-11.7951
ashi	-11.7952
▁orbits	-11.7953
▁Fine	-11.7953
▁Ober	-11.7953
▁Shan	-11.7953
▁nesting	-11.7958
▁Pha	-11.7958
▁unconscious	-11.7959
▁palm	-11.7962
▁Sud	-11.7962
▁devil	-11.7963
▁testifie	-11.7963
▁beds	-11.7963
▁assured	-11.7964
▁cite	-11.7964
▁Kiel	-11.7968
▁miniature	-11.797
▁Stockholm	-11.797
▁Speak	-11.7971
▁Fil	-11.7972
▁Vita	-11.7974
law	-11.7974
▁contractor	-11.7975
▁resource	-11.7976
▁dreams	-11.7977
▁cure	-11.7978
▁ingredient	-11.7981
▁victorious	-11.7981
▁Hampton	-11.7981
▁dioxide	-11.7982
▁resemblance	-11.7983
iri	-11.7985
▁Socialist	-11.7988
▁grants	-11.7989
▁Use	-11.799
▁Chetnik	-11.7992
▁Viking	-11.7993
▁diesel	-11.7995
▁imply	-11.7996
▁1832	-11.7997
▁broadside	-11.7999
NG	-11.7999
▁Vera	-11.7999
▁IU	-11.8001
▁periodical	-11.8002
▁definitive	-11.8003
▁Michaels	-11.8004
▁crowds	-11.8005
PS	-11.8007
▁chip	-11.8008
▁deer	-11.8017
ept	-11.8017
▁AI	-11.8017
hel	-11.8022
▁Halloween	-11.8025
▁Wil	-11.8027
▁Jets	-11.8027
▁colleges	-11.8031
▁Doll	-11.8034
▁Safety	-11.8036
▁gr	-11.8036
gra	-11.8042
raz	-11.8042
stat	-11.8043
▁Ut	-11.8043
▁dismissal	-11.8046
▁Sanskrit	-11.8047
▁reddish	-11.8047
▁Covenant	-11.8047
▁Specie	-11.8047
▁Albanian	-11.8047
▁feedback	-11.8048
▁ankle	-11.805
▁doll	-11.8051
▁mourn	-11.8054
▁Language	-11.8058
▁pagan	-11.8058
▁oath	-11.8058
▁Gris	-11.8059
▁persistent	-11.8059
▁mari	-11.8059
▁princess	-11.8062
▁crossover	-11.8062
apoli	-11.8067
mir	-11.8067
▁Thirty	-11.8069
▁forget	-11.807
▁Ern	-11.807
▁Sn	-11.8071
wl	-11.8075
iac	-11.8079
▁Core	-11.8081
▁Lac	-11.8082
▁dramatical	-11.8083
▁Hai	-11.8085
▁Slam	-11.8086
▁bicycle	-11.8086
▁Kind	-11.8087
▁cooler	-11.8089
▁courage	-11.8089
▁livestock	-11.8094
▁Fuji	-11.8098
▁Fuller	-11.8098
▁Gear	-11.81
▁intensive	-11.8102
▁humorous	-11.8105
hang	-11.8105
▁Grande	-11.8108
▁Kit	-11.811
ache	-11.8111
▁prose	-11.8111
eck	-11.8111
▁Worcester	-11.8112
▁Luck	-11.8115
▁conven	-11.8116
▁fragment	-11.8118
atus	-11.8124
▁Brisbane	-11.8124
▁hiatus	-11.8124
▁abbey	-11.8124
▁Cedar	-11.8126
▁Henri	-11.8127
▁Lim	-11.8128
▁Saints	-11.8132
▁fi	-11.8134
▁infra	-11.8134
▁surpass	-11.8135
▁empower	-11.8135
key	-11.8136
▁138	-11.8136
▁eighteenth	-11.814
▁Give	-11.814
▁Galli	-11.8144
rell	-11.8144
▁Scientific	-11.8146
▁Approximate	-11.8146
▁cheek	-11.8146
wel	-11.8147
▁murders	-11.8147
asco	-11.8148
▁Aside	-11.8149
▁Animation	-11.815
yama	-11.8152
▁drops	-11.8156
▁smash	-11.8157
▁camouflage	-11.8157
▁Election	-11.816
▁remaster	-11.8162
▁omitt	-11.8163
kha	-11.8163
▁Path	-11.8163
▁peers	-11.8164
▁fires	-11.8164
▁posthumously	-11.8164
▁Andre	-11.8166
▁elimination	-11.8167
▁Cardinal	-11.8167
▁backdrop	-11.8168
▁pride	-11.8169
▁EMI	-11.817
▁Mau	-11.8173
wind	-11.8173
▁Yoko	-11.8173
▁sleeve	-11.8179
▁accusations	-11.8182
▁Fri	-11.8182
▁Yoshi	-11.8184
▁dispos	-11.8188
▁frontal	-11.8189
▁Academic	-11.819
▁Adolf	-11.819
▁degenerat	-11.819
▁Wildlife	-11.819
▁bike	-11.8193
▁charting	-11.8194
anu	-11.8194
▁Select	-11.8195
▁Animal	-11.8196
▁mating	-11.8199
▁Raider	-11.8199
▁Beatty	-11.8204
▁Gott	-11.8204
▁arche	-11.8207
acy	-11.8211
▁metaphor	-11.8212
▁Shackleton	-11.8213
▁profound	-11.8213
▁intervene	-11.8219
▁boxes	-11.8219
▁heroine	-11.8225
▁Charter	-11.8225
▁1853	-11.8228
▁Tara	-11.823
▁replay	-11.8232
phon	-11.8234
▁guerrilla	-11.8235
▁recipe	-11.8235
otta	-11.8236
▁Winston	-11.8242
▁Yale	-11.8243
▁Cinema	-11.8244
▁Seas	-11.8246
▁penalt	-11.8247
▁elevator	-11.8249
▁calculation	-11.825
70	-11.8251
▁renovat	-11.8252
▁temper	-11.8256
▁Crime	-11.8256
▁operators	-11.8256
▁gal	-11.8259
▁skilled	-11.8259
▁counterpart	-11.8259
▁Rep	-11.826
▁constitut	-11.826
▁tenant	-11.826
olithic	-11.8265
▁stanza	-11.8268
▁141	-11.8269
▁Stern	-11.827
▁ancestr	-11.8271
cid	-11.8272
▁op	-11.8272
▁Cubs	-11.828
▁var	-11.8281
▁catalogue	-11.8282
▁makeup	-11.8283
▁melodic	-11.8286
▁doubles	-11.8287
▁metallic	-11.829
Neill	-11.8291
▁scratch	-11.8291
▁Orlando	-11.8291
▁stalk	-11.8291
▁molar	-11.8291
▁clone	-11.83
▁surgeon	-11.8301
▁pistol	-11.8302
▁Juliet	-11.8304
▁statistical	-11.8304
▁shake	-11.8305
▁lineage	-11.8307
▁Ride	-11.8309
beck	-11.8311
▁Loch	-11.8313
▁Kapoor	-11.8313
▁jealous	-11.8313
▁thread	-11.8313
▁froze	-11.8313
▁Numero	-11.8314
▁abortion	-11.8315
▁curricul	-11.8317
▁Sharp	-11.8319
▁mon	-11.8321
▁trainer	-11.8322
▁sil	-11.8323
ify	-11.8324
▁wildlife	-11.8325
▁Lei	-11.8329
▁Supporting	-11.8329
▁polls	-11.833
▁Wool	-11.8336
ð	-11.8336
▁Investigation	-11.8336
llo	-11.8339
oggett	-11.8341
▁Bergen	-11.8341
▁Bent	-11.8344
▁Transit	-11.8345
met	-11.8347
▁module	-11.8347
stad	-11.8352
FL	-11.8353
▁Dexter	-11.8358
▁Seymour	-11.8358
▁tent	-11.8359
▁adverse	-11.8359
credible	-11.8361
fest	-11.8364
▁Conan	-11.8368
▁Crisi	-11.8371
▁periodic	-11.8372
▁Kai	-11.8374
▁Baja	-11.8374
▁unprecedented	-11.8381
▁solitar	-11.8381
▁Cherry	-11.8383
TA	-11.8384
▁1841	-11.8387
llen	-11.8387
▁complaint	-11.8388
▁Warriors	-11.8388
▁namely	-11.8391
▁Leopold	-11.8392
▁zinc	-11.8392
▁Did	-11.8393
▁Armour	-11.8393
▁Oakland	-11.8396
asaki	-11.8397
amp	-11.8397
▁Believe	-11.8398
▁shade	-11.8401
▁Being	-11.8403
▁kidnapp	-11.8403
▁grenade	-11.8404
▁framework	-11.8405
▁Dixon	-11.8405
▁Smart	-11.8406
▁descriptions	-11.8406
▁curse	-11.8408
▁Pri	-11.841
▁Shane	-11.8411
▁119	-11.8412
▁Coalition	-11.8415
▁Knox	-11.8415
▁comparative	-11.8416
▁Working	-11.842
▁comeback	-11.8421
▁tele	-11.8423
▁mut	-11.8424
▁NC	-11.8425
▁brood	-11.8426
bell	-11.8429
▁limbs	-11.8429
▁hypha	-11.8435
▁certificate	-11.8438
▁courtyard	-11.8439
▁Albion	-11.844
▁Wilder	-11.8443
▁Campus	-11.8445
▁republic	-11.8447
42	-11.8447
▁conform	-11.8448
▁Hemingway	-11.8449
▁Previous	-11.8449
▁cinematic	-11.845
▁Welles	-11.8453
▁tablet	-11.8454
ucci	-11.8455
wyn	-11.8458
▁novelist	-11.8458
▁Belgrade	-11.8461
▁reclaim	-11.8461
▁horns	-11.8461
▁Arrow	-11.8462
▁Magnus	-11.8463
▁Troop	-11.8465
▁institute	-11.8465
▁frames	-11.8467
▁Yama	-11.8469
RI	-11.8469
▁dragg	-11.847
▁Sinatra	-11.8472
▁Carroll	-11.8473
▁optical	-11.8473
▁cri	-11.8474
▁Casting	-11.8475
GA	-11.8476
▁pond	-11.8476
▁1844	-11.8478
▁mac	-11.8478
Cube	-11.8479
▁Deal	-11.8479
▁clusters	-11.8481
▁liberat	-11.8482
▁befriend	-11.8484
▁smell	-11.8484
▁Arc	-11.8486
lip	-11.8491
▁bark	-11.8492
▁Mol	-11.8493
▁Tsar	-11.8498
▁Erin	-11.8499
illo	-11.8502
SC	-11.8505
sium	-11.8506
▁Harding	-11.8507
▁urging	-11.8507
▁patronage	-11.8509
▁resid	-11.8509
▁Kur	-11.8511
woman	-11.8511
▁Rein	-11.8512
▁Spur	-11.8515
continental	-11.8517
▁Note	-11.8517
▁Bir	-11.8518
▁frustration	-11.8518
▁satire	-11.8518
▁confession	-11.8522
▁Massa	-11.8528
▁Haiti	-11.8528
▁justifi	-11.8531
ander	-11.8532
▁gallon	-11.8532
▁overnight	-11.8534
pology	-11.8534
▁integration	-11.8536
▁Blade	-11.8536
▁Wheel	-11.8536
▁fare	-11.8537
▁Rosen	-11.854
▁Plain	-11.8545
▁Kannada	-11.8552
▁supernatural	-11.8552
▁pianist	-11.8553
▁weird	-11.8553
▁Than	-11.8553
▁fins	-11.8557
EC	-11.8558
▁tire	-11.8559
▁epi	-11.856
▁Dawson	-11.8564
▁stiff	-11.8564
▁balanc	-11.8565
▁cheat	-11.8566
▁maiden	-11.8566
▁Estate	-11.8567
▁su	-11.8571
▁roofs	-11.8571
occer	-11.8572
▁integral	-11.8573
▁synonym	-11.8574
▁Pradesh	-11.8576
▁listeners	-11.8576
▁gaso	-11.8576
▁chao	-11.8577
HA	-11.8577
▁Victory	-11.8577
▁Ferry	-11.8578
cott	-11.8579
▁Angels	-11.858
kind	-11.8581
▁hinder	-11.8583
▁binar	-11.8585
put	-11.8585
▁Sandy	-11.8586
owski	-11.8586
▁contemplat	-11.8587
▁overturn	-11.8587
▁naturalist	-11.859
▁caps	-11.8591
▁altar	-11.8593
▁Eyes	-11.8593
▁realism	-11.8594
▁Kahn	-11.8594
▁Troy	-11.8596
force	-11.8596
▁Fir	-11.8596
vant	-11.8596
▁rubb	-11.8596
▁Barton	-11.8597
▁Getty	-11.8597
▁Eleanor	-11.8599
▁turnpike	-11.8599
▁onset	-11.8599
▁1790	-11.8602
PI	-11.8604
▁analyz	-11.8608
▁Wednesday	-11.861
▁Wisden	-11.861
▁pile	-11.8613
▁MGM	-11.8614
▁Dry	-11.8619
▁Ah	-11.8621
peake	-11.8621
▁facial	-11.8622
▁Math	-11.8623
▁McLaren	-11.8623
▁Guam	-11.8623
▁aunt	-11.8624
▁Self	-11.8625
▁supervision	-11.8626
▁Gore	-11.8632
▁crazy	-11.8634
rina	-11.8634
▁Bronze	-11.8634
▁dealer	-11.8638
▁biology	-11.8642
▁ditch	-11.8645
▁congressional	-11.8645
▁maternal	-11.8645
▁hack	-11.8645
▁shower	-11.8646
▁dressing	-11.8646
wald	-11.8646
▁Prom	-11.8647
▁chronic	-11.8648
▁Bede	-11.865
▁overwhelm	-11.8651
▁laser	-11.8651
▁archbishop	-11.8655
GC	-11.8655
▁fond	-11.8657
▁Survivor	-11.8657
▁keeper	-11.8661
▁Fey	-11.8663
▁tears	-11.8663
stair	-11.8664
▁defining	-11.8666
bird	-11.8666
▁Present	-11.8667
▁scales	-11.8667
mere	-11.8668
▁Valentine	-11.8669
▁receptor	-11.8673
▁dish	-11.8673
▁Colber	-11.8676
gau	-11.8676
▁reside	-11.8677
▁investigator	-11.868
▁Amazing	-11.868
▁tidal	-11.868
▁asteroid	-11.868
▁knife	-11.868
▁1776	-11.8683
▁Mered	-11.8688
▁lend	-11.8689
▁persecution	-11.8693
▁Rao	-11.8702
▁Telugu	-11.8703
▁slipp	-11.8705
▁bust	-11.8706
▁Abd	-11.8706
active	-11.8707
▁Vick	-11.8708
▁Lay	-11.8711
ota	-11.8712
▁fad	-11.8714
▁Cage	-11.8715
▁Guerrero	-11.8715
▁Federer	-11.8715
▁correspondent	-11.8716
▁afraid	-11.8717
uchov	-11.872
▁Arabia	-11.8721
▁heroic	-11.8722
▁Blackburn	-11.8722
▁gag	-11.8722
▁Worker	-11.8723
▁Congo	-11.8724
▁Wave	-11.8724
▁Brewer	-11.8727
▁retrospective	-11.8727
▁pillar	-11.8728
▁sided	-11.8729
KO	-11.8729
▁reus	-11.8733
▁catche	-11.8733
▁Memor	-11.8737
▁awkward	-11.8739
▁Webb	-11.8739
lunar	-11.8739
▁Lab	-11.8741
hir	-11.8741
▁Rou	-11.8742
▁Cliff	-11.8744
▁propulsi	-11.8744
try	-11.8747
▁Gla	-11.8749
▁Wimbledon	-11.875
▁Clyde	-11.875
▁Casa	-11.8757
iro	-11.876
eum	-11.8762
▁Sheriff	-11.8762
▁elongat	-11.8762
▁173	-11.8762
▁sculptor	-11.8763
75	-11.8764
▁reunion	-11.8764
▁Hun	-11.8767
▁1837	-11.8767
▁gut	-11.8768
▁Traditional	-11.8772
▁continuation	-11.8773
▁fungi	-11.8774
LA	-11.8777
▁flock	-11.8777
▁Shark	-11.8777
▁grace	-11.8778
▁Touch	-11.8782
▁euro	-11.8782
▁gravitational	-11.8786
▁ladder	-11.8786
▁watche	-11.8786
▁drought	-11.8786
▁bulb	-11.8787
RT	-11.8791
▁inspect	-11.8792
▁moor	-11.8792
▁till	-11.8794
▁Solo	-11.8797
▁sulfur	-11.8798
▁vacant	-11.8798
▁filling	-11.8799
▁Support	-11.8802
▁beta	-11.8802
▁Sr	-11.8803
▁Nin	-11.8803
▁beer	-11.8804
▁pad	-11.8808
▁Zagreb	-11.8809
▁masterpiece	-11.881
DT	-11.8811
▁commence	-11.8812
▁Maggi	-11.8813
▁swor	-11.8814
▁affiliat	-11.8814
▁unbeat	-11.8816
▁prone	-11.8817
▁Representative	-11.8817
▁Broadcast	-11.8818
▁Element	-11.882
▁Vishnu	-11.8821
▁deity	-11.8824
▁hangar	-11.8824
▁Chain	-11.8825
▁summoned	-11.8826
▁mimic	-11.8826
▁prosecutor	-11.8827
▁Seth	-11.8829
▁Kha	-11.8831
▁dismantl	-11.8833
▁Era	-11.8833
▁Webster	-11.8833
▁menu	-11.8835
fused	-11.8839
▁Rh	-11.8839
▁drives	-11.8839
▁Sci	-11.884
obility	-11.8843
▁Gazette	-11.8845
▁partisan	-11.8845
▁Conrad	-11.8845
▁summon	-11.8846
▁ATP	-11.8849
▁Flower	-11.8853
▁handful	-11.8853
▁Monk	-11.8854
▁Sales	-11.8854
asa	-11.8854
boat	-11.8855
▁shutout	-11.8856
▁discourage	-11.8857
▁incumbent	-11.8857
▁Pot	-11.8857
uburn	-11.8862
▁Trent	-11.8865
▁recreation	-11.8865
▁Communications	-11.8867
▁Students	-11.8868
▁Sparta	-11.8868
▁fraction	-11.8869
▁textile	-11.887
▁Abdul	-11.887
▁detection	-11.8873
had	-11.8877
▁Guatemala	-11.888
▁Matilda	-11.8881
▁vigorous	-11.8881
▁mound	-11.8881
▁Biography	-11.8881
▁Fast	-11.8881
screen	-11.8885
▁Juda	-11.889
▁bug	-11.8892
▁collar	-11.8893
▁flavor	-11.8893
▁bunker	-11.8893
▁Fork	-11.89
▁lectures	-11.8901
▁catalog	-11.8902
▁Orkney	-11.8904
▁screw	-11.8904
▁affection	-11.891
ault	-11.8912
▁Legal	-11.8914
▁translate	-11.8914
▁snake	-11.8915
▁Trinidad	-11.8916
▁Tolkien	-11.8916
▁ineffective	-11.8916
▁envision	-11.8918
▁MC	-11.8919
▁Milne	-11.8921
▁scarce	-11.8923
▁Div	-11.8924
▁Dorothy	-11.8928
▁energetic	-11.8928
▁nutrient	-11.8928
▁trenche	-11.8929
▁repuls	-11.8929
▁embrace	-11.893
eux	-11.893
▁breathing	-11.893
▁Voyager	-11.8933
aut	-11.8934
▁revolve	-11.8935
▁diplomat	-11.8938
▁Brig	-11.8938
▁portraits	-11.8938
▁fairy	-11.894
▁fuselage	-11.894
▁immense	-11.894
▁verdict	-11.894
▁Crosby	-11.894
▁reproductive	-11.8941
enter	-11.8942
▁tables	-11.8944
▁lac	-11.8944
▁Gat	-11.8946
▁1839	-11.8946
▁remixes	-11.8949
▁plott	-11.8951
▁embrac	-11.8951
▁ecological	-11.8952
▁endemic	-11.8952
cio	-11.8955
aria	-11.896
▁Sinclair	-11.8964
▁technological	-11.8964
▁tragedy	-11.8964
▁Heinrich	-11.8964
▁cry	-11.8966
▁bankruptc	-11.8967
▁Locke	-11.8969
▁Kot	-11.897
▁Pole	-11.897
▁Syracus	-11.8976
▁Gaelic	-11.8976
▁embryo	-11.8977
▁spectacular	-11.8977
▁hik	-11.898
▁boil	-11.8984
▁steamer	-11.8985
▁Priv	-11.8986
AM	-11.8987
▁Expressway	-11.899
▁Chesa	-11.8991
▁vacation	-11.8991
▁strikeout	-11.8992
▁Jill	-11.8998
parts	-11.8998
▁por	-11.8998
▁Legislative	-11.9
nnes	-11.9001
▁Shawn	-11.9002
▁dialect	-11.9002
▁Airways	-11.9003
▁clade	-11.9003
▁Bois	-11.9004
▁Classical	-11.9007
crosse	-11.9008
▁obscure	-11.9009
▁Miz	-11.9012
▁Hutchinson	-11.9012
▁Architecture	-11.9013
▁Expo	-11.9015
▁devastating	-11.9015
▁mantle	-11.9022
▁viruses	-11.9022
▁Khrushchev	-11.9025
▁iPhone	-11.9025
mur	-11.9026
CL	-11.9027
▁reporters	-11.9027
▁evaluation	-11.9028
▁Taka	-11.9029
▁happening	-11.9031
▁Sesam	-11.9032
▁Dom	-11.9033
▁Cara	-11.9034
▁Felix	-11.9037
playable	-11.904
▁taxi	-11.904
▁Flow	-11.9044
▁rendering	-11.9044
▁hom	-11.9045
▁counterparts	-11.9047
▁faint	-11.9049
▁pipeline	-11.9049
owed	-11.905
uan	-11.9051
mani	-11.9051
▁Providenc	-11.9054
▁realise	-11.9054
▁460	-11.9055
▁pr	-11.9059
▁hydro	-11.906
rill	-11.906
▁debat	-11.9062
▁195	-11.9062
▁terminated	-11.9064
▁Vision	-11.9065
▁notorious	-11.9068
▁137	-11.9068
iti	-11.9069
▁168	-11.9069
uka	-11.907
▁motorcycle	-11.9073
▁suck	-11.9074
uz	-11.9076
▁Warrior	-11.9077
▁sketche	-11.9078
▁Finals	-11.9085
▁practis	-11.9085
▁valve	-11.9085
▁consume	-11.9086
▁Lambert	-11.9088
▁Dorset	-11.909
▁rebound	-11.9091
▁cope	-11.9091
▁unnecessary	-11.9092
▁beache	-11.9093
▁merchandise	-11.9095
▁Avenger	-11.9097
▁Herzegovina	-11.9097
▁Wembley	-11.9097
▁pedestrian	-11.9097
▁Pay	-11.9098
▁cavit	-11.9098
▁GameSp	-11.9099
VA	-11.9099
MG	-11.9101
▁barr	-11.9101
▁awaken	-11.9102
▁Pluto	-11.9105
▁keeps	-11.9106
▁Krusty	-11.911
▁tobacco	-11.911
▁millenni	-11.9113
▁spray	-11.9119
▁fu	-11.912
▁traffick	-11.9121
itchfork	-11.9122
▁stack	-11.9122
▁Midway	-11.9123
▁Bf	-11.9131
▁stealing	-11.9131
▁Southwest	-11.9132
▁Galve	-11.9132
▁depos	-11.9135
▁monopol	-11.9138
▁conception	-11.9144
▁pathway	-11.9145
▁McN	-11.9145
▁Squad	-11.9146
▁Wyoming	-11.9146
▁uncommon	-11.9146
▁airplane	-11.9148
▁Tub	-11.9148
hop	-11.915
▁1835	-11.9153
▁tun	-11.9154
oco	-11.9158
▁surfaces	-11.9158
▁Leipzig	-11.9158
▁curtain	-11.9158
▁subplot	-11.9158
▁pardon	-11.9159
▁Border	-11.9159
▁detain	-11.917
▁congress	-11.9171
▁repeal	-11.9171
▁Duch	-11.9171
▁126	-11.9171
enne	-11.9172
▁equit	-11.9173
▁Hur	-11.9175
▁Fel	-11.9177
▁Cer	-11.9179
▁Fra	-11.918
▁Sixth	-11.9182
▁Vernon	-11.9183
▁riots	-11.9184
▁imagine	-11.9186
▁Honey	-11.9187
▁trench	-11.9195
▁Agreement	-11.9195
▁François	-11.9195
▁prostitute	-11.9195
▁compelling	-11.92
▁Hep	-11.9201
▁nobles	-11.9201
▁Bou	-11.9205
▁recognise	-11.9207
▁NWA	-11.9208
zh	-11.9215
▁Declaration	-11.922
▁vinyl	-11.922
▁Keys	-11.9221
▁Fla	-11.9226
▁exam	-11.923
TO	-11.9232
▁militant	-11.9232
▁Wanderers	-11.9233
lop	-11.9233
▁verb	-11.9234
▁marginal	-11.9235
▁relegation	-11.9235
▁Tha	-11.9238
▁Mortal	-11.9241
finish	-11.9242
▁Gin	-11.9243
▁protester	-11.9244
▁Journey	-11.9244
▁amphibio	-11.9244
▁Shanghai	-11.9244
▁treason	-11.9245
udi	-11.9247
▁probe	-11.925
▁Warning	-11.9251
▁happens	-11.9254
dez	-11.9255
▁autonom	-11.9256
▁Randolph	-11.9257
▁Zimbabwe	-11.9257
▁Empres	-11.9257
▁Slayer	-11.9257
▁Shannon	-11.9258
▁integr	-11.9258
▁Nazis	-11.926
▁Hib	-11.9264
▁Kids	-11.9265
▁Dub	-11.9266
▁behave	-11.9266
▁Swa	-11.9266
▁carriage	-11.9266
▁Ok	-11.9267
▁Spike	-11.9269
▁invade	-11.927
▁meta	-11.9271
▁Stor	-11.9271
▁Kr	-11.9271
▁Queens	-11.9271
▁Aid	-11.9273
▁1799	-11.9274
▁oblig	-11.9276
▁Clarkson	-11.9278
▁Persians	-11.928
▁summ	-11.928
▁Himm	-11.928
▁Achievement	-11.9282
▁Offensive	-11.9282
▁Bates	-11.9283
▁Fighting	-11.9283
▁Croat	-11.9284
▁Rag	-11.9285
▁diverg	-11.9286
▁Tsu	-11.9288
▁Est	-11.9292
powder	-11.9292
grass	-11.9293
▁Tasmania	-11.9294
▁Aberdeen	-11.9294
▁pamphlet	-11.9294
▁Chemical	-11.9294
▁cardinal	-11.9294
▁Lana	-11.9298
▁Beer	-11.9298
▁1838	-11.9301
▁Eva	-11.9302
▁Pad	-11.9303
▁mod	-11.9303
shima	-11.9306
▁repetitive	-11.9306
▁wolf	-11.9306
▁Parish	-11.9308
æ	-11.9313
▁Cobb	-11.9314
▁regulat	-11.9316
▁rejection	-11.9317
▁Twilight	-11.9319
▁Smash	-11.9319
▁spill	-11.9319
▁bulkhead	-11.9321
▁Crusader	-11.9325
▁Goodman	-11.9328
▁Sher	-11.9328
▁visibility	-11.9331
▁Complex	-11.9331
92	-11.9334
▁Scene	-11.9336
▁Ada	-11.9336
bourne	-11.9337
anus	-11.9341
▁royalt	-11.9343
▁furni	-11.9344
▁tremendous	-11.9344
▁plasma	-11.9344
▁Jump	-11.9345
▁disappointing	-11.9346
suke	-11.9347
▁cop	-11.9347
gni	-11.9349
tip	-11.9351
▁Hits	-11.9352
▁Corr	-11.9355
▁Tide	-11.9356
▁Bahrain	-11.9356
▁dia	-11.936
▁Effects	-11.9364
▁Imp	-11.9364
▁Phase	-11.9365
▁Barrow	-11.9366
ž	-11.9369
▁ignit	-11.9369
▁supernova	-11.9369
▁Bayern	-11.9369
▁panic	-11.937
▁slate	-11.9371
▁Clo	-11.9373
aries	-11.9375
▁spike	-11.9375
▁Charle	-11.9376
▁1829	-11.9376
▁heated	-11.9376
▁Diva	-11.9377
▁Slant	-11.9381
pu	-11.9382
▁authoris	-11.9382
▁surname	-11.9382
▁isotope	-11.9383
▁sperm	-11.9383
▁precedent	-11.9384
cke	-11.9391
akh	-11.9392
▁Matsu	-11.9394
▁Batt	-11.9395
▁Mani	-11.9398
bie	-11.9399
▁Gerr	-11.9399
scu	-11.9399
▁din	-11.9403
cri	-11.9406
▁Vladimir	-11.9406
▁Silent	-11.9407
▁rematch	-11.9407
▁Plains	-11.9408
▁Mot	-11.9408
lé	-11.9409
▁cliff	-11.941
assett	-11.9411
▁divorc	-11.9411
▁124	-11.9413
mill	-11.9414
▁interfere	-11.9415
▁grape	-11.9416
▁analyse	-11.9417
▁Exchange	-11.9419
▁Shepherd	-11.9419
▁intimidat	-11.9419
▁melting	-11.942
▁Trevor	-11.942
▁vowel	-11.9421
▁305	-11.9421
▁Nag	-11.9421
litz	-11.9423
oria	-11.9424
▁Moreno	-11.9424
▁Watts	-11.9425
run	-11.9425
hoe	-11.9427
▁clinic	-11.9429
▁legendar	-11.943
▁gram	-11.943
ddy	-11.9431
▁Julius	-11.9432
▁LGBT	-11.9432
▁Testament	-11.9432
▁fiscal	-11.9432
▁Rom	-11.9432
▁sparrow	-11.9432
▁Pil	-11.9433
▁Ville	-11.9434
▁cheese	-11.9435
▁wheels	-11.9435
▁Belt	-11.9436
ann	-11.9437
nick	-11.9437
▁alpha	-11.9438
▁lure	-11.9439
▁Rin	-11.9439
▁Something	-11.9441
▁stint	-11.9444
▁cockpit	-11.9444
▁Egg	-11.9444
▁trunkline	-11.9445
▁XII	-11.9445
▁summariz	-11.9447
igh	-11.9448
▁Davidson	-11.9452
ë	-11.9453
▁MCC	-11.9454
▁mills	-11.9454
▁globe	-11.9457
▁olive	-11.9457
▁Duff	-11.9459
▁economical	-11.9459
▁Ted	-11.946
▁Vir	-11.9462
▁Institution	-11.9463
▁corners	-11.9464
▁Carson	-11.9465
▁scroll	-11.9469
▁Ukraine	-11.9469
▁unchang	-11.9469
▁Geography	-11.9469
▁Detective	-11.9469
▁utilize	-11.947
▁Boone	-11.9474
▁rag	-11.9476
0	-11.9476
izz	-11.9477
▁Ett	-11.9477
mine	-11.9478
▁odds	-11.9479
▁nave	-11.9481
▁liberty	-11.9482
▁Basil	-11.9482
▁Glory	-11.9483
▁pray	-11.9485
▁Booker	-11.9489
▁composing	-11.949
▁shout	-11.9491
breaking	-11.9494
▁eponymous	-11.9495
▁relic	-11.9495
▁aquatic	-11.9495
▁pension	-11.9495
▁moistur	-11.9495
▁Emergenc	-11.9496
utter	-11.9497
▁Salford	-11.9498
▁Hel	-11.95
▁saga	-11.95
▁unifi	-11.9501
▁statues	-11.9501
▁angles	-11.9506
▁entit	-11.9506
▁prosecut	-11.951
▁1842	-11.9512
▁alike	-11.9514
▁norm	-11.9514
▁potas	-11.9515
▁disposal	-11.9515
▁HV	-11.9516
▁Wo	-11.9516
▁reorganiz	-11.9518
▁Letter	-11.9519
▁Undertaker	-11.952
▁fountain	-11.952
▁mercenar	-11.952
▁inflation	-11.9522
▁litter	-11.9523
▁sculptures	-11.9527
▁Lil	-11.9529
▁Extra	-11.953
▁Jesuit	-11.9533
▁Nigel	-11.9534
▁Dome	-11.9534
▁Smok	-11.9536
▁outflow	-11.9539
▁admiral	-11.9541
▁Dad	-11.9541
▁Germanic	-11.9542
wig	-11.9543
▁123	-11.9543
▁formats	-11.9543
▁Battery	-11.9546
▁exotic	-11.9546
▁Mit	-11.9546
▁anarchist	-11.9548
▁Rough	-11.9549
▁Looking	-11.9551
▁bend	-11.9552
▁Ladies	-11.9552
▁Clare	-11.9555
▁Copenhagen	-11.9558
▁Glacier	-11.9558
▁disastrous	-11.9558
▁pigment	-11.9559
▁rigid	-11.9559
▁ODI	-11.9561
▁Mara	-11.9564
▁Coll	-11.9565
▁artifacts	-11.9567
▁Chin	-11.9567
▁Northumberland	-11.9571
▁pavilion	-11.9571
▁Dru	-11.9571
▁destructive	-11.9571
▁amidship	-11.9572
▁duel	-11.9573
▁AS	-11.9573
care	-11.9573
▁undis	-11.9579
▁Killer	-11.9581
▁Presbyterian	-11.9584
▁denot	-11.9584
▁martin	-11.9584
▁Aston	-11.9584
▁Nicole	-11.9584
▁Chess	-11.9584
▁outward	-11.9586
▁Wan	-11.9588
▁Charit	-11.9592
▁boast	-11.9597
▁sheriff	-11.9597
rad	-11.9597
zan	-11.9597
▁Bombay	-11.9597
▁Cannon	-11.9597
▁sandwich	-11.9597
▁interfer	-11.9598
IC	-11.9598
▁dishe	-11.9598
▁bubble	-11.9602
▁Bha	-11.9605
rup	-11.9606
▁compensate	-11.9607
▁Alder	-11.9608
▁1⁄2	-11.9609
▁1843	-11.9612
▁480	-11.9613
▁Sig	-11.9614
anda	-11.9615
▁Prinz	-11.9622
▁agenda	-11.9622
▁granite	-11.9622
▁Regular	-11.9622
▁originate	-11.9624
▁attest	-11.9627
▁pa	-11.9629
▁Maha	-11.9629
▁appreciation	-11.9629
▁Kenya	-11.9629
▁Ang	-11.9631
▁probable	-11.9634
▁Metallica	-11.9635
▁Religion	-11.9635
▁academy	-11.9635
▁robust	-11.9635
▁database	-11.9635
▁storytell	-11.9635
▁Yucat	-11.9635
ural	-11.9641
▁Chambers	-11.9642
oun	-11.9642
▁distributor	-11.9643
▁Borg	-11.9647
CR	-11.9648
▁Success	-11.9648
▁convex	-11.9648
▁Dock	-11.9648
▁slaughter	-11.9649
▁township	-11.965
▁Taf	-11.9651
▁Rating	-11.9653
▁Stark	-11.9654
▁Artists	-11.9654
▁Bend	-11.9655
▁synthesiz	-11.9657
▁reprise	-11.9658
▁guardian	-11.9658
▁Transylvania	-11.9661
▁unrelat	-11.9661
▁Sing	-11.9664
▁Said	-11.9666
▁Eigh	-11.9666
▁copi	-11.9667
▁1815	-11.9667
▁sounding	-11.9668
▁410	-11.967
▁Ari	-11.967
▁solv	-11.9671
63	-11.9671
▁Till	-11.9673
▁Advisor	-11.9674
▁Idaho	-11.9674
▁static	-11.9674
▁Gr	-11.9674
retace	-11.9674
▁worm	-11.9674
WR	-11.9674
55	-11.9678
▁flora	-11.9678
▁Cairo	-11.9678
▁inscribed	-11.9679
▁renumbering	-11.9681
▁coinage	-11.9681
▁USAF	-11.9682
▁Bosnian	-11.9684
▁Sign	-11.9685
▁cylindric	-11.9686
keeper	-11.9687
▁Elvis	-11.9687
▁Brooke	-11.9687
▁mercur	-11.9687
▁McCa	-11.9687
▁otter	-11.9688
etch	-11.9689
▁procession	-11.9689
▁Beta	-11.9692
▁verbal	-11.9693
opo	-11.9696
▁Galaxy	-11.9699
▁Eleven	-11.9699
▁Converse	-11.97
▁lightning	-11.9702
jima	-11.9703
▁Middleton	-11.9705
▁Noble	-11.9708
▁Tele	-11.9709
▁Characters	-11.9712
▁Ambassador	-11.9712
▁Dust	-11.9715
▁Mala	-11.9717
fried	-11.9717
▁posting	-11.9724
▁Kali	-11.9724
▁cuisine	-11.9725
▁Character	-11.9726
kill	-11.9726
▁claw	-11.9727
tron	-11.9729
▁index	-11.973
▁Sora	-11.9731
wer	-11.9737
▁lighthouse	-11.9738
▁Winnipeg	-11.9738
▁Hag	-11.9739
▁Isabella	-11.9739
▁Dunn	-11.9739
eman	-11.974
bot	-11.9741
▁eclipse	-11.9741
flu	-11.9742
SR	-11.9743
▁graph	-11.9744
▁casual	-11.9747
▁Styles	-11.9748
▁AIF	-11.9751
▁antenna	-11.9751
▁Search	-11.9752
dong	-11.9755
▁Walsh	-11.9756
▁wise	-11.9756
▁airplay	-11.9757
mut	-11.976
▁tides	-11.976
▁Economy	-11.9764
▁imminent	-11.9764
▁supreme	-11.9764
▁aristocrat	-11.9764
▁Observatory	-11.9764
▁inherent	-11.9764
▁microphone	-11.9764
pil	-11.9766
▁stellar	-11.9767
▁Nile	-11.9774
▁shoes	-11.9775
SP	-11.9776
▁tutor	-11.9777
▁Experience	-11.9777
▁substrate	-11.9777
▁Animals	-11.9778
▁Ibn	-11.9778
▁Supp	-11.9778
▁Mart	-11.978
▁Mika	-11.978
nese	-11.978
▁flatten	-11.9781
▁Paint	-11.9782
▁columnist	-11.9785
▁squa	-11.9788
▁Noel	-11.979
▁Commerc	-11.979
▁Relations	-11.979
▁rerout	-11.9791
▁ge	-11.9792
▁lip	-11.9793
▁wetland	-11.9794
▁stronghold	-11.9794
face	-11.9797
▁Boo	-11.9799
▁144	-11.98
▁Bloom	-11.9801
▁hostilities	-11.9803
▁outskirt	-11.9803
▁Policy	-11.9804
wicz	-11.9804
▁Bab	-11.9805
▁choreography	-11.9806
▁Iranian	-11.9806
▁manipulat	-11.9807
ved	-11.9808
▁missionaries	-11.9808
lau	-11.9809
▁Neville	-11.9809
▁interr	-11.9809
visible	-11.981
▁dub	-11.9811
▁initiate	-11.9814
jar	-11.9814
▁Enter	-11.9816
▁Tuesday	-11.9816
▁baptism	-11.9819
▁Factor	-11.982
▁shy	-11.9821
▁cruis	-11.9821
▁graz	-11.9823
▁starv	-11.9826
▁interception	-11.9826
▁Weston	-11.9828
▁Roe	-11.9828
LI	-11.9829
▁Physical	-11.983
fjord	-11.983
▁Casino	-11.983
▁companions	-11.9832
▁Ace	-11.9833
▁129	-11.9835
▁logg	-11.9835
▁ignore	-11.9837
▁Appeals	-11.9838
▁beneficia	-11.9839
▁pig	-11.984
▁depriv	-11.9841
AF	-11.9842
▁Memphi	-11.9843
▁passionate	-11.9844
▁Ton	-11.9844
▁accession	-11.9845
▁poets	-11.9846
▁NES	-11.9849
▁nude	-11.985
▁polluti	-11.985
▁diocese	-11.9853
▁holy	-11.9853
▁Herman	-11.9853
▁Progress	-11.9855
rand	-11.9856
▁Platinum	-11.9856
▁Venetian	-11.9856
▁Einstein	-11.9856
▁mascot	-11.9856
hPa	-11.986
▁terrace	-11.9862
▁Luz	-11.9862
▁Stanton	-11.9862
▁Diet	-11.9867
▁Av	-11.9867
▁practitioner	-11.9869
▁furious	-11.987
▁shin	-11.9871
▁exert	-11.9871
▁oval	-11.9872
▁Levine	-11.9873
▁Europa	-11.9873
▁1794	-11.9873
▁Malaysian	-11.9874
▁enjoyable	-11.9875
▁interven	-11.9876
▁Municipal	-11.9877
▁reissue	-11.9878
▁cart	-11.9879
▁defendant	-11.988
▁sophomore	-11.9882
▁Elm	-11.9889
▁Nico	-11.9889
▁Shankar	-11.9889
▁dislike	-11.9894
▁Promotion	-11.9895
▁Revival	-11.9895
▁eruptions	-11.9896
rik	-11.9896
▁gem	-11.9897
▁primate	-11.9898
▁Dee	-11.9898
▁quad	-11.9899
rak	-11.9902
▁revive	-11.9906
city	-11.9906
rought	-11.9907
▁allegiance	-11.9908
▁crust	-11.9908
▁magnet	-11.9909
▁Madras	-11.9909
ethanol	-11.9909
▁Smyth	-11.9909
▁Help	-11.9909
▁Randall	-11.9909
rama	-11.991
gli	-11.9913
▁Comb	-11.9915
eller	-11.9916
glades	-11.992
▁Seventh	-11.992
▁Financial	-11.9922
▁Influence	-11.9922
▁dissolution	-11.9922
▁Micke	-11.9923
▁reinstat	-11.9923
inae	-11.9926
▁marching	-11.9926
43	-11.9928
▁patche	-11.993
▁Mariah	-11.9931
▁footballer	-11.9931
▁san	-11.9932
▁infinite	-11.9932
▁downward	-11.9933
▁stair	-11.9934
▁magistrate	-11.9935
▁Tudor	-11.9935
ello	-11.9939
▁1798	-11.9941
▁Fre	-11.9941
▁Alexandra	-11.9942
▁Heroes	-11.9942
▁Gab	-11.9944
▁Armor	-11.9945
▁Factory	-11.9946
▁Vermont	-11.9949
▁Folk	-11.995
▁Ai	-11.995
▁Eg	-11.9953
▁Naka	-11.9955
▁Godwin	-11.9956
▁consoles	-11.9957
▁bind	-11.9958
▁stallion	-11.9961
▁fiber	-11.9962
▁Ox	-11.9962
▁guess	-11.9962
▁geological	-11.9963
▁outage	-11.9964
▁parachute	-11.9965
▁commissioner	-11.9965
chon	-11.9965
▁gra	-11.9966
▁Vis	-11.9967
aro	-11.9969
▁Whig	-11.9972
▁Agriculture	-11.9975
▁Cartoon	-11.9975
▁Rotten	-11.9975
▁Nickel	-11.9976
▁proto	-11.9977
▁stemm	-11.9979
▁850	-11.9979
▁Vale	-11.9979
▁Strange	-11.998
▁penetrate	-11.9984
▁AR	-11.9987
▁Bismarck	-11.9988
▁astronaut	-11.9988
▁prolific	-11.9988
▁Habsburg	-11.9988
▁Illustrated	-11.9988
non	-11.9988
▁anxiet	-11.9988
▁boycott	-11.9988
▁slender	-11.999
▁Course	-11.999
▁propell	-11.999
▁Bol	-11.9991
▁Syn	-11.9995
▁Earp	-11.9997
▁Rivera	-11.9998
▁capp	-11.9999
▁slogan	-12.0001
▁prevalent	-12.0002
▁problematic	-12.0002
cover	-12.0003
▁canyon	-12.0003
▁Gaming	-12.0004
▁Bard	-12.0004
▁classroom	-12.0004
▁Lakers	-12.0005
▁Beau	-12.0007
card	-12.0007
▁acquir	-12.0008
▁Pakistani	-12.001
lett	-12.0012
▁chronicler	-12.0013
▁necessitat	-12.0013
▁pseudonym	-12.0015
▁Batista	-12.0015
▁psychedelic	-12.0015
▁ram	-12.0016
▁Shock	-12.0016
▁entertain	-12.002
▁coincide	-12.002
▁indie	-12.002
▁Phillip	-12.0021
▁Greenland	-12.0021
▁Landing	-12.0023
▁235	-12.0024
▁Boom	-12.0025
IA	-12.0028
▁coffin	-12.0028
▁Cai	-12.0033
▁plateau	-12.0034
▁Mitch	-12.0038
▁Barker	-12.0038
▁ego	-12.0039
▁compress	-12.004
▁Restoration	-12.0041
▁erod	-12.0043
62	-12.0047
tim	-12.0048
▁monk	-12.0052
▁Lyrical	-12.0052
dorf	-12.0053
▁painful	-12.0057
nthology	-12.0058
▁Fac	-12.0059
CU	-12.0059
wide	-12.006
▁devotion	-12.0061
▁Locat	-12.0064
▁Marion	-12.0065
±	-12.0068
▁Holiday	-12.0068
▁incarnation	-12.0068
▁Clarence	-12.0068
▁grammar	-12.0068
▁Kumar	-12.0069
▁Doom	-12.0069
▁hotels	-12.007
▁postseason	-12.007
▁Tro	-12.0071
phone	-12.0073
▁Cell	-12.0075
▁Til	-12.0075
▁Brain	-12.0076
▁Nai	-12.008
▁cartridge	-12.0082
▁Harald	-12.0082
▁truncat	-12.0082
gie	-12.0083
▁scal	-12.0083
▁critique	-12.0083
LR	-12.0085
▁Poly	-12.0085
▁prescrib	-12.0089
▁Rus	-12.0089
▁Erle	-12.0092
▁rabbit	-12.0094
▁Lt	-12.0095
▁lizard	-12.0095
▁clue	-12.0096
▁outnumber	-12.0098
▁disappearance	-12.0098
▁manifest	-12.0098
▁boring	-12.0098
▁Burges	-12.01
lac	-12.0101
▁Walton	-12.0103
▁distort	-12.0104
▁cal	-12.0105
▁Pix	-12.0107
▁Moffat	-12.0108
▁Rainbow	-12.0109
▁Albania	-12.011
▁Boot	-12.0113
chel	-12.0113
SL	-12.0115
▁barrage	-12.0123
▁Messi	-12.0123
▁Compt	-12.0126
▁terminate	-12.0128
▁Highland	-12.0129
gio	-12.0129
▁1819	-12.013
▁Gai	-12.013
▁repris	-12.0133
▁Amsterdam	-12.0135
▁spoil	-12.0135
▁Vulcan	-12.0135
rself	-12.0136
▁ecclesiastical	-12.0137
tow	-12.0137
▁obscur	-12.0139
▁earl	-12.0139
▁lone	-12.0144
▁migrat	-12.0145
usch	-12.0147
borg	-12.0148
▁civic	-12.0149
▁uncomfortabl	-12.0149
▁complications	-12.0149
▁staging	-12.0149
▁Lip	-12.0149
▁clearance	-12.0151
CD	-12.0151
▁Ono	-12.0155
▁1814	-12.0155
▁Gibbs	-12.0157
▁temperat	-12.0157
▁fringe	-12.0161
▁Cunningham	-12.0162
▁tragic	-12.0162
▁Facebook	-12.0163
▁Ronnie	-12.0163
▁archipelago	-12.0166
▁Enem	-12.0167
▁Groen	-12.0168
▁Bono	-12.017
▁rework	-12.0172
▁associations	-12.0174
nen	-12.0174
▁CA	-12.0175
▁iPad	-12.0176
▁crude	-12.0176
DI	-12.0177
▁oxidation	-12.0177
titude	-12.0178
▁Rita	-12.0179
▁wit	-12.018
▁aims	-12.0182
uxiliary	-12.0187
▁Luther	-12.0188
▁Bog	-12.0189
icus	-12.0189
▁vitamin	-12.019
▁outpost	-12.019
▁Hawke	-12.019
▁Elector	-12.0191
▁justify	-12.0192
▁overlapp	-12.0192
▁plat	-12.0193
reafter	-12.0198
▁Goldman	-12.0198
▁Quick	-12.0201
▁Devils	-12.0202
▁Ill	-12.0203
▁Shirley	-12.0204
▁advise	-12.0208
nberg	-12.0211
▁Describ	-12.0211
▁Oldham	-12.0212
ND	-12.0217
▁drastic	-12.0217
▁Thomson	-12.0218
vor	-12.0218
▁mammal	-12.0219
matsu	-12.022
▁screenwriter	-12.022
▁Coke	-12.0221
80	-12.0223
▁Rest	-12.0224
▁SK	-12.0227
▁diploma	-12.0228
▁pp	-12.0229
leut	-12.0229
▁Congressional	-12.023
▁Cartman	-12.023
▁380	-12.0231
▁wheat	-12.0231
▁Lam	-12.0231
▁portal	-12.0231
▁Taunton	-12.0231
▁205	-12.0235
▁retailer	-12.0236
▁Geneva	-12.0236
enau	-12.0239
▁Lad	-12.0242
escu	-12.0244
▁propagat	-12.0244
▁Breath	-12.0245
▁Guin	-12.0251
▁dye	-12.0251
▁Shot	-12.0253
▁Bryant	-12.0255
▁aggression	-12.0258
▁sixteenth	-12.0259
▁loans	-12.0259
ctor	-12.0259
▁Patricia	-12.026
▁swimmer	-12.026
▁underway	-12.0261
ozo	-12.0262
▁trustees	-12.0265
▁Leafs	-12.0266
▁Gy	-12.0267
▁Alec	-12.0267
▁beak	-12.0268
▁Peggy	-12.0268
▁den	-12.027
▁obsolete	-12.0271
▁illusion	-12.0271
▁Landmark	-12.0272
▁idol	-12.0272
▁BL	-12.0275
oxide	-12.0275
▁Mona	-12.0277
▁anticipation	-12.0278
▁158	-12.028
aceae	-12.0281
scope	-12.0282
~	-12.0285
▁Olivier	-12.0285
▁Trouble	-12.0285
▁composite	-12.0286
▁flexibl	-12.0287
ree	-12.0289
▁1810	-12.029
▁Bruno	-12.0292
▁Jacobs	-12.0293
works	-12.0295
▁Kel	-12.0295
▁Fitzgerald	-12.0299
▁Rebecca	-12.0299
▁Rodgers	-12.0299
lsewhere	-12.0299
▁Nuclear	-12.0299
▁Dominion	-12.0301
▁throws	-12.0303
▁Frost	-12.0303
▁Rockets	-12.0305
▁fabric	-12.0306
▁inhibit	-12.0306
▁builder	-12.0309
▁NHC	-12.0309
NO	-12.0309
856	-12.0309
▁amass	-12.031
▁Resolution	-12.0313
▁conscience	-12.0313
▁linguistic	-12.0314
▁Lombard	-12.0316
▁Abb	-12.0317
▁Reporter	-12.0321
MT	-12.0322
▁Colony	-12.0322
▁midfielder	-12.0325
▁contender	-12.0325
▁gill	-12.0326
▁Naples	-12.0326
▁Rebellion	-12.0326
▁Salvador	-12.0326
▁scripts	-12.0327
▁endorsement	-12.0327
vil	-12.0329
GI	-12.0332
▁Cret	-12.0335
▁Wise	-12.0335
▁pend	-12.0338
▁Romeo	-12.034
▁Dickinson	-12.034
▁Everett	-12.0342
ère	-12.0343
▁fixture	-12.0346
▁Tea	-12.0346
▁Sophia	-12.0348
NS	-12.035
▁Gl	-12.035
▁files	-12.0352
▁Moe	-12.0353
▁Shear	-12.0353
▁Literature	-12.0354
▁algorithm	-12.0354
▁feast	-12.0354
▁Evolution	-12.0355
▁redevelopment	-12.0355
▁Por	-12.0356
▁bounc	-12.0357
▁adjoin	-12.0368
▁Marlborough	-12.0368
▁shatter	-12.0368
▁rallie	-12.0368
▁Keynes	-12.0368
▁wan	-12.0368
▁referenc	-12.037
▁addiction	-12.037
▁rid	-12.0371
▁disguise	-12.0373
▁execute	-12.0376
▁cater	-12.0376
▁illuminat	-12.0379
▁Climate	-12.0381
▁Medieval	-12.0381
▁numerical	-12.0381
▁Jenny	-12.0382
▁Sava	-12.0385
▁Operational	-12.0385
▁pl	-12.039
AD	-12.0393
▁spear	-12.0394
link	-12.0395
▁Census	-12.0395
▁Pioneer	-12.0395
▁Relief	-12.0395
▁barbette	-12.0396
fight	-12.0396
▁canvas	-12.0396
▁Tomato	-12.0397
▁axe	-12.0397
▁Wilkinson	-12.0397
amo	-12.0399
▁1775	-12.0399
▁Abov	-12.0401
nica	-12.0405
MO	-12.0407
▁rhyme	-12.0408
▁constraints	-12.0409
▁cooperative	-12.041
▁honey	-12.041
▁Murder	-12.0411
rius	-12.0411
▁necessit	-12.0411
satisfied	-12.0411
▁bodi	-12.0415
▁truce	-12.0416
ED	-12.0418
▁emblem	-12.0418
▁Wilde	-12.0419
▁eccentric	-12.042
▁Kol	-12.0423
▁fauna	-12.0423
▁refrain	-12.0423
▁implied	-12.0423
▁staircase	-12.0423
▁keel	-12.0423
▁Hole	-12.0424
▁Majest	-12.0427
omi	-12.0428
▁Comet	-12.0429
▁Hair	-12.043
▁deepen	-12.0431
rash	-12.0431
▁McCoy	-12.0434
▁Taking	-12.0436
▁bribe	-12.0437
▁Veteran	-12.0437
▁Period	-12.0437
▁Canning	-12.0438
asi	-12.0439
▁facto	-12.0439
▁Hornet	-12.044
▁146	-12.0441
▁endur	-12.0445
▁Ashe	-12.0446
▁Fortress	-12.0447
▁Cock	-12.045
▁Clifton	-12.0451
▁suffrage	-12.0451
▁vaccine	-12.0451
▁Sarawak	-12.0451
▁Picard	-12.0451
▁broadcaster	-12.0451
▁proponent	-12.0452
▁passive	-12.0452
▁guideline	-12.0453
▁Santia	-12.0455
▁1792	-12.0456
▁downgrad	-12.0456
▁clips	-12.0456
nard	-12.0459
▁Pond	-12.046
▁Coal	-12.0461
▁Mort	-12.0463
▁Brussels	-12.0465
▁acquitt	-12.0465
▁pivot	-12.0465
▁Timoth	-12.0465
▁Cumberland	-12.0465
▁Flat	-12.0466
bee	-12.0467
▁Lud	-12.0468
▁Moses	-12.0469
▁225	-12.0471
▁Cind	-12.0474
isco	-12.0477
▁Certain	-12.0479
▁Milwaukee	-12.0479
▁licence	-12.0479
▁repertoire	-12.0479
▁McClellan	-12.0479
▁casino	-12.0479
written	-12.048
▁Payne	-12.0481
▁Driver	-12.0481
ista	-12.0482
▁Image	-12.0483
▁Pig	-12.0486
▁Multi	-12.0489
▁distribute	-12.0491
▁PopMatters	-12.0493
▁disadvantage	-12.0493
▁sermon	-12.0493
▁Borneo	-12.0493
▁Chat	-12.0497
▁chloride	-12.0498
▁MW	-12.0498
▁Creation	-12.0498
▁Satan	-12.0499
▁redesignat	-12.0503
▁offend	-12.0505
▁crab	-12.0508
▁Weng	-12.0509
▁Alb	-12.051
bet	-12.0512
▁rod	-12.0513
▁Royalist	-12.0513
▁Breed	-12.0516
▁disruption	-12.0517
▁Sz	-12.0518
▁approve	-12.0518
▁Bag	-12.0518
▁142	-12.052
▁Fowler	-12.0521
▁Legislature	-12.0521
▁epidemic	-12.0521
▁Jur	-12.0523
▁ITV	-12.0524
▁Freeman	-12.0527
▁Isabel	-12.0529
806	-12.0529
▁mortal	-12.0532
▁comedic	-12.0533
▁susceptib	-12.0535
▁parrot	-12.0535
▁Ain	-12.0536
▁Fal	-12.0539
▁nurs	-12.0539
▁Mean	-12.0543
▁mounting	-12.0544
oro	-12.0546
▁Braves	-12.0547
▁hierarch	-12.0549
▁Avatar	-12.0549
employment	-12.0549
▁pope	-12.0549
alagasy	-12.055
▁Fab	-12.0556
▁Novel	-12.0559
▁Jew	-12.0559
▁Moss	-12.0561
▁consum	-12.0561
▁Dirt	-12.0562
▁scuttl	-12.0563
▁midst	-12.0564
▁Gaul	-12.0566
wear	-12.0566
▁farthe	-12.0568
▁Flor	-12.0569
▁catcher	-12.0569
▁explode	-12.0571
▁1500	-12.0572
cystidi	-12.0574
▁sighting	-12.0574
▁Rider	-12.0576
▁167	-12.0577
▁Flotilla	-12.0577
▁embedded	-12.0577
▁sneak	-12.0577
▁equation	-12.0577
▁Writer	-12.0578
▁aspir	-12.058
▁Chance	-12.0581
▁Merc	-12.0582
▁Parent	-12.0583
▁Biden	-12.0583
▁Rule	-12.0584
▁markings	-12.0585
▁inhibitor	-12.0586
pit	-12.0588
birds	-12.0588
▁Marty	-12.0589
▁vague	-12.0591
▁Beaver	-12.0591
▁Chopra	-12.0592
▁franc	-12.0592
▁inheritance	-12.0594
▁nineteen	-12.0595
▁ob	-12.0595
istice	-12.0595
▁dash	-12.0598
▁consort	-12.0601
▁pitt	-12.0605
▁epithet	-12.0605
▁Terror	-12.0605
▁psychology	-12.0605
▁Cromwell	-12.0606
▁Chaplin	-12.0606
▁mega	-12.0606
▁asylum	-12.0606
▁breakaway	-12.0607
▁sew	-12.0607
▁dams	-12.0609
▁confirmation	-12.0611
lith	-12.0611
grove	-12.0611
▁Teen	-12.0612
AP	-12.0613
▁Theme	-12.0614
▁retract	-12.0615
▁Mae	-12.0615
▁pod	-12.0616
▁Tracks	-12.0617
but	-12.0619
▁Analysi	-12.0619
▁advent	-12.0619
ī	-12.062
▁Okinawa	-12.062
▁crane	-12.0621
▁Shad	-12.0621
▁firearm	-12.0622
▁Advanc	-12.0625
blew	-12.0625
lice	-12.0626
▁Š	-12.0627
▁deserve	-12.0629
▁comput	-12.0629
dict	-12.063
drich	-12.0632
recht	-12.0635
nium	-12.0639
▁barb	-12.0639
▁reel	-12.064
▁Compar	-12.0641
▁Mono	-12.0641
[...]
