<bos> bos_id
<pad> pad_id
<eos> eos_id
<unk> unk_id
,
.
the
in
of
and
die
der
to
und
a
is
that
zu
for
den
von
ist
on
für
an
mit
with
(
das
The
)
be
are
auf
des
as
I
-
eine
this
es
Sie
im
:
it
nicht
werden
&quot;
we
ein
by
have
dass
dem
sich
not
Die
you
wir
will
auch
which
or
at
from
was
sind
wird
has
als
um
s
In
can
ich
oder
all
our
-@@
also
haben
über
European
so
einer
/
er
hat
!
?
sie
&apos;
wie
einen
zur
aus
Das
bei
Union
your
&apos;s
its
Ich
können
–
We
am
but
one
would
more
einem
’
their
been
nach
This
zum
It
Wir
diese
uns
nur
durch
should
kann
Mr
Der
un@@
;
dieser
de
very
Commission
must
do
...
Es
us
vor
daß
they
Kommission
er@@
there
noch
new
“
wurde
other
time
S@@
only
like
EU
aber
ver@@
about
Hotel
Herr
B@@
wenn
man
sehr
sein
o
müssen
President
s@@
an@@
k@@
t@@
these
en@@
te
T@@
P@@
t
ten
who
en
up
war
no
diesem
alle
if
A
e
K@@
H@@
in@@
out
mehr
%
any
Europäischen
ab@@
Europe
re@@
C@@
into
were
people
G@@
D@@
ing
2
Parliament
bis
M@@
möchte
L@@
F@@
p@@
such
eines
f@@
what
d@@
1
use
States
than
b@@
countries
report
ed
Member
my
vom
need
A@@
ihre
when
his
most
some
Präsident
well
gibt
now
hotel
first
unter
z@@
sowie
work
dieses
g@@
R@@
make
E@@
them
Council
many
important
able
W@@
N@@
y
c@@
between
hier
system
way
ge@@
n@@
e@@
take
because
m@@
zwischen
muss
3
m
Ver@@
Bericht
keine
„
unsere
ein@@
An@@
al@@
he
ch@@
da
made
information
Ihnen
Parlament
o@@
V@@
ers
years
just
If
had
support
i@@
l@@
anderen
st@@
two
&#91;
&#93;
ation
over
el@@
world
those
Mitgliedstaaten
where
al
Wenn
Europa
aus@@
ung
”
immer
dies
v@@
i
h@@
policy
dann
end
being
y@@
Im
el
di@@
O@@
even
ar@@
or@@
may
diesen
gegen
Ab@@
damit
me
u@@
wurden
sch@@
a@@
Diese
good
5
d
right
see
Frau
year
order
4
Zeit
area
ent@@
es@@
le
Ihre
j@@
unserer
de@@
ter
here
habe
r@@
part
place
You
seine
same
market
jedoch
l
through
sondern
after
Sch@@
Europäische
possible
own
neue
As
10
auf@@
be@@
ate
I@@
&amp;
J@@
.@@
Menschen
heute
There
political
on@@
li@@
could
ungen
used
vor@@
Jahr
then
economic
For
Z@@
development
want
k
et
gen
within
bereits
zu@@
rights
how
both
finden
against
europäischen
find
mich
sollte
much
at@@
international
therefore
Jahren
ihrer
neuen
ti@@
ro@@
ts
ohne
ungs@@
w@@
under
si@@
andere
does
country
point
denen
room
public
Rat
Ein@@
zwei
without
sollten
Entwicklung
ge
et@@
Frage
service
services
um@@
last
allen
number
great
machen
ganz
bietet
still
free
available
ri@@
geht
em@@
e-@@
Mit
different
liegt
fact
view
Aus@@
sten
social
n
viele
say
course
am@@
Ein
Welt
already
Unternehmen
6
th@@
before
future
believe
dazu
too
get
That
la
know
ar
weil
today
über@@
Er@@
jetzt
wieder
products
enden
St@@
In@@
3@@
U@@
ur@@
30
set
20
But
per
denn
seiner
ens
cannot
ischen
case
think
Informationen
2009
Lage
darauf
day
Vor@@
process
ab
Bereich
data
her
is@@
g
dis@@
offers
op@@
level
einige
se
ad@@
Maßnahmen
ische
schon
city
dafür
selbst
ob
human
ated
So
rooms
Commissioner
quality
ern
sp@@
situation
financial
during
Al@@
le@@
ihren
Jahre
ihr
best
geben
national
Herrn
high
it@@
bin
Eine
issue
Dies
example
mir
Arbeit
viel
debate
said
bar
allem
means
every
small
7
question
würde
ra@@
liche
Our
including
meine
gut
ale
proposal
However
since
st
help
All
wollen
sagen
business
Land
unseren
go
each
Für
ent
form
access
offer
long
ende
problem
Und
China
em
stehen
lo@@
ch
kommen
Zimmer
etwas
clear
während
position
wo
8
ag@@
tes
S
particular
Länder
os
stellen
nun
lassen
Wie
waren
möglich
areas
doch
ins
give
next
few
measures
15
common
provide
agreement
Committee
4@@
co@@
put
as@@
bi@@
seit
energy
taken
2@@
based
On
citizens
2010
large
insbesondere
lichen
p
�
ensure
z
lich
again
ant
sehen
systems
erhalten
ter@@
back
three
steht
come
Unterstützung
us@@
ersten
C
&#124;
Rahmen
further
Art
problems
security
eren
ol@@
company
change
Ländern
Un@@
Y@@
far
T
Internet
Zusammenarbeit
ic
du
while
2008
Parlaments
x
Teil
using
necessary
50
ber@@
beim
why
ating
given
however
shall
ak@@
besteht
located
politischen
sk@@
stay
ni@@
To
Fall
vote
soll
Vorschlag
With
life
f
ie
ste
They
less
cooperation
einfach
ul@@
tun
needs
eg@@
Bei
always
group
At
Stadt
Group
down
And
seinen
real
law
Fragen
wichtig
im@@
ja
deren
Problem
drei
ly
einmal
hope
wäre
USA
United
Ziel
letzten
Namen
main
gen@@
qu@@
action
dabei
au@@
km
better
c
Bürger
ations
X@@
b
12
EU-@@
What
around
ap@@
men
House
ert
Kollegen
5@@
x@@
ac@@
zi@@
große
con@@
Mar@@
working
power
großen
unter@@
did
worden
ma@@
ke
bringen
protection
Daten
Was
end@@
Recht
Auf
r
Verfügung
System
D
production
weiter
18@@
Er
Ihr
programme
current
welche
special
Seite
Bedeutung
These
Community
become
ings
est@@
om@@
Aber
US
legal
Sicherheit
u
ä@@
Auch
When
centre
terms
present
E
der@@
open
ine
together
Möglichkeit
land
whether
trade
che
ere
particularly
wissen
another
di
old
chen
eigenen
full
age
gehen
page
9
children
é@@
bieten
Nach
management
result
Regierung
basis
que
Als
*
100
Sp@@
Mrs
muß
vi@@
conditions
Ar@@
2007
region
Thema
th
issues
davon
könnte
ene
alles
Re@@
mo@@
ates
daher
Probleme
aller
companies
ed@@
kein
sh@@
-S@@
ous
state
darüber
experience
sen
site
weitere
Kunden
Staaten
ens@@
befindet
certain
führen
Weise
control
ten@@
6@@
Kommissar
se@@
ger@@
water
sowohl
B
Politik
line
second
den@@
women
O
Ihrer
role
various
erreichen
po@@
her@@
2000
Di@@
especially
industry
whole
German
ted
modern
sector
les
besonders
really
ans
Euro
eb@@
Ende
est
hatte
close
government
matter
meiner
done
making
Zukunft
ec@@
health
ei@@
7@@
look
local
private
wirklich
account
ting
Be@@
Service
unterstützen
unser
25
location
Beispiel
stellt
+
19@@
ihnen
natürlich
budget
create
entfernt
innerhalb
verschiedenen
name
specific
global
inter@@
vielen
staff
Germany
00
respect
gegenüber
research
days
Rolle
Richtlinie
major
going
Auf@@
isch
software
P
Weg
internationalen
million
ut@@
ir@@
möchten
Pro@@
Con@@
ser@@
2006
a-@@
kommt
_
away
zwar
something
8@@
pro@@
Ihren
project
several
itself
off
ger
continue
Frauen
ot@@
ck@@
ze
hand
direkt
enen
europäische
rapporteur
dort
resolution
ex@@
crisis
re
politische
Hotels
Tag
often
ask
000
Seiten
tions
excellent
la@@
range
ur
EUR
ler
erste
regard
hi@@
ne
ob@@
start
wish
gentlemen
Mo@@
gi@@
Alle
Hier
least
New
ve
general
Um
ing@@
single
elle
transport
He
to@@
gel@@
11
h
following
9@@
rules
price
welcome
third
fully
growth
food
personal
ors
money
directive
Programm
little
once
Artikel
environment
Meinung
found
Über@@
per@@
online
let
Ma@@
stand
subject
bo@@
Uhr
all@@
list
ally
no@@
nehmen
towards
beiden
until
Lösung
product
so@@
institutions
things
customers
Situation
ü@@
unserem
res@@
World
fast
arbeiten
pro
Madam
Li@@
No
tra@@
Region
field
Fraktion
for@@
Dieses
M
Zusammenhang
gesagt
increase
F
ieren
individual
him
au
cht@@
Ro@@
thank
version
ci@@
family
standards
opportunity
tr@@
Hilfe
Produkte
Co@@
®
weniger
Treaty
los
par@@
ons
town
pl@@
40
Th@@
rather
&apos;t
iert
positive
quite
Bo@@
activities
building
ati@@
home
design
Präsidentin
wei@@
Mittel
Arbeits@@
ber
call
approach
jeder
aid
ce
side
interest
2005
un
provided
Leben
bitte
gilt
resources
Deshalb
value
bel@@
art
ö@@
daran
erte
Haus
L
forward
schen
technology
Unter@@
yet
economy
mi@@
ds
schaffen
sogar
etwa
bzw.
period
halten
An
key
solution
Grund
ne@@
Members
light
agree
ges
play
September
might
wi@@
include
Um@@
gemacht
Millionen
R
nen
ic@@
hinaus
dessen
taking
ru@@
X
Europas
members
macht
alen
indem
rate
decision
times
International
ding
among
having
ladies
minutes
En@@
Schutz
After
ek@@
State
costs
ung@@
due
proposals
allow
points
nämlich
Haupt@@
ep@@
One
amendments
Unsere
Dieser
content
led
Ch@@
Deutschland
man@@
framework
safety
2004
24
ass@@
ets
Kinder
ebenfalls
via
ha@@
mon@@
Ex@@
18
words
car@@
reason
14
air
ellen
ator
Kon@@
ihn
makes
einigen
y-@@
enjoy
progress
tri@@
called
0@@
website
cht
zen
adopted
text
rei@@
seinem
show
eln
ment
chten
Par@@
brauchen
ou@@
and@@
gute
ary
Mon@@
&apos;@@
unterstützt
provides
left
hin@@
effective
difficult
il@@
Zu@@
ihm
TV
sicher
é
others
eh@@
darf
Rates
t-@@
Website
easy
projects
ia
Punkt
legislation
setzen
Aussprache
Personen
views
opinion
ischer
darin
Form
16
results
favour
politik
above
application
Qualität
known
contact
ach@@
responsibility
Finanz@@
öffentlichen
ster
attention
policies
Berlin
groups
sen@@
simply
Software
tion
Restaurant
addition
á@@
beautiful
non-@@
gh@@
concerned
gerade
dürfen
questions
ken
short
Da
su@@
meisten
glaube
behalf
del
EN
kon@@
nationalen
je
ideal
2003
ben
war@@
Wirtschaft
genau
station
jeden
.com
tige
nichts
Ri@@
Abstimmung
importance
licher
ability
ches
keinen
tischen
G
pre@@
av@@
alten
sollen
ihrem
ina
society
complete
ts@@
ell@@
strategy
Gemeinschaft
ant@@
she
greater
Rechte
over@@
cultural
handelt
erten
weiterhin
ß@@
ad
ance
Grund@@
zurück@@
zusammen
training
ell
environmental
klar
ete
sea
Ebene
betrifft
cher
ra
ago
Ort
along
do@@
statt
natural
13
Inter@@
required
kind
nach@@
sei
La
principle
ier@@
heart
bedeutet
tigen
findet
step
pages
wichtige
recent
eten
recht
Gu@@
Bezug
d-@@
€
1@@
würden
breakfast
weit
bereich
nutzen
besten
ses
meeting
solche
besser
gestellt
deal
house
century
führt
deshalb
schnell
Gesellschaft
wide
Bi@@
under@@
durch@@
deutlich
clearly
address
min@@
ah@@
authorities
tive
ana
2001
plan
Qu@@
November
fall
Zugang
sure
aufgrund
sc@@
technical
user
besch@@
ef@@
Dank
Von
gehört
sprechen
Kosten
fen
achieve
solutions
Russia
Richtung
gu@@
nächsten
erst
lot
form@@
ev@@
enough
directly
K
10@@
past
employment
needed
facilities
essential
pool
hin
bekannt
serious
standard
bu@@
IT
-B@@
Markt
months
thing
feel
nature
person
bring
mer@@
developed
ative
allerdings
restaurant
history
mis@@
Her@@
Nähe
Bar@@
related
Ansicht
guests
60
risk
currently
car
Please
events
responsible
Aus
proposed
w
Umsetzung
ph@@
ters
eller
longer
markets
Ent@@
Menschenrechte
len
April
visit
requirements
central
ren@@
te@@
com@@
live
interests
ka
ure
N
ker
Rück@@
comes
night
parties
From
near
Windows
internal
comfortable
Ziele
ko@@
$
wer@@
fi@@
language
beispielsweise
voll
up@@
Ad@@
Vertrag
liches
hoffe
ded
please
themselves
Verfahren
Verantwortung
Version
ner
kl@@
sub@@
2002
lange
Rechts@@
werde
young
Bedingungen
involved
efforts
regions
gegeben
Am
0
extremely
democracy
‘
voted
pi@@
top
changes
ess@@
competition
Durch
ang@@
total
GmbH
notwendig
ran@@
verwendet
regulation
ca
str@@
Anwendung
strong
never
team
implementation
friendly
vielleicht
Interesse
cases
Demokratie
keep
gesch@@
gemeinsamen
kleinen
Ihrem
Vorschläge
Haushalts@@
V
tu@@
eri@@
ziehen
force
Grundlage
Po@@
Man
network
Reihe
Geschichte
Daher
à
freedom
event
peace
Herren
ever
Gebiet
upon
four
17@@
20@@
Möglichkeiten
är@@
bleiben
erreicht
ves
ff@@
Doch
though
wirtschaftlichen
sti@@
situated
chte
ma
lei@@
etc
democratic
France
ationen
works
spielen
sozialen
prices
af@@
act
rates
regional
..
zeigt
file
aten
either
könnten
oft
ok@@
negotiations
da@@
Lu@@
tische
Sicherheits@@
ity
space
developing
Debatte
Institutionen
created
bed
ging
AG
care
consider
unique
tern
true
wenig
education
looking
17
big
music
sion
Car@@
und@@
Or@@
bar@@
everything
80
share
material
Pi@@
almost
500
du@@
seen
mal
dar
Tri@@
states
held
request
thus
beach
erung
verschiedene
vier
ig@@
1.@@
Strategie
reform
success
improve
early
pay
ck
funds
verfügt
Bank
designed
additional
leben
parts
liegen
bei@@
meet
en-@@
ty
ER@@
fundamental
climate
road
hei@@
ho@@
cost
Bau@@
try
son
foreign
date
effect
according
Auswirkungen
200
famous
ermöglicht
Damen
red
type
American
ard
ER
soon
Minuten
Le@@
geb@@
links
term
unternehmen
Dienstleistungen
gemeinsame
Wirtschafts@@
hard
weltweit
included
actually
Dis@@
Berichterstatter
idea
Abkommen
hatten
helfen
receive
later
www.@@
bare
French
danken
Park
Israel
lichkeit
Presidency
understand
Ge@@
living
lead
Cor@@
Zu
lan@@
tion@@
mit@@
turn
accept
erforderlich
capital
Paris
v
direct
1999
Verhandlungen
Hinblick
low
Wasser@@
takes
program
wegen
Mitglieder
bus
Neu@@
appropriate
Programme
test
outside
ling
AN@@
workers
Tatsache
gesamten
Regionen
Geschäfts@@
users
bereit
tiger
tax
Man@@
investment
San
ence
sa@@
Rei@@
»
features
ebenso
ender
ways
entwickelt
Zentrum
Außerdem
einzelnen
Gruppe
reach
center
How
ents
og@@
gr@@
ft
amount
IN@@
procedure
run
Liste
o-@@
Schritt
hours
lin@@
weiteren
enn@@
oc@@
go@@
denke
cor@@
internationale
week
book
majority
Y
ann@@
gebracht
darum
Kolleginnen
doing
took
mu@@
í@@
card
16@@
fer@@
fragen
lu@@
communication
Ergebnis
Entscheidung
throughout
Mor@@
lässt
By
ties
ms
active
hätte
tic
across
jedem
guarantee
konnte
Bereichen
certainly
significant
ders
ari@@
traditional
Bel@@
ta@@
zeit
connection
ing-@@
br@@
final
Änderungsanträge
AR@@
legen
aware
Vereinigten
existing
Antwort
Umwelt@@
Platz
writing
…
befinden
mar@@
perfect
mentioned
Bu@@
gleichen
19
tragen
Krise
Blick
America
ente
Änderungsantrag
Turkey
Erfolg
Beziehungen
relations
Gr@@
auszu@@
out@@
context
media
performance
concerns
gab
des@@
leading
fahren
Bevölkerung
gleichzeitig
ges@@
geführt
men@@
sche
15@@
ast@@
AT@@
member
original
tig
initiative
wichtigen
read
gemeinsam
customer
z.B.
Preis
weiß
ver
ats
ette
eu@@
knowledge
My
military
s-@@
jede
zeigen
impact
Seit
add
body
walk
programmes
Tra@@
five
moment
Bar
built
&gt;
bekommen
er-@@
kleine
apply
Ausdruck
heißt
Unser
professional
although
Abgeordneten
Geld
bleibt
send
Aufgabe
sel@@
IS@@
Japan
21
board
wohl
game
2.@@
completely
population
Verbindung
Türkei
nothing
established
Minister
reasons
committee
=
includes
community
Si@@
allows
ern@@
Zum
verbunden
Government
fl@@
decisions
equipped
table
Einsatz
Mal
remain
concerning
stage
agreements
ano
Since
For@@
basic
Kontrolle
meinen
wor@@
code
Q@@
fin@@
baren
dern
Förderung
style
unseres
English
culture
70
än@@
enthalten
London
Su@@
practice
choice
lose
jobs
gestimmt
gern
Projekt
ang
me@@
sense
pp@@
Verordnung
partners
Court
gt
ones
model
Kar@@
Se@@
EN@@
bet@@
neu
Forschung
internet
party
tieren
Jahres
22
holiday
values
Ru@@
demand
received
equipment
Damit
IC@@
web
Lösungen
ta
simple
Wei@@
gest@@
De@@
develop
he@@
Information
bre@@
files
package
ales
applications
bl@@
jedes
cks
ise
integration
Let
W
Partner
dr@@
els
ations@@
hand@@
amm@@
ben@@
Erweiterung
potential
objectives
August
richtig
entire
Behörden
Com@@
Bitte
II
stop
wichtigsten
Entschließung
regarding
gra@@
move
nice
leg@@
gerne
Sh@@
face
IT@@
Nach@@
tre@@
park
ES
Iran
tur@@
Beitrag
pf@@
function
Lisbon
below
quickly
tiert
benefit
Nutzung
ST@@
mehrere
rund
va
bit
ade
gleich
Here
No@@
land@@
fight
focus
aim
ti
agricultural
12@@
ys
concern
Ausschuss
successful
East
Mi@@
image
fest@@
90
reports
hinsichtlich
versch@@
zurück
eigene
objective
ganze
enthält
pres@@
Du@@
fest
Russland
Steuer@@
treatment
check
ganzen
goods
South
seems
euro
ermöglichen
tz@@
derzeit
27
contains
AL@@
return
Per@@
app@@
ierung
May
ori@@
Landes
don
neben
Verbesserung
recently
wobei
governments
ness
Land@@
achieved
Vor
Markt@@
Finally
anzu@@
genommen
eng@@
indeed
press
enter
Ausschusses
ist@@
met@@
levels
vo@@
Text
ausge@@
Fl@@
mind
{
front
hotels
det
«
guest
mean
coming
enk@@
Ergebnisse
dar@@
June
Verbraucher
Welt@@
beginning
prevent
National
AS@@
fair
War@@
amp@@
enten
rest
huge
Angebot
series
added
Ni@@
Central
job
einzu@@
increased
keyword
al-@@
places
computer
rec@@
Gelegenheit
Vi@@
clean
Woche
völlig
Wort
isches
ange@@
asked
everyone
lack
co
note
Design
answer
Schaffung
verbessern
ei
presented
23
RE@@
alt@@
size
Ber@@
ality
Am@@
Darüber
ying
Verwendung
dialogue
anderer
14@@
office
Initiative
wirtschaftliche
Ko@@
Some
reviews
floor
ation@@
consumers
Regierungen
Mitarbeiter
fördern
ies
agreed
guten
entwickeln
shows
großer
verwenden
inc@@
relevant
rich
enz@@
il
highly
higher
tor
gs
Affairs
verfügen
best@@
balance
id
suchen
ES@@
PC
mat@@
direction
ks
lage
choose
gehören
sustainable
comp@@
rel@@
Ukraine
tung
carried
ändern
E-@@
ski
ech@@
por@@
complex
hal@@
ak
Mit@@
enable
gar
nimmt
Interessen
soziale
nuclear
Team
fünf
ore
half
bestehen
später
Bild
ierte
Familie
whose
Notwendigkeit
amendment
commitment
ators
dy
lines
Wert
ven@@
considered
zusammen@@
Now
Therefore
effects
principles
Zeitpunkt
Gen@@
Themen
shown
Server
tionen
ster@@
mer
sorgen
Änderungen
innovative
har@@
gl@@
travel
Spiel@@
Web@@
perhaps
cur@@
weise
300
ow@@
Frankreich
13@@
meinem
zunächst
City
EL@@
server
Hand@@
latest
Lo@@
Management
tatsächlich
UN@@
Barcelona
materials
Tage
EC@@
possibility
Erfahrung
H
setting
Of
schaft
cu@@
closed
matters
Organisation
Während
ship
tim@@
nie
Gesundheit
Kultur
Auswahl
Kur@@
former
thanks
anti@@
Person
verfahren
forms
}
Herzen
programm
status
angenommen
ments
Umgebung
Dabei
sites
opportunities
Sa@@
easily
cken
came
behind
Mai
Anfang
previous
Fahr@@
First
details
video
El@@
double
popular
Spain
accommodation
ou
Sozial@@
weiter@@
ins@@
pe@@
treffen
actions
increasing
pressure
reduce
schriftlich
AC@@
0.@@
promote
comm@@
speak
aspects
gleich@@
response
stark
charge
verstehen
lediglich
atmosphere
fe
reached
hohen
search
sch
bisher
partner
ino
prepared
ry
providing
ali@@
remains
—
Mitglied
äußerst
ess
Einführung
capacity
ör@@
Au@@
creation
ay@@
Sk@@
Africa
heit
joint
Kampf
Fach@@
Juni
gesamte
Kl@@
Article
ants
ps
ite
Gra@@
ris@@
1.
sur@@
eben
Anzahl
exchange
az@@
Meer
Aktivitäten
oil
billion
lang
external
efficient
somit
produced
British
Umwelt
Italy
bringt
submitted
ort
Also
Museum
commercial
cher@@
bank
bestimmte
limited
Wachstum
Sprache
Wahl
summer
gemäß
gewährleisten
industrial
Gäste
00@@
Lebens@@
supply
Prozess
gives
uses
falls
Systems
versuchen
ums
sm@@
fallen
sound
op
Wasser
protect
ces
mel@@
obwohl
Integration
mm
link
decided
oren
gesetzt
Por@@
funding
supported
Produktion
scheint
priority
ther@@
December
fordern
ub@@
U
и@@
cause
del@@
Hand
vers@@
leave
La@@
Amsterdam
US-@@
ton
Convention
bur@@
follow
bestimmten
ban@@
ving
property
safe
restaurants
Ta@@
Raum
island
Zahl
Dinge
Preise
Western
enlargement
Frei@@
ßen
Op@@
P-@@
independent
halte
geh@@
ie@@
Kommissarin
berg
bad
zahlreiche
Fortschritte
ierten
produce
Daten@@
civil
elt
Ger@@
Insel
Bekämpfung
largest
ill@@
Bei@@
pri@@
zweite
Natur
35
organisation
similar
Industrie
kan@@
option
Hoch@@
word
Erachtens
leicht
hohe
ee
ss@@
S-@@
consumer
ages
assistance
erster
tik@@
kt
ausgestattet
meines
systeme
CO@@
gas
Funktion
instrument
möglichkeiten
York
verb@@
mobile
größten
einschließlich
innen
Spiel
tet
source
log@@
steps
1998
creating
movement
ism
ek
Services
era
platz
apartment
außerdem
Entwicklungs@@
lung
Bestimmungen
Einzel@@
Erklärung
Position
pleased
aufzu@@
Jahrhundert
March
January
Dezember
Web
Stelle
bri@@
solchen
insgesamt
rule
brought
variety
UN
weisen
sagte
dadurch
regulations
führung
construction
Gar@@
General
airport
credit
frei
einzige
hr@@
weder
maßnahmen
Handel
Br@@
vergangenen
mein
Do@@
St.
tt@@
purpose
conference
October
Dialog
ourselves
Chi@@
zweiten
j
written
Today
message
chen@@
ay
ler@@
Nur
Gi@@
att@@
,000
activity
stability
Booking.com
Mehrheit
aufgenommen
structure
discussion
lies
teile
ese
became
instruments
Sal@@
Reg@@
instead
leider
abzu@@
Gewalt
distance
Linux
Anforderungen
Entscheidungen
hoch@@
paid
van
aler
ili@@
Investitionen
pa@@
Küche
Stunden
alt
relation
Strand
started
ären
distribution
study
Punkte
setzt
interesting
sei@@
sieht
Mal@@
Vorschriften
Kosovo
23@@
genießen
une
rise
ca.
Aufmerksamkeit
ines
lau@@
section
allowed
geschlossen
click
März
Gefahr
document
Gästebewertungen
4.@@
Party
stra@@
enti@@
agenda
ement
fishing
oll@@
Pal@@
leisten
ah
Energie
giving
Projekte
ble
lagen
ju@@
Grenzen
film
Handels@@
can@@
tool
Republic
bezüglich
legislative
Macht
regards
om
Club
statement
quiet
compromise
re-@@
ai@@
Tro@@
bevor
payment
benefits
Lei@@
schließlich
pass
Bereiche
base
concept
effort
ll@@
Center
Development
procedures
During
werk
Villa
konnten
trans@@
Wi@@
North
aktuellen
Freiheit
violence
DE
eingesetzt
round
damage
neuer
village
Folgen
weg
ground
tell
contribution
Many
zehn
imp@@
Italian
wenige
historical
July
operation
Nor@@
eigentlich
sent
CD
tig@@
extra
self-@@
growing
größte
met
lic@@
school
item
require
getan
Wettbewerb
stri@@
kosten
Regeln
bau@@
tro@@
Ben@@
Ne@@
drive
OS
ro
Hotel@@
Ac@@
operating
mann
Spanish
mittel
26
Landwirtschaft
entsprechend
sta@@
documents
Jo@@
Anfrage
wichtiger
digital
sports
king
mal@@
Frühstück
benötigen
At@@
integrated
provisions
Beschäftigung
ful
Rights
ath@@
durchgeführt
emp@@
Meine
europäischer
download
fer
Bad
Firma
tools
task
Reform
Oktober
28
types
na
criteria
kannst
Portugal
class
Linie
Zur
happy
Standpunkt
express
ste@@
Präsidenten
Bildung
voll@@
Höhe
changed
Business
So@@
forces
Du
45
tics
erwarten
Diskussion
zer@@
1,@@
wählen
Kor@@
immediately
Januar
alternative
box
Site
Nationen
dung
gefunden
University
got
nor
Although
Groß@@
build
genannten
challenges
allein
kurz
zwei@@
goes
ulation
six
official
Heute
highest
elements
wer
ür@@
eher
apartments
alte
Musik
draft
phone
equal
alität
train
Your
IS
od@@
Gemeinschafts@@
ihres
Centre
employees
ser
West
col@@
parking
Berichts
angesichts
sofort
transparency
ably
sor@@
ó@@
zer
annual
Tur@@
helpful
zei@@
Furthermore
avoid
Gründen
Fehler
Go@@
lower
star@@
tor@@
Transparenz
reading
ey
friends
Im@@
Sache
Flug@@
ap
gelten
sed
analysis
Sinne
öffentliche
Personal
erk@@
erneut
daily
Bemühungen
Ak@@
processes
applied
Öffentlichkeit
begrüße
offering
Ansatz
numerous
ll
1997
finally
consequences
iz@@
elections
teilen
ien
gro@@
bathroom
RO@@
reality
endlich
Schlusselwortern
Präsidentschaft
schi@@
Auffassung
uni@@
Sport@@
nahe
bau
historic
beh@@
West@@
geworden
review
poverty
requires
Bilder
Flughafen
He@@
talk
ics
speed
5.@@
B.
MP@@
conflict
beitragen
Kraft
efficiency
labour
beyond
entsprechenden
ini
sport
fort@@
morgen
offered
Verkehrs@@
gung
lernen
AD@@
Urlaub
tw@@
Tor@@
solidarity
hält
Kinder@@
Restaurants
diejenigen
modified
ungsp@@
ismus
colleagues
li
Ober@@
Fällen
fo@@
late
death
lat@@
saying
medi@@
genden
Room
Tr@@
persons
verhindern
expect
tions@@
bes@@
@
Do
Juli
Dateien
tisch
wine
poor
ideas
star
Lin@@
ast
Druck
paar
behandelt
Natürlich
Monaten
scher
fine
wanted
minimum
implemented
useful
port
pen@@
practical
gew@@
published
player
с@@
draw
hätten
Even
ots
get@@
Kultur@@
clients
freien
zone
Mediterranean
mor@@
the@@
oben
enst@@
Comp@@
shopping
erfolgt
See
volle
on-@@
stre@@
rä@@
terrorism
gem@@
establish
acc@@
ß
congratulate
illegal
tungs@@
Tagen
crucial
Selbst@@
Natur@@
Atmosphäre
Debian
Bürgern
news
tomorrow
carry
WTO
OR@@
learn
onen
secure
si
weeks
berücksichtigt
richtige
sales
Behandlung
Dar@@
­
Tagesordnung
comprehensive
To@@
ut
Pl@@
vergessen
wieder@@
Austria
Gesundheits@@
Tat
transfer
ett@@
tiges
lesen
fu@@
stimmen
net
While
eter
warum
Nr.
Den
lives
hinter
anderem
ical
organisations
besondere
hoch
minute
hold
reduction
starting
id@@
options
fa@@
sometimes
monitoring
LE@@
versucht
maximum
machine
Microsoft
deutschen
Stadt@@
int@@
modernen
3.@@
frei@@
Bürgerinnen
ear@@
stell@@
ley
Unter
vertreten
leaders
assi@@
reference
zahlen
morning
ology
sing
cal
A-@@
Änderung
bor@@
technischen
sal@@
folgen
reg@@
probably
Italien
Gro@@
überhaupt
worldwide
ack@@
Sicht
Staats@@
players
sektor
technologies
anything
Lissabon
voting
caused
ely
Lassen
Har@@
Basis
gar@@
Amendment
alone
schließen
Le
begin
frage
Republik
challenge
Is
dec@@
Chinese
gef@@
verantwortlich
29
month
historischen
Viele
stands
anders
gabe
Beginn
barkeit
ase
treten
plans
beste
Mag@@
enz
email
interested
tigung
gesehen
Aufenthalt
erklärt
una
tiv@@
Sti@@
Ressourcen
mp@@
Dr.
ven
street
Spanien
häufig
Fu@@
iger
erfolgreich
Tre@@
lösen
RA@@
Vergangenheit
neues
Finanzierung
200@@
games
head
ready
ron@@
Kunst@@
alisierung
Rechtsvorschriften
long-term
chance
gewesen
bin@@
vollständig
Konferenz
languages
Gesamt@@
zahlreichen
Luft@@
Technologie
erwartet
con
Bundes@@
mountain
win@@
Wochen
Datei
äre
ir
ada
waste
anischen
jeweiligen
welches
child
Berg@@
Wahl@@
ls
erfüllen
cities
farmers
Zweitens
gn@@
thought
IM@@
Airport
Bal@@
gli@@
#
super@@
cut
Gruppen
wahrscheinlich
unten
Forschungs@@
2-@@
wal@@
braucht
Erfahrungen
ously
release
asi@@
endes
banks
1996
Thank
ET@@
Moreover
lost
Fund
worked
´
Ur@@
Wel@@
I-@@
garden
sts
Schritte
extent
stelle
EC
geschaffen
Mess@@
FR
ures
methods
Ku@@
US@@
Vertrauen
ord@@
legt
zumindest
Inhalt
1-@@
Conference
relating
selection
accession
businesses
Werte
stets
accordance
advantage
genutzt
scientific
images
mention
method
schützen
walking
sectors
verpflichtet
genug
comfort
strategic
loss
green
Ti@@
Aspekte
Mittel@@
außerhalb
Energi@@
Herausforderungen
31
inn@@
Ho@@
zeit@@
z.
powers
tors
fields
ständig
despite
kennen
ame
Directive
Not
processing
kam
folgt
Einige
influence
Mat@@
Allerdings
32
harmon@@
5-@@
heutigen
denken
reichen
schaften
Russian
Wein@@
yp@@
seines
Angelegenheit
Dazu
privaten
bs
atic
Bur@@
letzte
plant
Beg@@
fish
motion
ass
raised
visitors
uss@@
menu
alis@@
hören
Fi@@
ig
art@@
Benutzer
innovation
Kunden@@
San@@
amerikanischen
Ireland
persönlichen
cli@@
Wohn@@
ue
Security
в@@
25@@
Only
separate
Gebäude
erlaubt
bessere
Public
trying
beg@@
post@@
doubt
Produkt@@
è@@
Parteien
Schwierigkeiten
ian
trotz
accepted
Obwohl
laufen
Berichterstatterin
implement
absolutely
Google
join
Besch@@
Ser@@
Falls
sechs
fil@@
Ö@@
ausschließlich
regime
75
Star
Staat
automatisch
gten
Spieler
Sonder@@
™
bilden
demands
justice
Neben
det@@
folgenden
°
Arbeitnehmer
zed
Hinsicht
vollen
affected
Min@@
vis@@
Secondly
ssen
overall
Dann
UK
Wer
scope
critical
ße
borders
schwer
²
negative
Milliarden
placed
е@@
Ihres
moderne
map
burg
ün@@
demokratischen
verkehr
Einrichtung
Folge
cover
cre@@
einge@@
More
far@@
ach
Praxis
Krieg
swimming
syn@@
oo@@
gekommen
contract
raum
ns
Vertreter
yourself
Prozent
ella
entscheiden
übernehmen
intended
Free
e-mail
zudem
aff@@
Its
running
usually
getting
SP@@
edi@@
wert
EM@@
Denn
bitten
о@@
Wunsch
30@@
Angelegenheiten
vol@@
Arbeitsplätze
rü@@
neu@@
beide
flexible
Grand
erinnern
Cas@@
Computer
heard
anti-@@
Opfer
Instrument
target
calls
love
suitable
Indeed
Aufgaben
bewusst
Afghanistan
а@@
hor@@
reforms
tel@@
Nord@@
Red
Station
not@@
Privat@@
begrüßen
Solidarität
deine
adopt
kaum
warm
Preis@@
currency
oni@@
arbeit
sa
gang
relationship
SA@@
char@@
erg@@
mainly
evening
allgemeinen
Frieden
usw.
administration
rich@@
laden
initiatives
committed
Z
erkennen
namely
offen
son@@
Systeme
increasingly
Ju@@
Pre@@
Organisationen
gelegen
fac@@
gebiet
our@@
cl@@
Hel@@
Armut
opening
President-in-Office
representatives
freuen
installation
terrace
maintain
Annahme
expressed
gender
El
traffic
bil@@
vital
3-@@
laws
planning
Leute
opp@@
Bus@@
normal
talking
etc.
Bet@@
border
ft@@
länder
Fest@@
proper
union
6.@@
stärker
Nun
uli@@
All@@
Erstens
ion
freie
bald
á
structural
darstellt
ational
zation
Verfassung
größere
mission
born
stress
improved
benutzt
Mu@@
Zusammen@@
students
vorgeschlagen
Bri@@
eindeutig
ara
families
Karte
approved
nu@@
Agenda
inf@@
Trans@@
tal@@
Sitzung
ture
goal
Col@@
elles
danke
ide@@
correct
automatically
plus
tigkeit
gende
Verpflichtungen
Met@@
nationale
comments
Hause
zusätzliche
Win@@
CH@@
Wieder@@
competitive
powerful
serve
zeiten
rechte
People
Zeit@@
Anstrengungen
Falle
chtung
industrie
confidence
Online-@@
tourist
le-@@
stellung
Funktionen
DVD
Costa
Idee
infrastructure
reduced
Iraq
unbedingt
globalen
India
fra@@
ov@@
decide
-T@@
za
fre@@
beginnen
schreiben
delivery
feature
tation
Protokoll
wider@@
entspricht
rechts
unemployment
Produktions@@
überzeugt
protected
Enterprise
Kriterien
lag@@
photo
collection
Partei
aktuelle
administrative
supports
cohesion
anten
Zustimmung
Wahlen
alism
400
Em@@
dan@@
gesprochen
4-@@
amen
š@@
began
hol@@
extensive
format
covered
sources
mindestens
ve@@
Mark@@
emissions
served
Informations@@
senden
circumstances
conclusion
gleiche
Ist
Wann
ado
Nations
Cre@@
founded
Vereinbarung
ani@@
Ä@@
well-@@
Verwaltung
mark
contribute
01
stand@@
fol@@
worth
Me@@
Osten
tour
Reformen
bra@@
ehr@@
pleasant
functions
ash@@
gezeigt
igen
ends
Office
Tier@@
genannt
Sub@@
ai
priorities
zug
vorgelegt
AM@@
electronic
generation
financing
likely
selbstverständlich
unterschiedlichen
ante
ank@@
introduced
UR@@
Ap@@
defined
Terrorismus
EL
Außen@@
else
Dem@@
Vorteile
screen
stable
Rec@@
prozess
sions
Gipfel
Not@@
schutz
ban
Just
gend
Sol@@
effectively
larger
ya
entsprechende
lin
Anerkennung
getroffen
Each
prüfen
white
encourage
speaking
says
glauben
rep@@
Bas@@
Prä@@
understanding
dra@@
Greece
Inhalte
ensuring
dringend
Hor@@
Sur@@
Eur@@
Val@@
DI@@
exist
off@@
Qualitäts@@
nisse
Produkten
crime
erwähnt
mehreren
Code
Technologien
Schul@@
risks
verfügbar
150
Stabilität
wünschen
managed
gerecht
Cal@@
itt@@
Haushalt
positions
Bor@@
Homepage
track
Binnenmarkt
in-@@
min
Kern@@
vel@@
Mc@@
nahme
whom
Hu@@
listed
Straße
opened
tliche
50@@
Swiss
PL
Besuch
Asia
Standard
War
ars
victims
dro@@
sol@@
ff
wonderful
detailed
played
etten
entry
mittel@@
wesentlich
Zudem
Produkt
pe
participation
Wer@@
Ausschuß
Why
optim@@
....
tabled
2020
appear
kre@@
E-Mail
langen
pat@@
aufge@@
ss
wo@@
fahr@@
berücksichtigen
eck@@
erfahren
agriculture
programs
hoffen
digen
IL@@
tru@@
Schließlich
record
Über
wrong
referred
animals
Sommer
gre@@
hinweisen
nachdem
discuss
ice
Volk
camera
kommenden
mm@@
paper
akzeptieren
exactly
Frankfurt
sis
stated
möglicherweise
debt
transparent
bestimmt
manner
1995
De
Zunächst
specifically
Then
sitting
air@@
limit
becoming
won
tigt
exp@@
Schw@@
Durchführung
regular
ire
ish
aimed
Mitteilung
partnership
income
expected
selected
ität
purposes
heraus@@
D-@@
beds
Plan
stat@@
aktiv
rat
benutzen
ME@@
metres
back@@
wa@@
linked
February
Gel@@
erzielt
wants
hen
votes
represents
Bild@@
developments
ha
és
discussed
rural
sicherzustellen
work@@
Chance
bestehenden
gelegt
Anwendungen
door
prä@@
Fin@@
besonderen
measure
markt
chts@@
Augen
zes
assessment
nt
ex
Autom@@
sec@@
Medien
Sea
went
Fre@@
Nicht
unver@@
richten
discussions
ato
zentrum
bal@@
lem@@
dienen
Unterkategorien
hot
eth@@
pol@@
scale
Suche
euch
marketing
geändert
tradition
hab@@
warten
sub-categories
т@@
adi@@
thousands
technische
nis
precisely
siehe
Einrichtungen
trägt
ID@@
spor@@
bedarf
DA@@
fellow
Apartments
police
Rooms
ener
spacious
inside
Sen@@
shop
sufficient
möglichen
cs
Nutzen
umgesetzt
plat@@
arbeitet
spend
Wettbewerbsfähigkeit
Del@@
Sektor
zuletzt
medical
person@@
vari@@
ark@@
enterprises
Haltung
otherwise
Str@@
yn@@
je@@
Te@@
introduction
sign
Standards
Ph@@
LA@@
earlier
wenden
notwendigen
kur@@
kitchen
operations
playing
finanziellen
essen
Kontakt
client
fahrt
Kunst
Social
Char@@
uren
followed
Middle
erungs@@
Agreement
Kal@@
dient
budgetary
exclusive
stoffe
л@@
Zeichen
achten
Einfluss
connected
facing
sion@@
pan@@
closely
elegant
erfüllt
Monate
Board
acts
Ausbildung
ently
winter
anderes
represent
fresh
eingerichtet
losen
eli@@
jene
stu@@
lä@@
co-@@
tional
path
NATO
considerable
nis@@
festgelegt
strengthen
rit@@
jederzeit
voller
buildings
Kat@@
ergreifen
Most
vermeiden
klicken
select
Switzerland
Best
Des@@
hour
Christian
nor@@
happen
24@@
д@@
Pol@@
beziehen
alismus
Green
She
Super@@
ists
institutional
save
stimme
degree
Kindern
Wor@@
Anspruch
shops
supporting
fe@@
darunter
ungs-
teil
John
haus
cy@@
tical
guidelines
ester
shower
hervor@@
ingly
Cam@@
geeignet
reisen
Anti@@
liber@@
Film
season
Schutz@@
verfolgen
Vielfalt
rück@@
en-
Meter
discrimination
so-called
Tran@@
Human
ige
shi@@
C-@@
wahr@@
rin@@
chs
jeweils
tlich
purchase
immigration
Innovation
improving
remember
äu@@
Vol@@
networks
Menge
cat@@
ON@@
telephone
High
außer
fying
IP
gan@@
7.@@
components
Ü@@
bek@@
tures
gte
handeln
angezeigt
Roma
mark@@
erhöhen
Video
speech
sicherheit
sicherlich
hear
daten
Policy
Konzept
übernachten
erzielen
His
Schweiz
experts
tungen
Webseite
Ha@@
http
broad
Czech
welcher
average
fun
Pri@@
entschieden
Leistungen
Mis@@
teilweise
Vertrags
cuisine
element
cards
Medi@@
Ski@@
bro@@
,@@
buy
cap@@
&apos;ll
speci@@
ik
entweder
funktioniert
e.g.
Spa
fied
tic@@
thinking
plants
Familien
gelangen
typical
Pa@@
besuchen
Uni@@
hon@@
tik
ory
Res@@
spricht
ically
teil@@
spielt
Stand
Post@@
suggest
ole
abge@@
tourism
Installation
sting
pu@@
wären
politischer
verbessert
gave
sted
seem
Economic
trust
inen
2011
properly
ki
Fischerei@@
Ei@@
web@@
Sprachen
gener@@
las
reception
Name
fällt
heiten
uns@@
Kan@@
items
las@@
ac
entirely
Unfortunately
Because
relate
presence
Verwaltungs@@
Instrumente
Februar
lungen
Jetzt
Abschließend
spar@@
asse
ec
Research
Wege
klare
provision
sagt
Hei@@
Warum
Stimme
ams
erleben
ID
competitiveness
aren
spirit
Bro@@
Pan@@
core
richtigen
gel
Veränderungen
Tätigkeit
Leider
Kenntnis
stock
ements
erungen
Garten
acht
generally
gri@@
-F@@
chtet
Vereinten
Internet@@
gebaut
Gesch@@
Berichte
Arbeiten
Poland
difference
ON
refer
dé@@
Click
tak@@
ane
Abschluss
ona
alised
schutz@@
presidency
My@@
werte
Forderung
ain@@
lands
trag@@
erstellt
bodies
Bra@@
Modell
assen
summit
display
Durch@@
IN
Initiativen
machines
actual
Plan@@
stärken
sage
Familien@@
houses
Brussels
mü@@
Best@@
Forum
speziell
reasonable
ausdrücklich
sive
Mitte
authority
prior
м@@
cra@@
vorgesehen
domestic
lichem
wollte
Vergleich
ologie
advanced
coordination
informed
zen@@
Zeiten
atische
cal@@
wel@@
Ren@@
dealing
dagegen
betonen
Bl@@
Vielen
PT
Adresse
ften
informieren
ination
port@@
wing
meetings
district
character
ery
Street
com
Regelung
Engagement
Teile
Once
win
fr@@
Abgeordnete
difficulties
95
Klein@@
Irak
vehicles
signed
parliamentary
Ausgaben
animal
stor@@
Besucher
condition
cia
experienced
Great
coffee
multi@@
appears
rap@@
möglichst
ited
ner@@
durchaus
täglich
gewinnen
numbers
peaceful
Unternehmens@@
applies
ordnung
beschlossen
Ob@@
Transport
zentrale
estate
spiel@@
Herausforderung
fisheries
stadt
becomes
na@@
Dienste
vorhanden
consideration
permanent
tag@@
Mitgliedstaat
schl@@
schw@@
pra@@
According
Angaben
lokalen
politics
Ziel@@
wenigen
Mer@@
Bank@@
Vo@@
ending
resort
wood
bes
Pass@@
Breakfast
gek@@
flexibility
ick@@
gefordert
analy@@
Werk@@
origin
Ost@@
bedingungen
Golf
Star@@
99
Zei@@
Klicken
dig@@
Zeitraum
courses
ack
ous@@
Komfort
Währung
Air
benötigt
feld
dank
val@@
konkrete
break
Druck@@
prot@@
--
monetary
vision
Pap@@
Großbritannien
easier
Hauses
freue
establishment
Multi@@
jo@@
veröffentlicht
sches
36
aj@@
ged
angeboten
economies
picture
cars
urs
God
Jahrhunderts
told
finanzielle
database
Mio.
Menschenrechts@@
threat
Bre@@
high-@@
ved
Net@@
fixed
Gebieten
starke
äl@@
reicht
führenden
combat
Sil@@
ini@@
aspect
tere
structures
konzentrieren
practices
leader
Test@@
Wissen
les@@
AB@@
gewährleistet
aims
san@@
forget
weight
kulturellen
Status
Dennoch
Nieder@@
34
print
dem@@
Bürger@@
führte
attempt
Auto
erfolgen
ering
Terrasse
darstellen
models
trip
ships
nächste
rent
continued
Madrid
entstehen
Comm@@
erscheint
Beitritt
south
istischen
failure
Herstellung
spent
Programms
Nachfolgend
myself
combination
Kingdom
AG@@
ri
fordert
Online
erklären
Worte
propose
pul@@
seriously
flow
dri@@
ica
dic@@
geschrieben
arten
Sel@@
dennoch
ain
Einigung
Association
Rede
an-@@
translation
zw@@
erstellen
unabhängig
Mel@@
Antrag
ater
Zweifel
hi
tiven
associated
schönen
detail
buffet
ungsan@@
Voll@@
attractive
Kirche
48
Santa
Cap@@
betrachtet
net@@
post
Zweck
tätig
Energie@@
promoting
club
anyone
schwierig
ancient
himself
Pres@@
ahead
sto@@
unterschiedliche
relax
dig
-K@@
Geb@@
Ter@@
Forderungen
satz
Pakistan
sou@@
gegründet
differences
studies
inform@@
Open
reservation
einiger
reducing
aden
availability
phase
finance
Dom@@
Musik@@
ye
Belarus
brand
IF@@
Sehr
announced
eingehen
Gas@@
charged
istische
Analyse
Geld@@
beaches
sionen
changing
schul@@
umfasst
Fran@@
Universität
Mac@@
impossible
fähigkeit
Regel
carefully
ological
Österreich
Zi@@
Einhaltung
released
pre-@@
stein
one-@@
gain
Pra@@
voice
absolut
humanitarian
gestalten
Stellungnahme
balanced
98
ware
gs@@
Gegen@@
Aufnahme
che@@
Tour
Ã
shared
sha@@
2.
fund
diskutieren
Firstly
consumption
haft
session
dangerous
Gal@@
opposition
booking
geschehen
pr@@
uner@@
Dollar
immediate
welt
Sehenswürdigkeiten
Griechenland
names
Irish
happened
geleistet
Private
producers
learning
rein@@
defence
agencies
cas@@
hands
lungs@@
Texte
architecture
museum
duty
tn@@
kaufen
liebe
EADS
concrete
statements
implementing
Fonds
of@@
cul@@
läuft
kt@@
Leg@@
ised
ular
tem
trading
exhibition
Gleichzeitig
Abend
Trade
Achtung
eigen@@
tage
England
Stellen
glich
ended
orders
Health
Kommunikation
river
arrival
inform
advance
gruppe
folgende
ke@@
Zwei@@
truly
pictures
wall
Klima@@
Angesichts
instance
Vielzahl
insurance
respond
Guest
grounds
ée
raise
aci@@
MA@@
Da@@
criminal
introduce
article
Due
chi@@
Prime
button
os@@
ama
Sorge
evidence
stei@@
profitieren
described
Hersteller
regionalen
we@@
Entwicklungen
Every
Fuß
esten
recommend
suite
Download
verfolgt
Paket
Hintergrund
skills
zung
recht@@
nah@@
nung
posi@@
Aspekt
Sport
improvement
garantiert
überprüfen
600
bas@@
don@@
37
Prioritäten
registered
band
meters
Dokument
einander
Europeans
fung
Links
relaxing
Arten
guarantees
recognition
Casino
passed
ISO
calling
feststellen
zing
Polen
ett
genuine
spending
standing
Hi@@
tischer
ländern
possibilities
atives
Tu@@
п@@
continues
nearby
kom@@
de-@@
verlassen
werke
Arbeitslosigkeit
loc@@
weg@@
ands
cker
Very
erst@@
Afrika
Rechnung
plan@@
res
у@@
figures
reliable
Pu@@
tsch@@
television
installed
wishes
cont@@
membership
Wal@@
Ja
Stil
weiterer
Recht@@
National@@
unacceptable
combined
ände
devices
System@@
ander@@
Partnerschaft
persönlich
zimmer
election
Kri@@
packages
Mann
и
firm
fri@@
ances
len@@
campaign
Stärkung
color
bauen
sichern
adoption
CA@@
empfehlen
ot
Rad@@
Foundation
Sam@@
fonds
Euro@@
religious
miteinander
1994
Seine
seek
completed
fiscal
felt
Nacht
mil@@
übrigen
33
allowing
enables
Indi@@
bezeichnet
unless
minister
territory
ausschuss
Kom@@
strongly
greatest
black
zeichnet
sides
African
Indien
kept
Moment
chs@@
oh@@
kosten@@
gegenwärtig
Mindest@@
Sar@@
gutes
Agrar@@
sensitive
tly
participate
tasks
Plat@@
Deutsche
Gesetz
angesprochen
IR@@
III
flo@@
sale
Leistung
Betrieb
mes
surrounding
Lesung
sort
erter
Can@@
tour@@
Bedürfnisse
Programm@@
Grenz@@
eingeführt
pos@@
Fer@@
•
zeichen
tz
obtain
Problemen
2,@@
manage
französischen
Pat@@
bul@@
Ideen
Mont@@
Manager
Formen
court
gegenwärtigen
Beschreibung
eck
contain
tier@@
hingewiesen
unfortunately
Justice
Mass@@
erhält
Tradition
ena
Titel
inv@@
closer
bars
überall
ki@@
elected
Gemeinsamen
Irland
zufrieden
groß
fication
Aussch@@
End@@
definition
minim@@
Dor@@
fear
ring
surface
positiv
Another
demokratische
sets
attractions
beginnt
zz@@
hom@@
middle
dor@@
Barroso
desire
absolute
mag
9.@@
Sinn
geschützt
Player
Elemente
Last
einsetzen
coast
0-@@
Ges@@
komplett
fic@@
Ki@@
werk@@
Richtlinien
Kr@@
OL@@
route
danach
dedicated
Priorität
compared
lim@@
Such
unterstütze
platform
sun
Überwachung
Hamburg
window
beauty
großes
piece
guide
Gre@@
chter@@
Is@@
800
aufmerksam
Menschen@@
keinerlei
umfassende
Federal
alist
38
TR@@
Vienna
Jeder
Turkish
mehr@@
verk@@
iel@@
ausreichend
Gast@@
einfache
Banken
Syn@@
interface
bear
Regelungen
anda
forced
führ@@
Geschäftsordnung
erforderlichen
corporate
wasser@@
gezogen
los@@
Tel@@
blo@@
marked
alli@@
lt
enormous
claims
sli@@
hel@@
besitzt
Meiner
Fortschritt
größeren
err@@
haften
Bewertung
cm
Anteil
Can
Beh@@
fel@@
failed
Liefer@@
sämtliche
spezielle
erin
Verhältnis
bestätigt
gem
biggest
ata
beteiligt
Technik
export
Märkte
isi@@
Kritik
vorliegenden
signal
ik@@
individuals
AL
dete
square
Far@@
ol
perspective
funktion@@
accessible
länger
entitled
Größe
storage
stru@@
Ir@@
fall@@
09
luxury
Eastern
moving
55
comment
seite
ni
anc@@
onto
science
sonst
urgent
extended
Süd@@
Entwurf
bt
holidays
Greek
exercise
Home
Reise@@
Michael
install
totally
device
Prinzip
pal@@
write
onn@@
Inn
mittels
freiheit
story
unto
deten
wind
nennen
convinced
Nevertheless
ko
lauf@@
leistungs@@
rufen
exc@@
railway
schöne
Brüssel
yl@@
wunder@@
Democrats
Beschäftigungs@@
cr@@
Verpflichtung
sum@@
Fr@@
institution
internationaler
este
memory
kostenlos
Yet
eder
č@@
Eing@@
advertising
verbundenen
hergestellt
offensichtlich
flight
bath
sicht@@
books
gelöst
host
garantieren
expensive
Globalisierung
Schi@@
discover
Agentur
controls
lie
Maße
church
coll@@
engine
Motor@@
mail
Mitteln
Dra@@
advice
lo
drawn
organization
starken
Worten
schlagen
Treffen
abkommen
äch@@
Eigen@@
Bush
factors
d.
1990
fire
Lan@@
gkeit
Netherlands
yer
initial
Institute
payments
fur@@
drei@@
ick
lern
Fotos
ola
Lake
08
bekannten
unable
stone
Austrian
ome
Shi@@
micro@@
ect
disease
к@@
organised
echte
chosen
stattfinden
granted
Log@@
elten
Unterkunft
nation
Altstadt
weapons
dienst
zusätzlich
beinhaltet
Gründe
Studio
ony
chter
alter
ty@@
Sor@@
Betriebs@@
establishing
Company
Verkehr
pfen
Monat
cer@@
outcome
zählen
Volks@@
Jahres@@
Design@@
mögliche
limits
übertragen
contrary
28@@
Festival
Umfang
deutsche
perfectly
&apos;re
ong
attack
regi@@
Ca@@
wirken
update
conclusions
Resort
Niveau
dat@@
Nicht@@
wesentlichen
Erklärungen
ca@@
Control
tried
hu@@
üsse
massive
mountains
chan@@
Gri@@
britischen
Dec@@
zufolge
Poli@@
gruppen
7-@@
rat@@
zt
Beteiligung
Rel@@
Industri@@
anst@@
Palace
neither
6-@@
betrachten
Sei@@
rightly
OT@@
furnished
Generation
Thus
ambitious
listen
commitments
verloren
fes@@
water@@
Gott
tin
Are
Atom@@
fit
zuvor
steigen
solcher
valid
Foreign
umwelt@@
Gegensatz
finde
fli@@
vehicle
Risiken
background
entsprechen
existence
Patienten
successfully
indi@@
etz@@
Ba@@
Reise
Politiker
relativ
agency
chung
Tal@@
eu
anlagen
convenient
maintenance
gestellten
Europäer
Note
artists
Schlüssel@@
saw
ment@@
greifen
Entschließungsantrag
setzung
read@@
ection
ables
.de
Option
fte
register
asylum
speziellen
glichen
Data
IG@@
Methode
Flexibilität
ag
vit@@
spiel
h.
kraft
ust
Kompromiss
claim
honourable
8.@@
anische
Mand@@
approximately
Palestinian
ther
es-@@
Eindruck
Mitgliedern
remind
Aktionen
candidate
een
Ereignisse
ink
para
Off@@
wider
asking
ci
gei@@
nation@@
tlichen
gehalten
ç@@
07
Aussicht
gegangen
yst@@
TH@@
Weitere
Rom@@
achieving
mei@@
cru@@
run@@
geöffnet
Absatz
н@@
Beim
constantly
Ka@@
PHP
k-@@
abgeschlossen
Latin
surrounded
ré@@
rechtlichen
Peter
ständigen
obviously
ía
deliver
jüngsten
rechten
Aufbau
dep@@
komm@@
Nachdem
schafts@@
targets
intervention
continuing
unit
asp@@
m2
manchmal
utili@@
vers
sam@@
Bis
daraus
fort
guter
goals
monitor
expression
aw@@
Air@@
ari
category
ard@@
paragraph
Located
Wirkung
mäßig
fach@@
Verständnis
Begriff
zy@@
ischem
Innen
Empfehlungen
Fol@@
independence
informiert
are@@
Haus@@
erhöht
el-@@
Kraft@@
Erde
colleague
nationaler
equ@@
outstanding
Öl@@
kar@@
touch
Gebiete
ected
Card
Gl@@
stehenden
title
dliche
contents
promotion
hauptsächlich
alisation
ising
oni
aircraft
lichkeiten
laid
mobili@@
Bildungs@@
ched
Constitution
deep
ow
reich
Realität
erfordert
dige
ani
gets
someone
operate
19.
physical
sell
ren
photos
qui@@
Anlagen
Start
ideale
Botschaft
obligations
keeping
origin@@
conc@@
Phase
advantages
0,@@
Obama
race
Media
north
Meeres@@
yesterday
halt
staatlichen
tis
Hoffnung
mut@@
dly
Risiko
eng
Nutzer
Pen@@
tens
Kenn@@
beachten
Those
SE@@
lake
Führung
contained
bildung
planned
Regulation
fühlen
0er
tives
intensive
atory
ön@@
binding
getragen
counter@@
obvious
qualified
down@@
produk@@
reise
berühmten
legung
damals
Sprach@@
Inseln
produktion
looks
ports
recommendations
waiting
Q
Hon@@
decades
1992
Farb@@
sicher@@
wichtigste
Mus@@
Grundsatz
mass
PR@@
acht@@
equality
nearly
participants
allgemeine
O-@@
Market
tically
Agency
cri@@
Fisch@@
factor
bringing
Teilen
Mö@@
stellte
ered
sobald
capable
geschieht
zo@@
Vom
fälle
situations
foot
kor@@
def@@
öh@@
governance
punkt
Both
vier@@
expenditure
recovery
siert
consists
globale
Rome
tete
communities
unden
putting
Paul
führer
Winter@@
einzigen
jungen
pointed
seeking
landscape
sat@@
stations
merely
species
hängt
65
regelmäßig
vous
dimension
ECU
Beach
manufacturing
omm@@
ards
Hinweis
dynamic
ual
flu@@
wirtschaft
reden
anz
Firmen
smaller
Grunde
leads
prevention
satellite
MS
Bedarf
ania
trifft
einverstanden
disp@@
High@@
е
nachhaltige
ungst@@
festgestellt
boo@@
Fraktionen
Friedens@@
Hauptstadt
persönliche
Beihilfen
AS
Voraussetzungen
Stu@@
store
Energy
substantial
Vorteil
Teil@@
Hälfte
Zahlungs@@
Gegenteil
Einkaufs@@
ch-@@
gene
aum
Other
wür@@
medium-sized
mechanism
Ban@@
Ebenso
Square
Dimension
disposal
Korea
servi@@
Vis@@
Kredit@@
sprache
registration
i.e.
ba
Pro
consistent
denk@@
ös@@
e.@@
,00
zugleich
turned
Rot@@
vorgeschlagenen
rapid
dur@@
bewegen
Welche
Pf@@
Hol@@
entgegen@@
mode
betroffen
Men@@
Pic@@
Städte
berei@@
Bestandteil
64
jährlich
contemporary
Fo@@
trag
stabili@@
Summit
Tages@@
Wettbewerbs@@
staaten
ssi@@
fs
Kontroll@@
seh@@
testing
Netz@@
Any
regeln
guaranteed
ingen
dad
acceptable
kop@@
eiten
causes
browser
named
entwicklung
ening
straße
cking
Infrastruktur
Vertrags@@
extend
spezi@@
anbieten
abo@@
gent@@
Out@@
enth@@
set@@
Veranstaltungen
meaning
gewählt
physi@@
Prüfung
fy
Global
ersch@@
Holz@@
driving
edge
schneller
ries
brings
Landschaft
Royal
Spezi@@
ites
praktisch
Klimaanlage
glass
erenden
versions
traditionellen
bahn
aries
arms
compliance
fron@@
ehen
wodurch
Internationalen
examples
räume
grün@@
u.
trä@@
Rules
Farben
Ruhe
42
Bern@@
Ausland
resulting
Winter
spread
compl@@
betroffenen
wagen
beschäftigt
Angebote
politisch
ba@@
treated
pass@@
herzlich
determined
cour@@
.00
Sweden
Thanks
Gef@@
Zahlen
ately
ths
primary
stes
conclude
ching
Island
aming
Flu@@
object
golf
Details
spa
vorschlagen
Buch
Doppel@@
ecken
Dienst
Stat@@
Unabhängigkeit
ier
Environment
block
optimal
angeht
tab@@
tende
Zimmern
adequate
pleasure
OS@@
wait
seven
pour
öl@@
Gesetzgebung
Erhöhung
forest
aufen
früher
As@@
attacks
patients
val
unk@@
spaces
explain
addressed
Aufgrund
Struktur
sum
Martin
05
fuel
oli@@
JavaScript
migration
Trotz
vollkommen
aging
my@@
welchen
zurückzu@@
weiteres
begann
responsibilities
Material
nations
kürzlich
ici@@
radio
soft
junge
digung
96
bers
industries
strengthening
association
Format
older
lich@@
oral
besseren
stoffen
woh@@
enh@@
THE
extreme
Kre@@
ez
3.
ita
agen
Überprüfung
Time
Charakter
multi-@@
eur@@
Alliance
Königreich
sky
bedroom
einerseits
zählt
Na@@
diskutiert
talks
wir@@
ward
hum@@
Ratspräsident
schools
identity
by@@
tests
49
Unternehmens
IP@@
Bus
tenden
Serie
IA
Stadtzentrum
evaluation
Methoden
Innen@@
Liberalisierung
fand
reagieren
primarily
atischen
remove
kri@@
Laufe
träge
rati@@
ela
Pool
kes
GDP
temporary
Männer
kers
realis@@
urban
notice
schön
Nice
Verbraucher@@
kinds
sun@@
dlich
97
250
Enjoy
steel
fällen
previously
thereby
Financial
Bewegung
Dutch
ING
bezieht
esen
Gästen
multiple
gol@@
requested
Red@@
investments
liefern
EU@@
wh@@
quick
consensus
dia
Licht
ball
Hin@@
einzelne
accounts
ßt
Mehr
liability
Diskriminierung
Mad@@
Teilnehmer
bing
Liebe
160
discussing
Romania
delay
abhängig
hafte
Link
stimmt
ierungs@@
sl@@
spezifischen
sem@@
ail@@
insi@@
bedeut@@
ented
ath
tierung
bequem
visible
bereiche
26@@
Grenze
copy
Mil@@
strategie
delivered
ads
bel
Netzwerk
Klimawandel
gone
fi
gliche
skin
Waren
Fähigkeit
head@@
Ordnung
tran@@
1993
wil@@
leadership
barer
seitens
tou@@
ê@@
Despite
representative
85
intensi@@
Fälle
bildet
rail
willing
competence
pension
hilfe
tern@@
ning
karte
technological
Buch@@
Suite
opposite
Dokumente
Lehr@@
Westen
Wander@@
Koordinierung
tar@@
Eis@@
akzeptiert
default
Maria
avi@@
s.@@
feeling
Tiere
IB@@
Reaktion
20.
ax@@
tal
dos
Minutes
gewal@@
positiven
PC@@
Brenn@@
gesellschaft
lag
sters
southern
controlled
manufacturers
wen@@
Freunde
prepare
Pop@@
betont
Nutz@@
Anpassung
all-@@
dealt
ws
Handel@@
Versuch
ign@@
Kombination
diversity
zus@@
spezifische
Pas@@
SO@@
Boo@@
ktion
Militär@@
Regierungs@@
Unterschiede
Gefühl
sicherstellen
taste
letter
Willen
affect
Amerika
kal@@
PL@@
itäts@@
wealth
aria
urge
The@@
Rau@@
Day
PH@@
wirkt
ländlichen
sanctions
speakers
Erd@@
forum
moved
runs
quote
kenn@@
Dadurch
represented
ambi@@
conduct
ón
Stunde
compatible
verlieren
uri@@
ker@@
stoff@@
übernommen
í
Nu@@
Wegen
Umständen
diverse
ple@@
lig@@
Two
8-@@
ge-@@
isch@@
regionale
Vorbereitung
Körper
höchste
significantly
testen
Before
Gesetze
Telefon
lar@@
Sc@@
approval
eins
dritten
06
Find
EG
Süden
andererseits
Via
ater@@
author
noise
GB
Zustand
strength
basiert
esi@@
breite
AT
nochmals
handel
zeu@@
anz@@
ehemaligen
ys@@
zustimmen
Anliegen
Aut@@
viel@@
Lam@@
Diskussionen
ergeben
tiv
verstärkt
recommended
shape
destination
eit
hof
Raum@@
Strategien
Ther@@
Hilfs@@
expertise
genen
Bahnhof
ckt
Vielleicht
Such@@
tend
Eigenschaften
nden
Teilnahme
ine@@
ght
launched
tours
Back@@
ativen
gewisse
aut
stan@@
Standard@@
bericht
Delegation
ku@@
Roman
nötig
stoff
sin@@
wiederum
Einklang
Support
Anlage
üh@@
seien
improvements
PS
voran@@
mechanisms
parti@@
UT@@
charming
Projekt@@
bit@@
Mein
highlight
helping
Studie
Bedenken
knows
relatively
websites
Kol@@
soweit
Bon@@
amongst
length
sicht
gestern
helps
mutual
derzeitigen
IC
digt
haltung
refugees
engineering
expectations
fruit
Freude
vielmehr
zunehmend
consultation
lab@@
ce-@@
AV@@
reply
Schule
sieben
White
WC
covers
sieren
bedrooms
Kollege
Poker
Spiele
trees
auer
MO@@
Verfügbarkeit
trägen
experiences
39
verlangen
esch@@
Rotary
except
sta
delegation
requests
interpre@@
erende
Tru@@
keiner
Kunde
presentation
sold
zur@@
Express
umfassenden
21.
Voraussetzung
acting
Munich
amerikanische
ED@@
Schl@@
Mikro@@
identi@@
linie
Sanktionen
p.m.
unternommen
attitude
Fern@@
Mur@@
serves
Wien
pur@@
units
Antworten
ide
T-@@
eld
privacy
sierung
hau@@
Lebensmittel@@
echten
weltweiten
Fe@@
western
taxes
egen
Straßen@@
schei@@
finding
ghts
Ob
genauso
Gener@@
solve
sw@@
system@@
historische
anerkannt
ake
Book
werfen
wichtiges
discovered
\
Prodi
respective
Geist
trotzdem
articles
boat
pic@@
02
ativ
Formular
tritt
Mas@@
furniture
ello
Plaza
befassen
Tod
fill
qualität
aktive
F-@@
gegen@@
ausschusses
Ci@@
Fort@@
Technology
03
deiner
streets
heraus
hilft
Allgemeinen
faced
elled
dishes
Zoll@@
behörden
cheap
heits@@
dinner
Effizienz
höhere
tain
ize
3D
profit
fighting
Wider@@
Mul@@
Grundrechte
drugs
Apartment
weit@@
med
Zugriff
behandeln
Bes@@
Take
schen@@
obligation
regret
politicians
Tit@@
latter
appeal
X-@@
Architektur
Untersuchung
log
Verhalten
Karten
texts
kleiner
rejected
Sitz
ziemlich
preis
Definition
hoher
Küste
temperature
spot
Leistungs@@
ruhigen
sorgt
appreciate
compensation
fantastic
Berücksichtigung
esses
ati
Fra@@
Übereinkommen
700
River
healthy
Power@@
entered
emphasis
error
jemand
tan@@
Camp@@
dienste
constant
arrangements
Welcome
walls
konkreten
Schäden
120
gelungen
emphasise
Wa@@
Mak@@
Tatsächlich
recognise
Aqu@@
duc@@
Kapital@@
extension
seeing
willkommen
dungen
Gold
exists
Beifall
deb@@
10.@@
ст@@
Fri@@
tom@@
PDF
q@@
betreffen
Grundsätze
producing
niemand
watch
1000
reflect
menschlichen
buchen
Putin
wesen
ills
Lag@@
Auftrag
erhältlich
ox@@
sions@@
figure
0.000
acy
handling
User
resolve
schätzen
Sand@@
objects
truth
Chamber
Britain
eff@@
Paper
cycle
Eng@@
ey@@
suffering
Lebens
kin@@
helped
mod@@
Use
Verträge
sse
gemein@@
ours
Fil@@
arbei@@
operators
ura
mitten
dates
beträgt
nam@@
intention
master
audio
gespielt
nte
44
entdecken
tra
substances
Mari@@
comply
proof
profile
Lord
erscheinen
Rat@@
Letz@@
Materialien
Bau
reserve
aly@@
parallel
output
liste
sign@@
bon@@
künftig
ala
S.
Leitlinien
sur
whatever
formen
OR
spec@@
Maßnahme
David
schließt
Norden
soci@@
affairs
NL
th-@@
Fernseh@@
dischen
mobility
Verbrechen
begonnen
drawing
happens
Alp@@
eröffnet
valuable
School
disaster
cross-border
Gei@@
Werk
Liber@@
elte
hostels
Ambiente
trac@@
cel@@
danger
kulturelle
Nachfrage
entlang
confirmed
largely
creative
Anfragen
alized
info
marks
wis@@
rau@@
inzwischen
president
recognised
applicable
entertainment
centres
friend
Wirtschafts-
Ohne
führende
eigenes
audi@@
lang@@
naturally
Völker
tut
Where
ticket
Rule
album
diseases
renewable
Wahrheit
Landwirte
arch@@
Kind
Mehr@@
produkte
Datenbank
wesentliche
Old
Safety
Dort
fraud
On@@
mental
inst@@
assist
CO2
erne
alization
eye
opposed
Essen
zusätzlichen
Gedanken
dir
aches
cc@@
x-@@
RO
brechen
italienischen
Instead
Absicht
exclusively
ash
dining
ł@@
sten@@
hinter@@
Erwartungen
kurzem
atoren
A3@@
sofern
staatliche
wards
pose
personally
chain
Berufs@@
fein@@
wissenschaftlichen
separ@@
institutionellen
spring
dans
Ra@@
Ferner
43
eight
automatic
outdoor
interessiert
Japanese
Schaden
charges
Strategy
Sach@@
teren
waters
Park@@
ligh@@
Rob@@
millions
PS@@
let@@
rasch
zahl@@
angemessen
Ministers
burden
schönsten
manager
LO@@
officials
ernst
USD
miss@@
installiert
cent
whilst
Ant@@
DA
leisure
volume
impressive
Europ@@
fähig
fail
fies
tre
them@@
zentralen
verändert
Mittelpunkt
arian
heavy
entwickelten
determine
Ram@@
Swedish
dische
dungs@@
involving
constructive
Kauf@@
grundlegenden
U.S.
27@@
Entwicklungsländern
sy@@
iten
Fischerei
Spar@@
cy
Versch@@
exceptional
1991
Weiter@@
ce@@
Open@@
Kategorie
Experten
rup@@
deck@@
increases
pieces
1989
castle
natürlichen
fei@@
195@@
schwierigen
Alternative
journey
Kosten@@
su
sauna
Good
neuesten
hervorragende
Angriff
criticism
aner
Shop
Schweden
yes
lets
Beratung
wechsel@@
holding
couple
näher
offices
locations
41
Schengen
Einstellung
zweifellos
zieht
2013
gefördert
Charter
BR@@
prove
amounts
equally
west
besitzen
öffnen
schlag
Bil@@
Verbesserungen
freundlich
kostet
l-@@
SM@@
Beispiele
tag
low-@@
ausgezeichnete
Tagung
perform
rechts@@
domin@@
lebens@@
Nov@@
meist
niemals
top@@
Foto
protecting
decorated
HT@@
haf@@
ero@@
ando
Verkauf
welt@@
asser@@
laut
cold
command
zuerst
leaving
George
lovely
sens@@
Englisch
east
Normen
Special
erheblich
mandate
Bay
q
Lab@@
Badezimmer
Dublin
passengers
Sonnen@@
Los
5.
erweitert
Over
row
Vil@@
bedeuten
westlichen
bestand
offenen
removed
mus@@
Han@@
tickets
obtained
residence
Klima
2012
Regime
peoples
unmittelbar
fassen
directives
gert
Stand@@
finished
Form@@
spek@@
doors
brief
schnelle
hit
ks@@
11.
Komp@@
teilnehmen
involvement
mitt@@
uss
organizations
weather
olog@@
Wirklichkeit
Fenster
bed@@
break@@
flü@@
weshalb
Nahen
treaty
parks
mitteln
Ladies
lle
strategies
password
disc@@
Cli@@
anlage
zentr@@
Canada
ga
happening
medium
bezug
CS@@
höchsten
Tar@@
Bucht
einfachen
ele
Bru@@
entstanden
ences
preis@@
Strukturen
father
iss@@
proved
combating
Hau@@
Spe@@
Their
Rechts
Agrarpolitik
Unterschied
-up
ausgezeichneten
allgemein
depends
kol@@
München
starten
kurze
berechtigt
kan
blue
Ul@@
parents
Ausstattung
maintained
ú@@
fee
hy@@
Don@@
IV@@
eyes
lic
cle@@
Boden
Websites
Geh@@
Van
verlangt
markt@@
ought
äm@@
kat@@
fern
or-@@
Waffen
ined
Auto@@
11.@@
DS@@
contributions
remaining
rot@@
mot@@
blog
Ab
ader
bemüht
Halb@@
grundlegende
ress
ziele
ective
USB
Tourismus
creates
ests
launch
chinesischen
aufzunehmen
sätze
define
Führungs@@
Ratsvorsitz
lam@@
post-@@
sho@@
Croatia
Dusche
ziert
behalten
organisiert
elling
produziert
iting
died
colour
connections
kten
zäh@@
präsentiert
ursprünglichen
occasion
abroad
ül@@
renovated
nungs@@
pping
occup@@
balcony
aktivieren
AND
communications
Empfehlung
reifen
Sou@@
musste
Dorf
maschinen
Maschinen
Action
ok
är
Flash
B-@@
enheit
ental
kte
entscheidend
aro@@
discharge
Vision
Film@@
falsch
Dem
sexual
Hostelsclub
meat
angel@@
hall
fle@@
Stein@@
Stellung
preparation
Tex@@
fäl@@
spanischen
drink
Anbieter
weisung
issued
Bestellung
tä@@
ertes
organized
ov
tigten
rapporteurs
zugänglich
two-@@
GNU
Ausgangspunkt
dge
rou@@
Kab@@
divided
10-@@
restrictions
Robert
Ware
jahr
Jedes
reserves
Revolution
wünsche
riesigen
kämpfen
King
assure
sation
aut@@
requirement
surroundings
für@@
4.
leiten
resolved
tierten
ade@@
Hafen
Pflicht
Förder@@
SI@@
zig
Kamera
organis@@
dritte
famili@@
Überzeugung
repeat
Steuern
fal@@
doesn
Problems
umzusetzen
Ref@@
schafft
load
din@@
weist
ace
dorf
collective
Get
ial
messages
Kin@@
roads
Kann
abgelehnt
Kooperation
owners
Cat@@
owner
Airbus
leiden
Künstler
Jan@@
dd@@
atis@@
debates
demo@@
ong@@
tät
definitely
cable
isch-@@
gratulieren
aged
roll@@
Refer@@
derartige
ó
Krankheiten
Av@@
Mol@@
klar@@
rein
cou@@
Ham@@
bike
dienst@@
Staat@@
Projekten
identify
psych@@
Punkten
licherweise
M-@@
USS
lautet
verursacht
contracts
04
enzen
übernimmt
Des
regulatory
returned
höher
Ass@@
minist@@
Lauf@@
eckt
cent@@
reich@@
regularly
Luxembourg
Bulgaria
els@@
mä@@
classic
Angst
etes
preise
betreffenden
ständige
Verbindungen
modern@@
opinions
wand@@
Front
Mitgliedschaft
wirtschaftlicher
fordere
precise
investors
focused
to-@@
C.
Prof@@
extrem
characteristics
vorgenommen
46
empf@@
ky
Abschnitt
Gol@@
47
Oper@@
Music
wirksam
erlauben
hardware
aussch@@
funktionieren
bild
resolutions
oning
PRO@@
Kop@@
defend
Geräte
Abkommens
vast
ñ@@
anstatt
jahr@@
Kommunikations@@
worse
betrieb@@
regul@@
add@@
liberalisation
Harmonisierung
enger
driver
ppe
Bek@@
Under
vieler
Post
verschiedener
Erholung
Sta@@
systemen
Lang@@
Mac
dynam@@
Alter
maschine
Stimm@@
sehe
zogen
intend
ced
usses
faster
Immobilien@@
AP@@
freundliche
will@@
bekämpfen
Ang@@
EF@@
cho@@
Executive
R-@@
tierte
durchzuführen
künftigen
MEPs
continent
ea
vollständige
transportation
Java
verstanden
properties
Veranstaltung
glad
Zentral@@
Gebrauch
hundreds
gi
Farbe
ron
Struktur@@
alities
Black
a.
involve
conflicts
Herz@@
proud
Beweis
egt
transpor@@
nahm
Eltern
Marina
ored
Hil@@
Hal@@
Fel@@
ffen
ierungen
leben@@
awareness
Will
carbon
OM@@
plätze
ethnic
ora
ont
Rumänien
impression
topic
Life
suites
tory
blu@@
Netz
plays
Ausführungen
conducted
stellungen
Polish
Fähigkeiten
realistic
s.
S.@@
umgeben
mt
ergriffen
facilitate
Gestaltung
weiten
stände
joined
heating
Sim@@
Entwicklungsländer
wers
lots
komme
operational
Partnern
jährigen
Wird
vern@@
aufgefordert
sichere
sinnvoll
understood
grow
seat
Procedure
¤
Zimmer@@
frequently
updated
displayed
Hy@@
trags
Reform@@
Ausnahme
Verhandlungs@@
confirm
deals
settings
Box
gers
fla@@
Spezial@@
wirk@@
f-@@
bezahlen
Gegend
depending
serviert
fizierung
Strukturfonds
lift
kurzen
Buchung
familiar
imm@@
ami
e-
Ratspräsidentschaft
nachhaltigen
nights
performed
Hinter@@
schlägt
gh
Konflikt
52
Las
effectiveness
ministers
olo@@
schn@@
cam@@
Änderungsanträgen
printing
.000
firstly
license
cke
Ausstellung
appointed
Cro@@
Element
.org
explo@@
SS@@
ans@@
ques
mostly
Übereinstimmung
klaren
Seg@@
ull
starts
io
Wohl@@
machte
gespeichert
annehmen
Austausch
lik@@
reiche
Programmen
Institution
Award
Wir@@
u.a.
ehrt
customs
Nein
aktiven
antes
avec
vorzu@@
Vorschlägen
cro@@
stehende
sole
Tisch
änden
beschränkt
Thomas
demanding
formed
ausgeschlossen
somewhat
Nachrichten
elli@@
ref@@
Test
Wes@@
Second
musi@@
Schwerpunkt
electricity
sup@@
View
Messe
Analy@@
isierung
Hostels
Monetary
ops
eignet
uting
Pr@@
а
bridge
answers
rock
Wind@@
Fü@@
18.
verbringen
9-@@
festival
Umgang
minority
clubs
ores
Washington
interior
decision-making
ees
ultimately
Geschäfte
früheren
universal
ais
Wil@@
notwendige
noted
Sauna
interessante
Lim@@
beglückwünschen
Straßen
durchführen
sprach
ord
Tom@@
ked
z-@@
Real
Köni@@
Ausführung
module
ED
Gentoo
diger
emergency
esp@@
blood
satz@@
aster
library
Mod@@
Drittens
Zer@@
schicken
Euro-@@
Sommer@@
ließ
Wissenschaft
submit
vo
ased
ency
techniques
Schlafzimmer
Hall
Dek@@
Kilometer
eingesch@@
moral
meant
Brazil
erreichbar
altung
fran@@
wasser
Mensch
Whether
personnel
verabschiedet
SMEs
ult@@
Industrie@@
sodass
rising
UN-@@
drivers
zulassen
Framework
Arab@@
Maß
poli@@
provider
theit
Arbeitsplätzen
inflation
parliaments
Tour@@
lounge
zugunsten
Übersetzung
hervorheben
geri@@
stars
Drittländern
ute
51
Deutschen
nissen
Dru@@
füllen
Identi@@
spartner
ining
wär@@
welfare
oms
metal
Führ@@
dam@@
fern@@
einzigartige
materi@@
islands
bestätigen
mass@@
eil
zuständigen
Pet@@
bus@@
ka@@
Mexico
custom@@
hostel
angemessene
accompanied
reported
gehende
verhindert
lö@@
ausgesprochen
wert@@
statistics
aller@@
ausgesetzt
prefer
career
chemical
ouse
northern
з@@
eres
Luft
teams
grateful
Dat@@
breiten
Den@@
Prinzipien
Gleichgewicht
well@@
follows
Sha@@
Komponenten
Cyprus
Planung
contrast
zunehmen
facts
looked
russischen
vorher
tho@@
steuer@@
visited
Ide@@
orial
Radio
Besonders
Faktoren
st-@@
Les@@
geprüft
subsidies
Es@@
bound
lex@@
schwer@@
Yes
windows
Verringerung
Prin@@
Werbung
gearbeitet
valley
relaxation
AK@@
Alles
delighted
ación
passiert
lay
stance
Beziehung
farm
Rund@@
invite
wines
massage
wann
studio
Vereinbarungen
aufnehmen
indicated
woman
contacts
corner
Beiträge
deckt
eastern
Gerichte
mus
pm
messen
bom@@
Transport@@
Church
unmöglich
Außenpolitik
percent
offen@@
Optionen
entwurf
AU@@
Wein
channels
terrorist
cle
Sonne
fehlt
komp@@
programm@@
Plenum
Gesellschaften
Schluss
Gemein@@
definiert
arrive
Golf@@
flights
MySQL
einrichtungen
lec@@
verringern
sucht
newly
gold
72
Handeln
functioning
corruption
stro@@
Copenhagen
Saint
î@@
recommendation
tourists
atik
höheren
nahmen
Vel@@
signs
Chinas
Einstellungen
entsteht
exciting
presents
visiting
Pin@@
stored
burger
Rek@@
Jede
Festlegung
actively
judicial
visa
lists
Firmen@@
LE
scheinen
Zusatz@@
widely
feed
vacation
Budapest
Roll@@
match
&apos;ve
Congress
Plattform
Verb@@
ät@@
welchem
entrance
Gespräche
declared
dent
cosy
Report
firms
Drogen@@
Band
ulate
desk
careful
ga@@
verleihen
direkten
üt@@
imposed
bilateral
Morgen
Wünsche
d.h.
pollution
showing
ammer
ordin@@
Individu@@
Drei@@
Edition
einhei@@
cross
TO@@
schlecht
Sek@@
lte
satisfied
86
explore
Sy@@
bre
iler
Friday
Sat@@
inhabitants
afternoon
ney
Bemerkungen
lauf
decken
Cur@@
gardens
р@@
ungefähr
involves
Mün@@
otel
onal
Prague
Neue
Sitz@@
verändern
Garantie
Act
ly@@
2.0
configuration
Gleich@@
gestaltet
Ausgabe
demonstrated
speaker
p-@@
expert
Währungs@@
Brand@@
EG@@
vertre@@
rechtliche
winning
Ster@@
Ed@@
Trek
geboren
Noch
Fac@@
dom@@
Earth
Adobe
formal
kamen
Regierungskonferenz
PO@@
Aktion
cast
News
echn@@
wollten
occur
Perhaps
1st
erleichtern
heritage
lige
Sony
ausgeführt
Rou@@
dich
declaration
bert
maintaining
assets
expansion
Protection
fläche
nahezu
gebiete
Minderheiten
sorgfältig
competent
intellectual
sam
druck
Verteidigung
Zentralbank
Deswegen
kun@@
Haftung
Funds
fashion
soli@@
seri@@
Ziffer
transition
collaboration
earth
reject
begrüßt
Ah@@
dol@@
Given
ann
ongoing
Stück
plenty
lebt
motor
Soviet
Justiz
lob@@
ond
oriented
neg@@
conditioning
Kurz@@
ppen
ym@@
Baltic
remote
functional
quarter
hinzufügen
demonstrate
Wol@@
sprachen
Je
tea
ancy
settlement
unde
resistance
Kir@@
ile
Blo@@
ros
Verbot
high-quality
erh@@
fris@@
Gründung
Veröffentlichung
May@@
still@@
entes
Sorgen
hot@@
selbst@@
Lö@@
techn@@
strict
Cl@@
Sicher@@
theme
12.@@
3,@@
präsentieren
Arab
solange
überzeugen
sight
pot@@
ч@@
ère
Port
struktur@@
billi@@
channel
bemühen
Schn@@
letztlich
bestimmen
mess@@
EM
fitness
rapidly
categories
spoken
isation
ador
erer
holen
facility
trafficking
Sit@@
bestehende
usual
amp
Datenschutz@@
fördert
appearance
ession
We@@
documentation
Tim@@
Sollten
Rom
erien
perfekt
poll@@
cket
stylish
è
я
BIP
heutige
Marktes
committees
ils
Produk@@
Studenten
Einbeziehung
bank@@
Or
department
Question
Chancen
generated
Rest
gas@@
ze@@
passenger
gezwungen
organisationen
ausschuß
PP@@
recorded
Parlament@@
Portuguese
regarded
raw
Charta
Mobile
Kontakt@@
educational
15.
erneu@@
films
artist
concluded
Sü@@
possibly
verehrte
alo@@
Umfeld
wachsen
Skype
tau@@
Insbesondere
geltenden
Zwischen@@
justified
gewis@@
sharing
ario
Sollte
KMU
owned
spra@@
Licht@@
Description
gesp@@
Hostel
dlichen
Marketing
werten
awarded
grant
with@@
früh@@
erial
lig
Applause
exit
Tab@@
containing
argument
cutting
lasting
bottom
ange
Bewer@@
resi@@
Mobilität
abel
boot
ž@@
long-@@
g-@@
James
egen@@
replaced
apart
erinnert
mix
gelassen
foundation
ierenden
hair
lösung
schauen
54
о
vorlegen
dependent
rt
Balkon
zieh@@
phrase
Preisen
britische
ferner
oul@@
geschäf@@
nten
ska
beraten
teten
enswert
emerging
dan
üb@@
Webseiten
dürfte
factory
individuelle
Zielen
Speicher@@
tigte
lokale
desired
planet
betra@@
Vit@@
anges@@
eria
bereitet
ups
towns
gallery
verti@@
Objek@@
mother
Eurozone
Plus
Identität
staat
IV
ski@@
kli@@
installieren
å@@
Untersuchungen
karten
motor@@
Mach@@
Vorgehen
respected
jegliche
mem@@
overcome
assume
count
copyright
termin@@
saving
Hungary
Versionen
CE@@
Fein@@
van@@
gg@@
alog@@
Town
Freiheiten
minorities
liefert
abgestimmt
credibility
routes
reform@@
tackle
Pe@@
spectacular
TO
verkaufen
Northern
Power
eing
Massen@@
verdient
Selbstverständlich
gens
Puerto
Vorschlags
cally
ret@@
partly
wohnen
verständ@@
erfolgreiche
getreten
Fru@@
professionals
Training
brau@@
tigungen
determination
heat
Update
and-@@
crimes
Computer@@
MB
satisfaction
ump@@
organisieren
setz@@
stronger
flat
einig
übrigens
Belgium
temp@@
acted
Newsletter
lieb@@
ersetzt
Women
Fischer
puts
Signal
bemerk@@
prozesses
Kräfte
entscheidende
Glas@@
Werke
Ag@@
Bars
direkte
größer
betrieben
amt
individuellen
radi@@
ico
Konsens
entr@@
Gerichtshof
occasions
transactions
weite
programms
verurteilt
verkauft
Arbeitsmarkt
ail
vorhandenen
scheme
aux
serving
Politiken
geln
marquis
Sozi@@
entwickelte
Mitarbeitern
zentral
linien
Asien
immigrants
respon@@
play@@
Verbreitung
cot@@
enes
Studien
beziehungen
ierende
einheitlichen
manufacturer
Network
correctly
Oder
reduzieren
stellungs@@
beruht
basi@@
pas@@
Klasse
ed-@@
replace
Pact
gewährt
ham
Within
6.
Amendments
glaub@@
enjoyed
Eli@@
Show
erhebliche
äußern
cash
weekend
Video@@
begrenzt
vorstellen
Zwecke
Anschluss
Well
arrived
EX@@
bekannte
strategischen
dence
ager
mö@@
Besorgnis
conf@@
Desk
Krankheit
G-@@
grundsätzlich
non
Stre@@
CE
Kli@@
Nachricht
gehenden
genannte
Nah@@
Wi-Fi
Space
IT-@@
inklusive
leu@@
slightly
Israeli
tos
Denk@@
bekämpfung
kg
hil@@
ées
Food
lex
miles
Canon
corresponding
inger
rental
adults
hren
fans
wes@@
Städten
sending
Vorstellung
Following
Don
nieder@@
itäten
legitimate
bi
drinks
Einwanderung
EP@@
constitutional
dru@@
Alt@@
г@@
Rezeption
Page
Person@@
nit@@
stimm@@
sicheren
Hot@@
Gold@@
Gewicht
Sein
esti@@
lers
glob@@
-based
Straf@@
Schiff@@
industri@@
â@@
Kapitel
kür@@
solid
adv@@
raten
direc@@
component
Freunden
beschäftigen
informationen
sprach@@
ming
ruhig
Hohen
einfacher
losses
genügend
youth
distributed
Champ@@
shares
Extre@@
·
nunmehr
Bedrohung
Coll@@
echt
Pla@@
Taiwan
suppliers
J
arischen
enter@@
providers
subsidiarity
banking
bereit@@
verkehrs@@
Schulen
offiziellen
angegebenen
annte
versorgung
Ol@@
Videos
sensible
mul@@
cuts
destruction
kn@@
OF
egal
ologischen
igung
magnificent
identified
niveau
Text@@
Bemerkung
rig@@
division
dest@@
constitution
Zone
läßt
drücken
jenen
wrote
Hier@@
Dach@@
EB@@
vi
194@@
fantas@@
effektiv
cian
Pack@@
updates
Kurs
wear
ierter
Asyl@@
ums@@
taxation
Malta
eds
kultur@@
Erzeugnisse
amed
7.
Systemen
addresses
Dan@@
Atlantic
Without
Reser@@
ahn@@
zusammenarbeiten
maritime
elsewhere
Selbst
aussprechen
Def@@
behaviour
interpretation
cial
ose
werken
hängen
considering
cab@@
et-@@
Juli@@
iges
Zug@@
kompet@@
globalisation
liberal
eventually
Sec@@
eau
Auge
New@@
Miss@@
Wohnung
vorbereitet
Europol
ault
NI
außerordentlich
peti@@
exception
französische
AN
derer
wege
stag@@
Wür@@
anne
leistung
verstärken
VAT
Acc@@
ensures
Benutzer@@
itä@@
secret
acqu@@
gangs
Marke
Zusätzlich
milk
electric
Cha@@
herrscht
gewonnen
AD
erfolgreichen
vorschriften
exports
Termin@@
Haup@@
verbinden
bli@@
führten
71
oring
spann@@
Schwei@@
Beitritts@@
ital
Schlaf@@
Wachstums@@
battle
hear@@
arti@@
domain
gebieten
sil@@
68
Gran
mäch@@
straight
Structural
Hungarian
Kontrollen
preparing
ema
traditionelle
SV
gestattet
encouraging
ug@@
extraordinary
Sunday
Nacht@@
eleg@@
Viertel
jener
antly
pack@@
leb@@
eat
unverzüglich
Kauf
erhielt
App@@
Valley
Mission
denden
hö@@
erlebt
decisive
bot@@
smo@@
53
Blog
schm@@
ungser@@
Thirdly
proposes
Fas@@
17.
eingereicht
courts
por
Wirk@@
Bef@@
Eisenbahn@@
wiederholen
vin@@
56
verantwortungs@@
Wohlstand
Sektoren
liked
aqu@@
lock
Balkans
mag@@
ungsverfahren
scene
ons@@
Islam
vulnerable
deficit
Charles
generate
pel@@
wissenschaftliche
disk
Salzburg
Internet-@@
auen
oper@@
ishing
filled
advis@@
army
Year
citizen
bem@@
Bereitstellung
mas@@
Einkommen
66
didn
everyday
Erstellung
Like
swi@@
label
Vorsitz
enhance
vieles
ont@@
gefallen
entscheidender
pay@@
wn
low@@
wat@@
beigetragen
surely
topics
filter
beschrieben
Lieferung
Beschluss
ye@@
Schwar@@
plenary
ham@@
irgend@@
slow
complicated
substance
packaging
impor@@
ento
großem
illustr@@
egel
luxurious
tlicher
anim@@
par
university
portal
centr@@
sugar
Lok@@
Touristen
Pakete
UC@@
supplies
bonus
Ehr@@
spoke
Einheit
Spaß
ähnlich
finanziert
accurate
lessons
index
gerichtet
invest
spe@@
spo@@
WLAN
virtual
Client
inclusion
a.@@
stän@@
Nos
sh
kleines
examine
20-@@
§
Ungarn
gewi@@
directed
Exchange
Theater
Männern
Assembly
bislang
but@@
connect
8.
proven
wunderschönen
Katastrophe
Os@@
Verk@@
Salz@@
Schlussfolgerungen
Blan@@
arise
Main
Fuß@@
selben
zeichnen
specified
elektronischen
patent
jährige
bestimmter
Thursday
excessive
CON@@
Garden
selling
therapy
Vene@@
gesellschaften
Mangel
Son@@
Entscheidungs@@
voc@@
beteiligen
theory
enabled
videos
herr@@
Ansichten
Staates
aufs
suffer
Fal@@
ero
integriert
leistungen
ling@@
ENT@@
vermitteln
impose
Cer@@
tem@@
concepts
Live
intern@@
16.
Kyoto
graph@@
renowned
alitäten
erzeugt
absence
Get@@
Mail@@
bung
zahl
deposit
stolz
zustellen
rem@@
ride
einzigartigen
forests
Roh@@
wohl@@
Brasilien
Genehmigung
adopting
shipping
description
Bio@@
sozi@@
prim@@
stic
bility
diplom@@
Sicherung
hundred
chem@@
Einwohner
greatly
Bin@@
sinn@@
dende
Medien@@
Kontext
Digital
Zw@@
pped
geboten
savings
A.
Mitt@@
Polizei
housing
directory
gio
Zwei
Vater
menschliche
proceed
flows
amm
tigungs@@
equi@@
BMW
din
drug
abuse
verbindet
Konto
Rechtsgrundlage
centuries
traditions
Cir@@
hervor
anwesend
investieren
carrying
finish
killed
handle
entation
courage
angegeben
frame
Besides
Organ@@
applying
departure
ope
ator@@
sparen
suggestions
wonder
sper@@
solches
vertrau@@
gained
Law
voluntary
conver@@
Grad
Modelle
solely
proposing
foot@@
raising
Arbeit@@
holds
countryside
sit
absor@@
ever@@
villages
BO@@
subjects
punkte
Konsequenzen
law@@
Games
Guests
alisiert
ordinary
pot
Image
Lounge
Datei@@
formation
Mail
COM
UM@@
verhalten
quar@@
lined
Provinz
paying
duties
trial
behörde
cked
AC
supplier
sern
tes@@
Cup
sich@@
Darum
resul@@
notes
colours
Gerät
eingehalten
artistic
press@@
gerät
ume
Dauer
politi@@
29@@
Nummer
bereichen
expl@@
representation
59
Hamas
dokum@@
angen@@
lied
unge@@
gewissen
succ@@
ners
illi@@
CS
Wo
gesetz@@
annt
sn@@
Rap@@
ori
Budget
eh
Fax
Elektro@@
thousand
beantworten
appeared
philosophy
odi@@
freut
se-@@
treat
Wo@@
chern
individuell
Positionen
trend
Set
Boden@@
Prozesse
grös@@
pursue
ading
gal@@
camp@@
museums
Tools
ION
gering@@
consent
tables
nar@@
Beschlüsse
nevertheless
Holiday
ähnliche
Rö@@
Betrag
weitgehend
comparison
manche
geschichte
bereitgestellt
nicht@@
promised
ols
Landes@@
kräfte
Maastricht
trips
Kroatien
reservations
100@@
fun@@
internen
receiving
Wählen
beobachten
bedeutende
Glaubwürdigkeit
mas
input
inmitten
invited
Egypt
Deb@@
Top@@
ziel@@
Having
tel
Politik@@
sheet
unity
oti@@
mussten
geräte
wiederholt
della
difficulty
root
mo
gestellte
40@@
tobacco
zuständig
Rahmen@@
Ton@@
effizient
riffe
Schwer@@
Überlegungen
award
skiing
Empf@@
portfolio
bekommt
bergen
Mir@@
Parkplatz
uted
Hom@@
Kopf
ausgezeichnet
Kulturen
mittleren
essi@@
entspannen
sozialer
Islamic
Ganz
Trotzdem
Wur@@
sle@@
laufenden
Kontakte
anbelangt
92
clo@@
erstmals
Legal
überprüft
Quality
Zivilgesellschaft
suggested
Num@@
sus
Gegenstand
Bulgarien
Reduzierung
viol@@
St
dul@@
SA
wirtschafts@@
Suiten
58
Gast
langfristige
Castle
itten
Situated
pure
Sum@@
Korruption
alisierten
einbezogen
prosperity
tsp@@
Kap@@
scht
probleme
voraus@@
druck@@
pools
erie
mung
alistischen
ursprünglich
Agriculture
modell
ville
alisieren
Lat@@
ost@@
tennis
Playa
langsam
gebildet
relative
disabled
ind
Menü
eingeb@@
Monday
Gut@@
schle@@
heben
Mrd.
productivity
dt
Gehminuten
arguments
istic
auff@@
fuer
fertig
periods
Sin@@
Glück
Schlüssel
optimale
Professor
Boot@@
Anlass
well-known
uring
hydro@@
welcoming
Mr.
Geschmack
depend
delicious
hr
necessarily
attempts
reduziert
gedacht
CF@@
Gefahren
Based
patient
licht
Budgets
confirmation
Alb@@
etzen
Browser
arbeits@@
mid-@@
Americans
aben
schwei@@
fix@@
Stra@@
esse
brei@@
wirtschaftlich
sers
weak
typ@@
mach@@
garten
Inn@@
Energien
Vorhaben
cleaning
zi
ford
fahrer
speichern
angesehen
natur@@
referendum
gerufen
AM
Imp@@
ases
stream
Wald@@
Kollegin
mechan@@
Stoffe
leaves
hill
religion
import
ent-@@
cop@@
ET
Dafür
dauert
isti@@
Prüf@@
Gewährleistung
Strasbourg
passen
ached
Pil@@
gab@@
ück@@
Eigentum
verteilt
layer
nei@@
mangel@@
ausgerichtet
Lebensmittel
shot
united
AR
esta
Est@@
Posi@@
auftreten
ologische
enabling
imports
EA
overview
Tip
letztendlich
län@@
verein@@
farming
homes
eta
Zy@@
10.
sicherung
betreiben
pil@@
ows
summ@@
sla@@
DO@@
Apple
Kam@@
zentren
permitted
Körper@@
angebot
olo
fen@@
©
wave
aire
dict@@
dream
lobby
tex@@
omp@@
entschlossen
Bay@@
sounds
villa
behaupten
iner
schnell@@
ahn
Place
buch
hör@@
ausgegeben
allocated
oria
aktion
estimated
Schiffe
Dr@@
Verlust
constitute
politically
altet
täglichen
verkehrs
Gerade
tested
Bahn@@
societies
zukünftigen
unforgettable
4,@@
ersetzen
Wirtschaftswachstum
verfügbaren
cies
pes
Aufsichts@@
succeed
non@@
Weg@@
Master
wechsel
Strom@@
significance
88
Federation
V-@@
Play@@
publication
Facilities
gend@@
ras@@
heim@@
projekte
cooperate
ef
hierbei
welcomed
Through
inos
arm@@
Bul@@
rus@@
instructions
mann@@
ean
XP
kontaktieren
künftige
unds
continuous
Gaza
objek@@
upper
Musi@@
Fahrzeuge
ement@@
recognized
Metro@@
Erfüllung
Emp@@
wireless
gelingt
Entlastung
Personal@@
Praktiken
beendet
einzusetzen
symbol
absol@@
Sterne
Wechsel@@
obliged
actors
Tag@@
militärischen
versichern
GN@@
enge
spiele
Dreh@@
visu@@
Belgien
evol@@
swe@@
unterscheiden
Dro@@
emb@@
Poly@@
kam@@
gründen
mischen
klein
deut@@
Völker@@
hän@@
Gericht
prev@@
ires
Asian
atur@@
Gir@@
größeres
Übergangs@@
fourth
bou@@
Genießen
functionality
Thailand
resp@@
ECB
Les
б@@
verteidigen
Brü@@
iPhone
füll@@
individu@@
angepasst
änge
ligen
konfrontiert
specialist
sz@@
programming
Who
toward
bran@@
militärische
ght@@
rare
ès
9.
Schiff
mes@@
destroyed
й
Prozesses
konzentriert
Hum@@
Rent@@
supposed
Telefon@@
missing
klein@@
offene
allzu
grund@@
Freitag
Finanzierungs@@
anner
initi@@
refers
hardly
leh@@
contributed
roman@@
kontrolle
legte
12.
Az@@
phot@@
Berliner
Trau@@
Ausflüge
Anstieg
Pau@@
Islands
Point
Haf@@
Gerechtigkeit
Finland
prime
remained
aktiviert
ра@@
Verletzung
Gemeinde
interessant
bares
sections
lived
covering
welcomes
organic
cells
fundament@@
ativ@@
inner
ells
ollen
Neben@@
bet
Fir@@
Frühstücksbuffet
unabhängigen
Guide
Cu@@
Minist@@
ald
HO@@
mi
Perspektive
archi@@
characters
agt
negotiating
67
ep
Terror@@
modules
einf@@
Vier@@
song
Pay@@
Mut
57
Australia
Krisen@@
Nachbar@@
nungen
Feld
spreche
harmonisation
Gem@@
Inform@@
Amt
fulfil
Übernachtung
teilt
chtes
13.
Verarbeitung
hospitality
automati@@
Sachen
fü@@
Runde
lunch
brachte
förder@@
Standort
supervision
heim
suffered
traum@@
eder@@
Situationen
preventing
red@@
Family
Hü@@
Nachbarn
Next
Betten
maß@@
uter
ungs
Schweizer
Flüchtlinge
wettbewerbs@@
revision
ious
euros
Zeitung
viertel
struktur
reaching
altern@@
amenities
Eink@@
unterzeichnet
institutionelle
ept
fees
herunterladen
explained
Tat@@
fähigen
mitteilen
Organe
none
classes
armed
gres@@
gemeinschaftlichen
unterstreichen
deswegen
Weiteren
lad@@
thin
serv@@
fir@@
Forsch@@
adap@@
songs
bisherigen
illegalen
FT@@
Kas@@
sichtbar
Institu@@
strategische
productive
fig@@
adverti@@
Wild@@
stil@@
bestellen
forthcoming
blocks
Pläne
Education
dert
Märkten
NGOs
indicate
Bad@@
fs@@
richtet
Ansch@@
könnt
legally
lon@@
Blu@@
thermal
musical
echnik
Tätigkeiten
vorzulegen
barriers
Willkommen
ô@@
stages
betreffend
poly@@
freedoms
vollständigen
lieber
rad
endo
wirksame
Sind
abstimmen
Bou@@
Med@@
anschließend
Should
turning
schrei@@
belief
sphere
kehr@@
Finanzkrise
introducing
everybody
gut@@
empfangen
Director
parameters
zukünftige
restricted
seg@@
designs
liegenden
Schon
PD@@
hochwertige
Nic@@
Grünen
trends
conventional
lock@@
angebracht
Donnerstag
ector
bach
Widerspruch
originally
HTML
natürliche
unterliegen
sustainability
saved
Bab@@
grosse
verdienen
labelling
driven
brow@@
praktische
ergibt
gap
stocks
computers
Project
movie
wellness
entsp@@
zeug
Regierungschefs
vorgeschlagene
hart
Auditors
onic
Abendessen
umfangreiche
Veränderung
football
AF@@
Hö@@
geprägt
oned
Angel@@
Speci@@
coun@@
Koh@@
Jun@@
movements
phones
Redner
enhanced
Venice
Waffen@@
selten
enterprise
wild
äh@@
nutz@@
wa
firmly
resource
bles
erei
Schloss
Ankunft
isiert
male
severe
vorgesehenen
gungs@@
combine
Saturday
Tief@@
Andere
impl@@
atively
bly
reflected
tree
langfristig
showed
Anti-@@
transmission
effiziente
realise
errors
refer@@
Studi@@
Geschäft
edly
fairly
kel@@
halb
Gor@@
modi@@
Institut
unabhängige
Zuständigkeit
drop
ish@@
Zug
Ausmaß
VER@@
leitung
anzuzeigen
Single
Vorsch@@
züge
Stimmen
anen
Transpor@@
Internationale
pris@@
Stability
nde
remarks
Mallorca
weis@@
behoben
squ@@
beings
Tool
Mutter@@
fuhr
anhand
Rest@@
suit
schule
verwaltung
Ablehnung
itation
atz
proceedings
tter
Kanada
anschließen
ativer
Cookies
gemeinschaft
Dep@@
waffen
reflects
Vietnam
gebeten
Does
Bot@@
hingegen
AIDS
Macht@@
Piazza
14.
imagine
wachsenden
considerably
dering
amb@@
ji
fährt
och
Serbia
vorbei
adapted
ließen
grenzen
Socialist
SL@@
Rio
director
hearing
proj@@
tiz@@
verst@@
Fehler@@
cancer
Corporate
amazing
-L@@
Tem@@
heit@@
Quellen
phi@@
Vista
Armee
Zivil@@
fanden
sauber
obstacles
anger@@
Mah@@
stieg
edition
gener
Vorlage
lösungen
alise
Regional
whereas
Cri@@
safeguard
gemä@@
Büro
vorschlag
normalerweise
universities
ede
unt@@
stör@@
parliament
án
Tei@@
passt
ections
collected
CHF
Leitung
gewähren
endorse
budgets
sogenannten
wahren
Konferenz@@
Respekt
diagno@@
Plas@@
Komm@@
Reisen
coordinated
Captain
ätze
adapt
Stockholm
Album
zahlung
zuzu@@
fikation
compar@@
tracks
hier@@
Berg
glich@@
BI@@
Dol@@
Jugend@@
faith
female
sing@@
hervorragenden
super
thy
Bour@@
activ@@
pen
aul@@
technik
richtung
fügen
acceptance
regardless
kul@@
Staatsan@@
Christmas
romantic
tief
ill
pressed
Port@@
L-@@
kanischen
dargestellt
dankbar
Ebenen
um-@@
Quali@@
Dienstleistungs@@
Geneva
erzeu@@
Freizügigkeit
chair
a.m.
schnellen
Sig@@
investigation
Börse
Stad@@
normalen
generations
63
sights
alem
freundlichen
Sohn
decade
Basi@@
consulting
mol@@
0s
Ali@@
letters
chungen
VI@@
worthy
Road
Führer
körper@@
gewünschten
ext@@
GT@@
Heizung
enthaltenen
König
hohem
ease
Abhängigkeit
dark
rom@@
Meines
vessels
dry
Cr@@
Rückkehr
umzu@@
vereinbart
ecting
federal
vorliegende
Indian
dens
Rem@@
besonderer
öffentlich
ect@@
82
exploitation
arbeitete
undoubtedly
boards
servers
Deutsch
bili@@
verboten
Aktionsplan
Abschaffung
Г
Mem@@
till
managing
tionally
80@@
Urheber@@
priv@@
reaction
Wochenende
equivalent
Gesam@@
sson
pretty
ahr@@
SW@@
Kit@@
Erinnerung
heißen
disasters
sought
keit
kontrollieren
Volkes
geraten
inner@@
märkte
produzieren
Reservierung
fassung
birth
compact
m-@@
flächen
Steuerung
schutzes
ned
schriften
Entspannung
Prot@@
bereiten
rieben
travelling
alty
ernsthaft
Haushaltsplan
Last@@
Kong
geplant
Lizenz
erkannt
Hong
erfreut
fleet
ordered
Teams
Gang
steigt
griechischen
internationally
proc@@
illa
test@@
Erst
annten
guided
Stuttgart
Got@@
checks
Maschine
läu@@
Rein@@
Culture
jetzigen
Geschwindigkeit
Equ@@
Je@@
Regel@@
Konflikte
Beteiligten
Customer
metro
Sammlung
ush
joining
vic@@
Betra@@
bezahlt
Dritten
externen
Befugnisse
tier
ras
printed
pp
Orte
Jahrzehnten
konferenz
Zahlungen
utz@@
dings
fix
EP
Kno@@
methoden
decline
gnis
nom@@
restored
underground
zog
Kirk
antworten
Marken
supplied
Georgia
Kü@@
Fahrt
onds
Interess@@
gefragt
roots
hervorgehoben
abilities
Inf@@
räger
Quelle
Beide
protocol
komplette
Check
Prozess@@
Binnenmarktes
MA
Planeten
asses
senken
Tibet
Att@@
nummer
überaus
Gleichstellung
pet@@
alter@@
küh@@
mögen
bestimmungen
Administration
Investitions@@
einheitliche
sia
Berichten
exclusion
elec@@
NO@@
Gran@@
aufgebaut
anywhere
believes
Pot@@
tigkeiten
reliability
ula
gaben
excluded
62
pressing
nbsp
mittlerweile
Exper@@
erfordern
Tourism
analyse
sand
Ret@@
schweren
Up
s-
commun@@
learned
satisfy
CD@@
Euch
Geheim@@
profession@@
chtungen
zeugen
Partner@@
Handels
entgegen
penalty
akes
dialog
Kreditkarte
eg
Friendly
fang
leichter
dau@@
Blue
afrikanischen
unterschiedlich
erwähnen
ened
Typ@@
wald
Grün@@
Großteil
concentrate
Meeting
Pir@@
klassischen
Schönheit
Gam@@
politisches
beschränken
shift
cell@@
schung
tu
restructuring
deep@@
modernis@@
predic@@
tisches
eingestellt
Mutter
Debian-@@
zugrunde
ökonomischen
Vorausschau
subsequent
entdeckt
virus
Darstellung
trav@@
script
regel@@
floors
überein
violations
transferred
ign
Information@@
perf@@
dy@@
Allianz
schli@@
missions
bedanken
processed
Opposition
bild@@
komfortable
clause
ects
letzter
untersucht
of-@@
Cab@@
Optim@@
Ursachen
existiert
humanitäre
ACP
Diam@@
eo
nachdrücklich
stories
77
cultures
steam
Location
perfekte
zurückzuführen
Tor
freund@@
umsetzen
Alexander
sovereignty
bs@@
Micro@@
aside
dignity
Audi@@
formats
hierfür
grade
Hauptbahnhof
Tausende
unden@@
Sun@@
non-smoking
stammt
remin@@
Top
Notes
Blut@@
Verteilung
everywhere
oes
69
problem@@
GU@@
Anwendungs@@
assembly
Eth@@
nahme@@
eness
het
contrac@@
eingegangen
eless
int
counter
LA
meter
restore
Pati@@
Mir
Aktion@@
merk@@
bio@@
Casa
riff@@
strasse
89
berichten
Faktor
900
vice
Branche
Direkt@@
umfassend
dating
magazine
festzulegen
Eu@@
sah
Kriminalität
Investoren
rol
Agenturen
Gemeinsame
Commissioners
Eingang
groß@@
gestaltung
Nahrungsmittel@@
73
plastic
Geschäft@@
melden
jüng@@
reserved
loser
ät
sprech@@
Spielen
Tages
einzuführen
overlooking
Il
grossen
Cel@@
Academy
Balkan
produces
Lizenz@@
targeted
dead
meal
enorme
äumen
Rechten
assess
SD@@
korrekt
Museen
Emissionen
approve
Passwort
panel
Ferien@@
geleitet
Well@@
Sol
Nero
Generationen
gehör@@
hoffentlich
Vertrages
cing
nine
jo
mine
hast
Hat
justi@@
listings
Sudan
Arbeitsplatz
denti@@
ix
picturesque
Stamm@@
accident
ulated
Rep@@
lädt
shadow
ähr@@
deeply
strengthened
miss
undertaken
treatments
regu@@
Kn@@
Früh@@
cool
Ari@@
Würde
Stock
Det@@
kernel
ritten
EZB
Staff
student
cell
tert
wonach
lie@@
max
ization
operates
tionary
Parameter
frühen
ebene
Bereitschaft
Haut
begleitet
besorgt
emen
Opera
erweitern
Mark
worst
promise
akte
A5-0@@
Rh@@
Somit
Tau@@
sizes
h-@@
geeignete
gering
loy@@
eien
offizielle
norm@@
festgelegten
H-0@@
Papier
Schön@@
Be
Nav@@
bo
Frist
Fernsehen
sü@@
etr@@
us-@@
Haben
Innenstadt
Would
erklär@@
Rechtsstaatlichkeit
normally
intelligent
tender
ungsver@@
unfair
fishermen
Events
Pack
Dur@@
eht
aling
93
pt@@
SCH@@
executive
reconstruction
Fried@@
digitalen
fly
IMF
verl@@
SE
ausgaben
panoramic
angewendet
lor@@
1980
Vari@@
vornehmen
Anwender
fair@@
Freizeit@@
rift
stattfindet
gehei@@
Parkplätze
nütz@@
freely
hiking
ANT@@
bern
diskrimin@@
Among
Speisen
Stärke
geäußert
province
SC@@
Registrierung
kontrol@@
teils
vorschläge
anniversary
steigern
festen
Öffnung
61
Bibliothek
vorher@@
Dies@@
entliche
dei
zun@@
blei@@
enting
stab@@
faszin@@
Reserve
bathrooms
usage
Offen@@
Miet@@
verwende
posed
Joseph
ständen
individually
pression
Der@@
superior
Cast@@
Strand@@
Kontinent
Volksgesundheit
Techn@@
irre@@
ARE
geber
voraus
Industry
aker
Miß@@
Verlauf
qualitativ
gnissen
sty@@
faces
mid@@
fik@@
Strecke
threats
switch
prospects
UL@@
empfohlen
Amerikaner
türkischen
prob@@
Denmark
engines
casino
DR@@
kraft@@
esischen
zieren
briefly
engaged
profits
wind@@
Niederlanden
unn@@
pt
Content
keinem
aush@@
manufacture
Dritte
beenden
collect
Vir@@
inn
verweisen
CAP
30.
verfol@@
highlights
revolution
pap@@
Ferienwohnung
Währungsunion
attached
Reb@@
prozesse
nützlich
avo@@
Kompetenz
funded
reputation
taxi
Golden
labor
ganz@@
Consumer
Motor
dollar
bol@@
neighbouring
solar
Überblick
Pon@@
Dass
flug@@
fähige
Küsten@@
stration
adds
Minute
selber
Herz
ecological
acknowledge
Wellness
toler@@
gene@@
Wandel
rech@@
gän@@
füh@@
Kapital
bewältigen
adding
shor@@
Lern@@
94
belong
stran@@
Parti@@
Gelder
worfen
popul@@
teaching
5,@@
Jugend
Mini@@
Fot@@
herrlichen
gestärkt
Consequently
Saf@@
mere
poses
cos
Wirtschaftskrise
gelesen
60@@
sleep
gesetzlichen
eries
Tel
Handlungs@@
eda
Kampagne
überwinden
elli
varied
operated
struggle
ices
revi@@
stunning
eben@@
genaue
erfahr@@
Umweltschutz
zerstört
begins
Dam@@
lit@@
linken
sichergestellt
tot@@
Herbst
Öl
efficiently
auto@@
fax
i-@@
Residence
Krank@@
gegenwärtige
BSE
Christ@@
Verein@@
schu@@
Andererseits
Autobahn
ütz@@
entering
arising
references
Il@@
stuff
Richard
three-@@
umin@@
diert
gewer@@
eth
meets
prin@@
agne
CDs
Zürich
ergänzt
ziger
Bestimmung
integrierten
bot
Bord
unmittelbarer
Zahlung
Länge
ennen
alists
mar
eigener
itable
täts@@
räumen
ø@@
Nam@@
vertrag
twice
illu@@
froh
Vereinfachung
Protocol
ua
proportion
reck@@
ao
mb@@
rücken
schlag@@
presenting
Florenz
sees
Instruments
Auftrags@@
ays
Kategorien
Presse@@
Bearbeitung
behält
pun@@
journ@@
zel@@
Potenzial
obj@@
riding
graphics
camp
Debatten
Mart@@
surprise
immer@@
eurozone
zeichnungen
stärkere
combines
außen
Fluss
rif@@
entsch@@
78
sar@@
Up@@
Dokumenten
recording
dated
76
Using
ř@@
steh@@
Softwar@@
sufficiently
mistake
sized
OK
Bed
Hohe
gleichermaßen
viert
Montag
ament
Belgian
kel
bende
Glei@@
besu@@
kontrolliert
CD-@@
M.
pillar
Autos
DC
Freund
Resolution
sex
Ten@@
CN@@
wort
zukommen
richtlinie
Gerichts@@
visual
heading
fru@@
ego
rechtzeitig
strah@@
irischen
rupt
Wesentlichen
territorial
part@@
tac@@
Š@@
Regi@@
grad
Erhaltung
Berichterstatters
langfristigen
aya
frem@@
urgently
rac@@
kilometres
19th
Sau@@
stück
relates
Conc@@
Society
codes
Sound
kir@@
sch-@@
tö@@
Beseitigung
selb@@
gesichert
Absch@@
angemessenen
phenomenon
rely
seats
diges
warning
Radi@@
push
Loc@@
zige
wendet
Have
bright
occurred
Gest@@
BC
Waren@@
anzubieten
scientists
Presse
gsten
yed
Wen@@
Kern
schrift
abend
ax
EU-Mitgliedstaaten
pub@@
shuttle
meister
diplomatic
esc@@
Suites
Bir@@
makers
legitim@@
grown
eur
candidates
medicine
kurs
proz@@
cross@@
native
2nd
Intelli@@
reibungen
negativen
convenience
sophisticated
Renn@@
Chem@@
engage
synchron@@
bedeutenden
Science
Email
Kandidaten
ten-@@
euer@@
inspired
enne
lev@@
Detail
binden
Oberfläche
--@@
Satelli@@
Polizei@@
ettes
Ker@@
Schulden
derzeitige
unentgeltlich
urg@@
Black@@
anzeigen
rolle
ished
specialists
Afri@@
Phili@@
typischen
effektive
Mechanismen
Parlamente
Projekts
yard
College
FA@@
Geschle@@
Gewinn@@
Tür
acquired
Dritt@@
stammen
Straßburg
feet
causing
heads
damages
yo@@
garage
maxim@@
Archi@@
lten
zü@@
execution
virtually
wage
oldest
fas@@
Inv@@
ehren
UNO
losigkeit
seconds
meals
sorge
besucht
Benutzung
einfach@@
innov@@
änder
zwingen
records
tile
bour@@
urlaub
appropriations
Ombudsman
Fur@@
Bed@@
ín
Pension
concert
Luxemburg
angenehmen
lenken
outs
Om@@
uniform
appar@@
Area
IM
Children
premi@@
recognize
habit@@
constructed
intends
aktuell
Versorgung
elev@@
cin@@
Bereits
Dingen
rechtlich
upgrade
gültig
geographical
diff@@
choices
lan
Spitzen@@
highlighted
integrate
Appartements
erzeugen
boost
honour
ı@@
Berge
Explorer
Koordin@@
Lastly
stern
Professional
construc@@
operator
Feuer@@
Further
ão
Start@@
Bedürfnissen
resulted
pick
GE
Kopenhagen
erstaun@@
Eff@@
succeeded
unc@@
kro@@
tin@@
74
alien
lica
Will@@
steuern
trained
reser@@
ehm@@
Zeu@@
.net
Tal
bewahren
referring
Cy@@
EV@@
Lux@@
angenehm
Patent@@
alistische
untersuchen
sichtlich
Tonnen
ländliche
prec@@
marine
ories
sach@@
essentially
General@@
tags
appen
fähi@@
rum@@
Religion
wartet
entscheidenden
strictly
hidden
consequence
91
producer
Islam@@
tenen
geliefert
gradually
Innovationen
checked
coherent
symboli@@
shel@@
fers
Kaffee
Leit@@
SAP
knapp
suche
hierzu
wertung
errichtet
Sobald
liable
ny
graphic
ography
konkret
350
Sierra
abili@@
stores
realer
Bom@@
west@@
chts
kümmern
endet
ct
boats
oner
manual
CL@@
widespread
sian
500@@
Lor@@
verse
IK@@
engli@@
gehörigen
ily
rah@@
ologisch
lichsten
vorgestellt
Augenblick
Ama@@
past@@
Sonntag
Nikon
radik@@
ples
dal
Saddam
Ägypten
nern
reporting
я@@
beinhalten
affects
narrow
4-star
treiben
explanation
sound@@
incorporated
fts
atom@@
europäisches
berechnet
müsste
tivität
auffordern
passing
Assi@@
Hinweise
any@@
stands@@
alisierte
gefähr@@
denjenigen
Häuser
praktischen
Regulierung
finanzieren
last@@
ungsh@@
Flü@@
Lesen
aps
Differ@@
aviation
überlassen
Senkung
troops
wach@@
Dialogs
81
Drittel
Common
Nokia
sitzen
Fortsch@@
Fehl@@
Staats-
spezialisiert
favourable
gue
vis
Car
colors
anwen@@
grünen
revenue
forth
eux
unch
Tests
ington
teachers
Ball@@
strei@@
würdig
angeb@@
Fläche
Höchst@@
Schreiben
erklärte
hef@@
ool
Zusammenhalt
Besuchen
gross
zia
Small
Stock@@
spir@@
gekennzeichnet
ring@@
snow
mouth
Warcraft
var
soil
ausgewählt
champ@@
ond@@
Hall@@
Hindernisse
ains
Hard@@
alcohol
victory
EE@@
rad@@
schluss
Govern@@
agents
airports
Porto
Anmeldung
sitz
Nachhaltigkeit
befasst
agen@@
ood
gement
UNESCO
Dre@@
Vertretern
block@@
konstru@@
Verkehr@@
tiere
vergleich@@
Ansprüche
geführte
Mechanismus
beer
plate
ehmer
tnissen
Al
Module
Käufer
constitu@@
Premierminister
seu@@
renoviert
Beachtung
weak@@
exact
rechnen
Sicherheitspolitik
considers
¼
Todesstrafe
sammeln
Jugendlichen
ises
participating
Pflanzen
repair
igkeit
gelegenen
Mandat
anten@@
Ergebnissen
Pacific
Department
CR@@
bay
Urteil
Danish
encouraged
hypo@@
manu@@
GR@@
ium
tei@@
sement
Cooperation
Sonn@@
olive
Verfassungs@@
surprised
girls
dres@@
Mes@@
Übertragung
üssen
vely
Haar@@
ray
mouse
eni@@
weltweite
Real@@
Glauben
inder@@
gänge
Widerstand
lieren
prosec@@
gehandelt
taining
capabilities
stayed
dance
älteren
produkten
diesbezüglich
doub@@
willingness
stem
expor@@
keys
TS
organiz@@
specialized
Erst@@
krei@@
Todes@@
wesentlicher
attend
Sky@@
müssten
versammlung
AP
ids
eventuell
beeinflussen
Unions@@
chinesische
observed
Ess@@
Urlaubs@@
PA
erb@@
contextual
Symbol
Tauch@@
urgency
Investment
Var@@
bru@@
fügt
Wirksamkeit
Nor
Constitutional
betrieb
klasse
Helsinki
achievement
hills
Vic@@
Projek@@
günstige
Vice-President
world-@@
Airlines
25.
Entfernung
roll
stan
angle
egel@@
eted
broken
Fass@@
Fan@@
gefährdet
utmost
DER
leiter
Apart
Authority
Deck@@
vil@@
langer
Journalisten
gewählten
Franc@@
Chile
drin@@
bringung
propor@@
prisoners
yr@@
fiziert
beantwortet
grenz@@
seeks
ho
booked
Intern@@
Sz@@
Ersatz@@
festzustellen
clock
Civil
mäßige
Betreuung
wu@@
verletzt
Finnland
conferences
Ay@@
geblieben
Erlebnis
dauer
Mexiko
programmen
regulated
insist
Louis
stur@@
Versammlung
projekt
know-how
promises
ober@@
Oliven@@
Direc@@
irs
án@@
wooden
Meg@@
Gewal@@
Datum
opens
Scho@@
Jer@@
wechseln
fällig
clarify
preserve
Fei@@
A.@@
ßer
langs@@
Holz
zungen
wonder@@
buil@@
accidents
crises
sible
roof
terror@@
Weil
oftmals
Chr@@
Plug@@
Saison
composition
developers
Inflation
Sound@@
struc@@
associations
free@@
Terms
sively
Mei@@
ärer
wahr
Ausbildungs@@
spite
Fa@@
By@@
UR
Präsenz
märkten
ee@@
87
jedenfalls
neun
gastronom@@
sexu@@
spät
setzte
angewandt
Billi@@
sand@@
Är@@
armen
hole
Ste@@
shore
Ty@@
echter
professionelle
logical
crew
arte
BS@@
eland
TE
ats@@
Pul@@
momentan
illegale
jour@@
Dokumentation
efs
ов@@
seln
Einen
Finde
alongside
theatre
Mädchen
convention
bü@@
benutz@@
Räume
Netzwerk@@
fted
percentage
correc@@
Jerusalem
ý
geregelt
indoor
lass@@
arm
Strände
begrün@@
variable
क@@
permission
Fig@@
Portal
eist@@
soeben
by-@@
Access
chron@@
längst
tief@@
Kohäsionspolitik
rank
neigh@@
2015
infolge
ergänzen
Gemeinschaften
snow@@
ult
quotas
airlines
Cock@@
Dresden
Wohnzimmer
evident
ential
Travel
studi@@
edited
chi
ologi@@
HD
Tabak@@
alisten
schwierige
purely
catch
navigation
kap@@
QU@@
hopes
frequ@@
Ner@@
harmful
zy
ova
convergence
nehmer
Rock
ekt
wirkliche
Altern@@
Modernisierung
enburg
sequ@@
ansehen
&apos;m
6,@@
Rich@@
schwere
Ratschlag
wur@@
euer
festlegen
finanzi@@
charakter@@
palästinensischen
Verwirklichung
ION@@
tut@@
homo@@
Aufzug
Samstag
Vorstellungen
verwal@@
anzunehmen
diversi@@
HD@@
Spitze
seemed
sessions
progres@@
Zus@@
ution
arts
gia
onie
andi@@
dispute
Basel
Spezialitäten
incentives
acks
discount
hinweg
arium
Zuge
Jedoch
charm
kern
regierung
sel
Vers@@
compulsory
calm
B5-0@@
Bud@@
Florence
agements
Ori@@
Rand@@
tun@@
Mich@@
DV@@
Stell@@
ě@@
sauber@@
fass@@
Energieeffizienz
199@@
ENT
layout
übersch@@
arians
jk
classical
mern
Doppelzimmer
Wirtschaftspolitik
prison
dest
implications
communicate
mente
Bestell@@
netz@@
aufzubauen
radical
accounting
U-@@
frag@@
Muslim
sterben
ktionen
ansprechen
clim@@
suff@@
20th
bewerten
geschickt
humanitären
Betriebe
relationships
cla@@
Operation
clicking
eriert
Übrigen
governing
scheduled
string
Cuba
Lü@@
nat@@
Lit@@
ali
schar@@
Wachstum@@
rats
tain@@
theore@@
Marken@@
zeichn@@
Personen@@
minor
stake
BM@@
Verzeichnis
ander
Burma
till@@
netz
kehren
ultimate
visi@@
Ok@@
superb
nomin@@
adventure
Errichtung
expand
hervorragend
Vertrag@@
Weiterentwicklung
organise
extra@@
distur@@
sk
wäl@@
geschlossenen
Chairman
utt@@
unt
tious
organ@@
Riviera
Stiftung
ury
öl
HU
hinzu
krise
expense
wächst
thri@@
12.00
Product
array
enjoys
ago@@
Tan@@
Schulden@@
Bildern
entieren
vorge@@
bearing
pilot
Michel
Jesus
Treaties
addi@@
transfers
forming
var@@
wander@@
Ven@@
Bade@@
Aktien@@
verringert
power@@
polis
rö@@
Unterkünfte
initially
agu@@
meaningfully
kette
offenbar
Philosophie
ehemalige
decre@@
mile
Leipzig
eri
believed
medieval
multilateral
recip@@
Nigeria
aktu@@
Amts@@
kennt
Argumente
sektors
Search
Kopf@@
Außen-
wife
plug@@
Gay
Apart@@
mort@@
Herr@@
Viel@@
Jahr@@
zahlungen
Asi@@
füllt
approaches
IP-@@
м
Traditionen
clean@@
Edinburgh
Volkswirtschaften
staying
Inst@@
krimin@@
italienische
Zwar
enthalt
83
entfernen
versteht
digungen
manchen
Zypern
lish
aking
Andalu@@
Bücher
nehm@@
Flughäfen
ears
saf@@
vent
Joint
Werden
Auflösung
maybe
Lis@@
Listings
ful@@
technique
Siemens
beln
Werten
Schüler
berühmte
Wohnungen
ank
Account
Three
smooth
ко@@
Bol@@
digitale
enforcement
step@@
Jac@@
loses
Milit@@
Gau@@
Engineering
busy
sever@@
Line
Sens@@
Umweltfragen
Wähler
long@@
remarkable
studied
Grundlagen
Truppen
ruppe
Arbeitnehmern
describe
retain
Syria
Jewish
Big
ester@@
но@@
Ausarbeitung
shortly
CEO
ateg@@
liert
Akteure
Vill@@
MP3
akt
addressing
Annehmlichkeiten
schein@@
Objekte
moder@@
volles
kontextuellen
concentration
richt@@
nah
standen
Fundamental
bis@@
mehrfach
Wissenschaftler
entdeckst
employed
loading
asset
Fron@@
SQL
Firefox
Safe
Adri@@
gon
Armen@@
ados
Samsung
strukturen
verw@@
permit
eliminate
partic@@
Schei@@
bahn@@
entstand
audience
bought
Valencia
Krieges
Read
train@@
tagen
überzeu@@
verwendeten
trat
faßt
vir@@
Nord
Peti@@
Fabri@@
terung
Wiederaufbau
werks
Fahrer
Danach
Orten
scar@@
band@@
haus@@
repeated
Performance
Maur@@
Vermittlungs@@
poorest
arom@@
qui
ino@@
fot@@
grammatically
kostenlose
schemes
iled
ingredients
1.5
Hit@@
contextually
eingebracht
1988
Export@@
Filme
Swi@@
poker
Arena
enormen
geniessen
hinzufugen
amended
assigned
NE@@
Pak@@
instru@@
Maj@@
ul
Maschinen@@
güns@@
design@@
Allah
Work@@
kontextuell
exposed
negotiation
collabor@@
garanti@@
erteilt
Schwellen@@
grammatisch
180
ж@@
Milch@@
Einer
süd@@
exec@@
buses
Jean-@@
Make
Deutschlands
-und
Verbraucherschutz
Tieren
constitutes
prop@@
medicines
losing
blan@@
portra@@
verhältnis
Himmel
chairman
Tsch@@
Full
vorzunehmen
Schlusselwort
Schlusselphrase
ly-@@
emi@@
ć
gesellschaftlichen
nutzt
aufgezahlt
fat@@
aden@@
Hardware
Team@@
beseitigen
einig@@
Internetzugang
susp@@
chairs
bedürf@@
quellen
regelung
tax@@
Wand@@
angen
Appartement
Software-@@
Sieg
nehme
Entwickler
vorliegen
biet@@
gäste
daten@@
Verteidigungs@@
bud@@
sav@@
V.
Ausbau
anwenden
Cle@@
maximal
äd@@
tliches
ausüben
tail@@
prize
campaigns
ava
gor@@
gnis@@
extending
certified
Cou@@
hundert
Dänemark
Jung@@
desto
Nehmen
alp@@
verbindung
aken
satisfactory
exist@@
Aussage
Strah@@
älter
funktion
aufbauen
chapter
Frequ@@
Palma
ausser@@
hinaus@@
new@@
llen
vorgelegten
translated
arranged
lia
caf@@
interne
Zwischen
Gibt
reagiert
legitimacy
Serbien
Denken
ändert
managers
oph@@
ton@@
Ga@@
Kommun@@
ehrlich
schalten
Verkaufs@@
Go
kamp@@
verständlich
planen
Free@@
fizieren
überwachen
financed
Ros@@
dumping
newsletter
techni@@
Stur@@
Vertrieb@@
stige
branche
Lernen
Together
iness
ses@@
Kh@@
boasts
maßen
Ausweitung
azz@@
Km
Sektors
appointment
communic@@
Wall
Russlands
professionellen
110
alit@@
Max
ruhige
mische
Übergang
CA
Subject
Wasch@@
gemeinsames
fewer
Metro
ektion
Katalog
städ@@
gebühr@@
Mängel
belieb@@
Abfall@@
neighbours
completion
IX
residential
geteilt
südlichen
eingeleitet
inten@@
ral
folder
schem
umgehen
Sowohl
PAR@@
NICHT
flat@@
berger
weilen
Vordergrund
paths
31.
ownership
grat@@
Phot@@
Universitäten
appro@@
prohi@@
Sab@@
tica
olle
gesucht
bevölkerung
no-@@
Burg
günstigen
woo@@
Transfer
griffen
bearbeiten
Vorsitzenden
Ticket
grund
Satz
gewidmet
frequency
bling
Reh@@
sorry
preferred
clear@@
electrical
gate
Feri@@
spä@@
Modul
ity-@@
gewöhnlich
suggests
Moscow
BA
spüren
Ruf
IWF
Erwachsene
examination
Slovakia
logo
isieren
Wednesday
zah@@
SP
ction
ized
hochwertigen
definieren
Besitz
aching
height
verstehe
Frauen@@
stick
Besitz@@
hinzugefügt
veränder@@
iling
Times
gesetz
jek@@
zugs@@
zeichnete
tene
inadequate
tains
enjoying
Bestätigung
solved
moments
mini@@
Empire
etten@@
innovativen
Bezeichnung
thro@@
tia
mixed
signi@@
deserves
HIV
GA
hinzu@@
Souveränität
empty
ping
collapse
24.
Regional@@
fascinating
baus
Gegner
vali@@
Fla@@
elegante
künst@@
thumbnail
Erfolge
oll
diving
Fire@@
liz@@
ologischer
rän@@
Series
mäßigen
gegebenenfalls
landwirtschaftlichen
ratification
H-@@
League
dateien
lierung
iPod
nächster
keineswegs
Spaziergang
herstellen
whereby
dependence
erhoben
dist@@
begun
gerechte
bekann@@
Eines
Kooperations@@
underlying
broad@@
whi@@
anger
Hof
Einsatz@@
schluss@@
staat@@
oods
dial
Anonymous
tiver
escape
travellers
Immobilien
Rechner
gkeiten
Vereinigte
foundations
ub
erkunden
Genau
Zweiten
exemp@@
sely
fan
D.
Können
suited
ave
Oli@@
vacc@@
sichts@@
vez
conciliation
full-@@
ér@@
RS@@
Gottes
lieben
Arch@@
pit@@
repeatedly
klin@@
zauber@@
besonderes
Niederlande
til
üblichen
84
Inc
secondary
Insgesamt
zusehen
compete
occupation
journalists
Woh@@
dramatic
Esp@@
denkt
ausgehen
Argument
Intergovernmental
Café
unnecessary
Atlan@@
Foot@@
erstes
gefährlich
ökologischen
hotel@@
Ehre
zweifel@@
Employment
buch@@
sozial@@
lem
Strateg@@
Blair
Werkzeug
Besonder@@
verblei@@
kr@@
hilfreich
herzustellen
alize
vollem
Existenz
tness
ziel
partial
300@@
Revision
Beru@@
parlamentarischen
expanded
gross@@
Wind
sitz@@
forschung
yers
Monte
berichtet
satzes
bigger
ME
PM
ы@@
geschäft
Wirtschaft@@
considerations
130
Patri@@
religi@@
cookies
tiker
Anbetracht
cancellation
html
veröffentlichen
angehen
Nichtraucherzimmer
Werbe@@
kün@@
kräften
economically
maj@@
offiziell
umfassen
Erzeu@@
commit
intensiv
ausländischen
beabsichtigt
observe
public@@
welle
gehend
Several
jan
Ach@@
assen@@
effizienter
stry
Ingenie@@
Ausblick
stärksten
splendid
effek@@
wick@@
Ministry
Edi@@
Typ
getrennt
behand@@
Prozeß
hence
violation
1986
comparable
Effekt
Quell@@
größter
gebene
Fisheries
Glück@@
Kommentare
forwar@@
Modus
höchst
Fassung
teen
incorpor@@
Web-@@
fes
bewer@@
verbreitet
vary
OLAF
etta
ahnen
eure
instrumente
reibungs@@
principal
ан@@
Nizza
enfalls
beteiligten
act@@
gegenüber@@
konsequent
anforderungen
Internal
Aktu@@
Gruppen@@
stant
Shar@@
Montenegro
Publikum
tigsten
Ablauf
löschen
Entschlossenheit
iron
characteristic
rest@@
Sun
klu@@
äf@@
schreibt
Konvent
timetable
instantly
schwedischen
kräf@@
erleb@@
erwiesen
Anmerkungen
thorough
Düsseldorf
elektronische
Gesetzes@@
sent@@
coastal
eful
Prof.
ve-@@
ship@@
baby
én@@
Gas
representing
onia
betre@@
auswählen
extrac@@
ano@@
Physi@@
gemütliche
Demokraten
false
lively
genuinely
ues
eft
integrierte
withdraw
Sekunden
examined
peac@@
Migration
Nation
wand
Corporation
Zul@@
Edel@@
bug
loaded
listening
Chief
TV@@
Versicherungs@@
prozeß
debating
schwi@@
evo
günstig
Gebühren
existieren
generell
Kompetenzen
prefer@@
hang@@
carte
chens
Filter
erheben
TE@@
τ@@
Verbrauchern
entri@@
ter-@@
smart
gefühl
Quark
KDE
Erreichung
gift
informal
optional
Lom@@
purchased
Marco
Aspekten
Patten
Origin@@
pfung
sensi@@
Hör@@
zahlt
trags@@
bedroht
over-@@
Prag
stellten
umb@@
openness
Level
Modern
Gaz@@
becken
schriftliche
grenzüberschreitenden
hes
slopes
kürz@@
bürokrati@@
Ausrüstung
loans
Alps
widmen
azi@@
ро@@
vertraut
speeches
featuring
autumn
Ric@@
delete
sample
Event
Umwel@@
Bekann@@
Ratifizierung
nes
blind
bruch
LAN
Heimat
partei@@
atri@@
hard@@
position@@
blick
Bestellungen
intentions
foremost
turns
bon
engen
high@@
textile
xis
Palette
Lehrer
gewicht
diver@@
falling
chat
sey
schön@@
möglichkeit
teilung
erfol@@
Sachver@@
Stri@@
soul
perform@@
Storage
kleinere
tigem
adult
fire@@
apparent
eph@@
Cop@@
nec@@
Stahl@@
beispiel@@
Betrieb@@
kapit@@
rating
quest
civili@@
spectrum
ample
trau@@
Wett@@
ghter
arily
affili@@
Chin@@
Bevor
Jon@@
fare
dre@@
Updates
istisch
hafter
bewußt
gestatten
eas@@
iere
Konz@@
pft
alternatives
Rennen
freier
hohes
num@@
cas
restaur@@
bewegt
Mani@@
Samm@@
früh
alls
1945
Clubs
g.
interess@@
Lev@@
accessories
genauer
bewus@@
abgesch@@
kostenlosen
Autor
arabischen
subsequently
horse
Source
Schad@@
ähnlichen
papers
ran
Ideal
Venedig
strike
simultaneously
zeigte
wast@@
ideally
amer
ht
etzt
artige
ethical
destinations
Merc@@
Ashton
moreover
n-@@
sunny
Lohn@@
Behörde
weichen
fast@@
accuracy
complaints
Laden
codecision
tered
läge
isten
Abteilung
stätten
earn
History
Morocco
designer
ild
LIN@@
desktop
kunden
fehlen
beibehalten
viewed
fell
Super
histor@@
manufactured
erwerben
afford
perio@@
destroy
affordable
überrascht
Aktivi@@
förderung
Vorrang
Greens
branch
Lie@@
finanzierung
posts
respects
dend
calendar
Val
saal
22.
Australien
Konvention
pensions
counts
Schu@@
BER@@
Rechnungs@@
Steigerung
Weine
Statistiken
expenses
vac@@
spür@@
Gemeinden
Slowakei
smoking
viewing
Press
ehe
vermittelt
Soldaten
terrible
devoted
mechanical
Ky@@
EW@@
zugeben
Durchsetzung
sä@@
Uns
kurse
umgehend
falsche
Festplatte
measurement
situ@@
URL
öffentlicher
arrangement
DS
7,@@
Weiß@@
unterschiedlicher
olf
bits
Klarheit
Pflanzen@@
evi@@
añ@@
excursions
Schau@@
logic
oth@@
ih@@
Wichtigkeit
Over@@
andal@@
fried@@
Vermögens@@
chemische
ois
age@@
Arts
α@@
і@@
Rechn@@
spak@@
derart
Häfen
guaranteeing
solch
Ausrichtung
zero
cost-@@
ode
accordingly
Ursache
Schicksal
Tak@@
reli@@
WTO-@@
erkennt
Kenntnisse
zweiter
zweitens
survey
Schulz
79
Haiti
ion@@
ink@@
tips
Village
Kein
verbrei@@
behauptet
Caf@@
Maß@@
erteilen
importantly
ades
is-@@
ofs
Youth
izi@@
ा@@
wachsende
clarity
spots
lights
xel
ен@@
langem
kollek@@
Dynamik
Garantien
verurteilen
Otherwise
ques@@
alled
Growth
sender
Meinungs@@
ball@@
Palestinians
condemn
1987
nü@@
composed
acceler@@
tual
1985
Formul@@
Sports
Kriegs@@
agieren
anzuwenden
authors
tribute
hochwer@@
frü@@
Werkzeuge
Vorgehensweise
laying
continuously
custom
Lieb@@
answered
Section
alu@@
motorway
Export
Library
Automobil@@
LT
gebenen
jährlichen
geringen
spanische
inspection
ames
Audio
kombiniert
Volkspartei
Brow@@
LAN@@
Keine
Plätze
jointly
tragedy
relief
residents
Nordic
preserved
Adv@@
fores@@
ket
Seele
Verbrau@@
forgotten
transaction
inclusive
FI
Program
tively
quali@@
pace
Lau@@
Klassi@@
gesetzten
Herkunfts@@
Mittelmeer
deleg@@
refused
ured
arri@@
revised
hell
efully
alb@@
elen
kes@@
tragic
med@@
aktualisiert
niedrigen
prak@@
Kommissionspräsident
centers
Foto@@
Hände
drückt
violent
eve
Solana
Distribution
Fleisch
flexibel
Lateinamerika
bewertet
mäß@@
unbe@@
Fes@@
Bergen
verursachen
Immer
afraid
Block@@
fak@@
fahrzeuge
Ferienwohnungen
Fortsetzung
oppose
publish
pain
Cho@@
bett
Menschheit
komplexe
fifth
astic
noon
buying
Famili@@
Felder
beweisen
vertritt
wirklichen
potenti@@
enta
Diesen
Partnership
Kau@@
zo
terminal
William
GO
SDL
Strom
mensch@@
gehörige
verlag@@
anzupassen
Entwicklungshilfe
magn@@
blicken
Betreiber
umfangreichen
broader
stopped
certification
oration
kö@@
Zuverlässigkeit
Versprechen
grand
feder@@
width
FC
Luf@@
Weltkrieg
äder
bewegung
befürworten
instruc@@
jurisdiction
orientation
CO
ular@@
behavior
gemütlichen
inneren
essing
biom@@
Fun@@
ь
ausgestattete
loh@@
Ereignis
zin@@
ð@@
erheblichen
obligator@@
Inhalten
Wünschen
ested
ckets
Kürze
gebäude
erarbeitet
margin@@
Sieg@@
Aussagen
greif@@
doubts
ceiling
ude
Für@@
dieren
main@@
vocational
appl@@
mals
Water
wit@@
hang
Francisco
Halle
Zimmerbeschreibung
deadline
kredi@@
argue
GAP
assurance
promoted
gradu@@
Kling@@
Reinigung
bür@@
Weiterhin
ote
Copyright
gast@@
besit@@
Tickets
ер@@
Schreib@@
fro@@
External
Fang@@
überra@@
ekt@@
könne
Heads
begegnen
eting
Docum@@
SK
exten@@
relaxed
komplexen
Offenheit
Alternativen
Einzelheiten
commerce
Moder@@
gebung
turen
stattgefunden
treas@@
Conserv@@
cky
wai@@
Jean
beri@@
Tech
Kennzeichnung
E-Mail-Adresse
Haushalts
nobody
Boot
по@@
23.
entlichen
depth
finds
Southern
ariat
Sul@@
typisch
Problematik
evalu@@
brands
zentraler
gingen
öse
aktionen
iertes
Spi@@
¶
Versand@@
chtete
Mischung
zustande
geehrte
oked
dent@@
höh@@
gelegene
formular
Unterstütz@@
präzise
affecting
nur@@
cen@@
Seri@@
respektieren
perpet@@
calcul@@
honest
angekündigt
specially
focuses
KG
Gesicht
arbeiteten
ration@@
ules
rak@@
tie
Südo@@
Lieferanten
plane
Lot@@
klären
viable
sake
spi@@
tropical
deutliche
fortsetzen
bege@@
fertigung
short-term
Avi@@
Betracht
uneingeschränkt
auswirken
Hans
NEW
erleichtert
innere
schnitt
Nachdruck
conversion
pas
rufe
alising
focusing
aled
belongs
exhi@@
Lager
davor
motivi@@
eleganten
etab@@
assured
electoral
Commerce
Len@@
gepf@@
einiges
Beschränkungen
Labour
Jan
Saint-@@
Fak@@
dien
Bewusstsein
Netze
Finnish
tradition@@
Rub@@
modify
removal
lows
California
lü@@
Verwal@@
knew
verpfli@@
preced@@
dog
quantity
eci@@
Ander@@
intelli@@
attended
renewed
lege
standardi@@
gemessen
regionen
healthcare
Coun@@
ped
cir@@
Zurich
Proz@@
Wissens@@
gestartet
publishing
ad-@@
Olymp@@
SL
Bauern@@
letz@@
technisch
medizinische
jüngste
wheel
actor
sogenannte
folge
krieg@@
up-to-date
univers@@
Schö@@
Zucker@@
vertrauen
Seiten@@
Konzer@@
taus@@
visits
arrange
Dokument@@
derselben
vorliegt
dimensions
stein@@
stä@@
russische
vermutlich
regionaler
Szen@@
Gebir@@
derung
alisierungs@@
wirft
genau@@
Zeitplan
refuse
lining
Kla@@
Gö@@
ima@@
tausend
less@@
Verheugen
signals
te-@@
sculp@@
däm@@
kohär@@
recall
kit
ausführ@@
Pur@@
kas
aton
fon@@
schir@@
Gute
prospect
integrity
wise
chose
dou@@
itali@@
‚
Zielsetzungen
installations
Dav@@
Key@@
Fans
kurzer
österreichischen
endgültige
progressive
stops
cameras
automotive
haber
Wellness@@
Ministerpräsident
transitional
convert
ecks
Eröffnung
zweif@@
trains
Glob@@
Hen@@
Empfang
steller
Wahrung
advise
judge
organize
EG-@@
Original
fünf@@
Ford
Contact
Know-how
Regen@@
wunderschöne
Net
Distri@@
pack
Ry@@
Berlin@@
lei
empfängt
realisiert
whatsoever
missed
stressed
expressly
privileged
Conn@@
Minderheit
Million
Baum@@
Übersicht
Wäh@@
basically
winner
monuments
ansch@@
declare
stil
scre@@
tian
Klin@@
Derzeit
Schlag@@
angenehme
Südafrika
Protokolls
deserve
adjustment
officially
researchers
Proph@@
sien
Übernahme
miß@@
Schnell@@
lischen
getrieben
institution@@
sim@@
Sav@@
gungen
environmentally
integr@@
asing
Heimat@@
Vide@@
leistet
Ausnahmen
fairen
tatsächlichen
Galileo
Ski
FR@@
thes@@
at-@@
Kün@@
Russ@@
Bü@@
politiken
erweisen
whe@@
aks
Bag@@
betriebe
verbindungen
vollstän@@
Lebensmittelsicherheit
tigh@@
typically
å
GPS
en.@@
ystem
favor@@
glei@@
verwiesen
lebenden
catalogue
mur@@
mail@@
Massage
wä@@
Гј@@
ranging
faire
Funktion@@
Nachmittag
Betrifft
Bauern
Brun@@
rub@@
1970
presidential
Kreuz@@
Georgien
publish@@
emo@@
ción
herum
würdigen
posted
GM@@
paket
unterbrochen
moderner
klim@@
bird
Representative
Č@@
grenze
nicht-@@
erwähnten
delays
certificate
SS
drives
dell
fragt
reib@@
einsch@@
Syrien
mini
Ms
authorized
erforderliche
Produktivität
credible
occupied
exhibitions
Order
planung
schedule
Cologne
eus
Olympic
erstreckt
anerkennen
Erarbeitung
EIB
ultur@@
neighbourhood
Tarifa
plur@@
painting
Sign@@
unger@@
Augen@@
geringer
begründet
soldiers
key@@
Ly@@
drängen
uncertainty
aggres@@
ore@@
anna
Verfahrens@@
genießt
consum@@
ems
TA
Händen
Taten
formuliert
observation
promising
asts
GUE
Game
mein@@
verzichten
dienstleistungen
ption
interven@@
passion
Ann@@
Großen
Chancengleichheit
populations
utes
Stor@@
arrest
brauch
Landwirtschafts@@
duration
short@@
einst
präz@@
newspaper
whenever
Illu@@
anpassen
dring@@
richtungen
scri@@
movies
Kredi@@
lossen
interessanten
zugestimmt
komfortablen
absurd
Nat@@
tower
Ke@@
bezeichnen
mines
stering
ground@@
geeigneten
Kommissions@@
vorsieht
undes@@
pattern
Zerstörung
Drogen
Fischler
dian
sovereign
Fis@@
Engli@@
v.
Laut
verabschieden
ignore
hing
tone
freight
row@@
zip
gebühren
ursprüngliche
digkeit
beneficial
sus@@
achievements
dun@@
entran@@
promenade
xen
gste
ausger@@
zurzeit
Herkunft
tension
Lar@@
virtu@@
nov@@
icon
Ref
Bureau
Sof@@
emerged
proximity
Milan
IA@@
на@@
küste
ssig
religiösen
beef
c-@@
mechanismen
frequent
Force
bew@@
30-@@
Select
Wich@@
ausländische
vereint
neutral
bag
elf
Sex@@
glichkeit
Inclu@@
europa
sandy
Leben@@
äußer@@
guar@@
surveillance
ophi@@
handels@@
ebt
gericht@@
Kurz
Bürokratie
Rückgang
ebo@@
releases
Tradi@@
Fall@@
isoli@@
ennung
aufnahme
übermitteln
Abbau
suppl@@
ingu@@
trouble
Pub@@
ook
ür
leichte
Everything
ega
technischer
Schne@@
itz
Solutions
Set@@
Language
zimmern
erarbeiten
explicitly
valu@@
unusual
Cham@@
IBM
Host@@
gelernt
retten
Aufhebung
schätz@@
Prize
Brief@@
Iron@@
angebote
mani@@
W.
Barri@@
Brücke
schenken
Gewinn
Mobiltelef@@
Peri@@
Bis@@
Defence
iste
chtigen
habt
ökonomische
perc@@
literature
archive
Co
Fisch
eröffnen
Privatsphäre
plätzen
employers
throw
feedback
precious
Jur@@
hire
gewünschte
abgesehen
vals
Until
fications
sailing
precision
Index
Berei@@
Lay@@
ц@@
dieselben
machinery
facilit@@
crow@@
beinahe
pfe
verarbeitet
Zunahme
prestigious
suspended
ble@@
institute
parameter
fitted
decor@@
UP@@
hü@@
Fremden@@
gehabt
Mittwoch
wahre
fün@@
Nichtraucherzonen
ika
migr@@
här@@
Verfahrens
distinction
Kra@@
Minibar
meldung
Liberalen
fuhren
flexi@@
140
cancelled
erischen
gehe
granting
lick
marking
cross-@@
ck-@@
neo@@
tan
logistics
gelangt
Beijing
GP
Poker@@
trieb
prinzip
identification
retail
grei@@
äusern
Wiederherstellung
sicherer
detail@@
400@@
Ltd
hielt
äus@@
medizinischen
läufe
arbeitungs@@
Verordnungen
adly
flying
Roth@@
Ot@@
Spor@@
zeichneten
aktivitäten
Tabelle
Amerikas
Klimawandels
Terroristen
concerts
Gut
öffnet
entspann@@
verschaffen
Alters@@
angenommenen
chester
krieg
Strasse
Steuer
zugelassen
taxpayers
postal
jed@@
premium
Cit@@
yang
toilet
umso
stärk@@
zweck@@
klen
lös@@
dieselbe
chemicals
Experim@@
interactive
baut
eigentliche
änderungen
dahin
debated
amente
1,5
äum@@
entlich
marktes
vermieden
deficits
Lad@@
Tampere
preparations
ratio
EURO@@
nos
Mar
zuverlässi@@
orientierte
blieb
funktionen
announce
Sac@@
Anreize
maps
genes
Argentina
spektakul@@
Sri
ruling
certainty
eva
arbeiter
Theorie
gnisse
Händler
Erhalt
Wettbewerbs
territories
eping
inge
But@@
aka
relevanten
prevented
negotiated
Hafen@@
eindeutige
Fahrzeug
Umstände
gemeinsamer
undertake
Quad@@
Doha
höchster
recession
verd@@
verarbeitung
gendes
dasselbe
Formulierung
Presidents
reflection
Third
subscribe
academic
Bridge
landschaft
geringe
integrieren
nord@@
Finanzen
tauchen
automatische
Vul@@
revealed
event@@
qualit@@
Lun@@
feste
besser@@
berührt
industriellen
alike
yo
Charme
kritischen
indicators
favourite
Fremd@@
Funktionalität
zeichnung
mechanismus
Mun@@
Governance
aufgeführt
einstellen
Begründung
kleineren
consistently
accum@@
Experience
vertra@@
Kapazität
heated
à@@
returns
sensor
publications
realize
9001
befürwortet
infl@@
threatened
oga
Bett
bestände
enc@@
chers
yn
Ep@@
Köln
patri@@
lux@@
HP
heutzutage
beabsich@@
mistakes
Non-Smoking
Mobili@@
Fli@@
Kreu@@
prüf@@
secondly
zones
comprises
Mode
mün@@
Einnahmen
admit
Rural
Dienst@@
Digital@@
Anrei@@
Angabe
Richter
human@@
ate@@
az
26.
agon@@
methode
Schuld
problemlos
reiben
verteilung
mist@@
hesitate
theater
29.
Original@@
berat@@
Konjunktur@@
gewachsen
bedauerlich
deaths
Tower
Scotland
necessity
etry
Schaden@@
platten
dation
Wälder
the-@@
purchasing
bab@@
koordin@@
zwölf
closing
generous
civilian
lov@@
pper
Mot@@
lovers
Monop@@
vel
Sho@@
VI
atten
gegenseitigen
PPE-DE
Country
innovations
imperi@@
3rd
-Software
fangen
Verabschiedung
glaubt
insufficient
eled
Fast
Bahn
Trend
zeich@@
olen
ms@@
sport@@
Glas
terin
UNG
displays
Wat@@
K-@@
liter@@
Rab@@
gebau@@
austausch
segment
patterns
zzo
aufgestellt
streben
ami@@
rie@@
Problem@@
smus
Ausgrenzung
XML
Zahn@@
gravier@@
aded
ë@@
En
replacement
kä@@
Anbindung
Versuche
imported
architectural
hung
toren
menge
abgeben
Meinungen
pa
photographs
ök@@
bahnen
geräum@@
Leiter
späteren
thanking
downloaded
Krieg@@
hunder@@
Bedien@@
beschäf@@
verzerr@@
telecommunications
divi@@
Rev@@
Stufe
nachzu@@
Objekt
Menschenrechtsverletzungen
catering
Präsentation
beruflichen
acquisition
ota
Besu@@
durchzusetzen
enced
split
rix
gü@@
Bevölkerungs@@
evaluate
1979
Cin@@
tika
onien
bisschen
unknown
isen
negotiate
Reich
Techni@@
Restaur@@
Vertrieb
Rechnungshof
il-@@
thers
lighting
gang@@
Sant
ärm@@
felder
Dok@@
wärts
Handlungen
erlangen
Karl
sub-@@
ense
profit@@
Designer
zehn@@
wünscht
Jugendliche
Abgeordneter
ratified
Holland
etz
Cra@@
m.
ml
sek@@
passieren
Logik
distor@@
senior
spare
Gall@@
protest
Bürgerbeauftragten
moves
raft
emin@@
ji@@
Bat@@
editor
Snow@@
Garten@@
Lissabon-Strategie
ature
airline
deli@@
black@@
Daniel
-in
Schle@@
Verfolgung
fails
occurs
Gallery
luss
veranst@@
spielte
boxes
stö@@
transit
Wald
Bühne
schönes
kehr
basieren
fahrts@@
DN@@
Kö@@
empfiehlt
Spektrum
signing
Solar@@
nieren
beruhen
indicates
greenhouse
magic
performing
verschieden@@
siven
bezogen
Anzeige
zunehmende
2.5
exceed@@
gratis
dacht
machten
vierte
Weltwirtschaft
Int@@
Histor@@
sheets
justify
wars
digit@@
Demokrati@@
favorite
konz@@
vise
harbour
lowing
argum@@
aces
brut@@
Bell@@
Jag@@
arische
28.
need@@
dollars
gran@@
W-@@
teuer
beweg@@
Energiever@@
Summe
wertvolle
Satelliten@@
sag@@
autom@@
Fakten
Anträge
Raums
gni@@
herunter@@
Konzern@@
bureaucracy
kü@@
erlassen
Schnittstelle
zten
Funktionieren
Excellent
Arti@@
Wetter
Meister@@
schlechte
real@@
enza
Et@@
Aufenthalts@@
verfahrens
placing
notably
hem@@
blin@@
maximale
gelegte
I.
va@@
robust
J.
wies
innen@@
gerechtfertigt
Bewohner
Ausbeutung
chief
urt
issen
creature
boden
polnischen
demonstrates
farms
Ful@@
Ev@@
Metall@@
quelle
doppelt
tise
Democratic
mitgli@@
patents
Innov@@
ku
sofa
Hoh@@
ämpf@@
sonstige
authorised
mandatory
harm
Route
kostenfrei
agentur
Belastung
Zusammensetzung
endgültigen
inary
Bonn
SY@@
notified
top-@@
Hussein
ple
Türen
enswerte
angebotenen
supplementary
cooking
Kapit@@
Fußball@@
gebunden
mittlere
DR
initiated
slowly
worrying
iner@@
dual
Vie@@
gewinnt
benden
Kuba
insp@@
borne
Register
deutsch@@
BS
A4-0@@
Getränke
EIN@@
Gewinne
thir@@
heavily
claimed
tres
Gil@@
dal@@
downtown
einführen
Außenminister
Conditions
oter
gestalt@@
beschreibt
Spannungen
unterscheidet
ressourcen
Fremdenverkehr
verage
stag
18th
allocation
Referendum
Binnen@@
Anwen@@
englischen
humanity
stens
Stei@@
fiel
Erzeugung
timely
Peace
Sup@@
fahrten
question@@
liziert
jeglicher
liefer@@
Istanbul
fin
dness
einzig
extrem@@
para@@
ologien
präsen@@
lish@@
Industrial
Intel
schaf@@
Wesen
überwacht
pays
goo@@
measuring
intelligence
atisch
gn
reloc@@
clothing
Install@@
schwieriger
passende
organisierten
condi@@
Dou@@
aring
acci@@
éri@@
brü@@
Beste
ausreichende
Installations@@
Adressen
Ordner
cio
stamm@@
dauern
ux
unions
Dun@@
dien@@
Alpen
eingeladen
citizenship
entures
Schwarz@@
Osteuropa
Geschäften
leitungen
effizienten
verliehen
abgegeben
normen
agrees
nationals
voters
ison
Technologies
beeinflusst
führungs@@
specify
Ank@@
punkten
Versorgungs@@
Energiequellen
apparently
Olympus
cz@@
Basis@@
Wichtig
wherever
ow-@@
ühr@@
pling
converted
Georgi@@
phys@@
lassung
Beurteilung
änen
arity
potentially
Europar@@
Heil@@
geplanten
Rezession
sums
reads
dum
edy
etri@@
Fair@@
twin
neutr@@
Intensi@@
workshops
ahl
9,@@
sagten
stätigkeit
subsi@@
caught
kampf
Kontak@@
zwanzig
iel
coal
Handy
vielsei@@
ablehnen
differenti@@
geni@@
kit@@
sau@@
tum
Fischereipolitik
stret@@
aer@@
book@@
od
geladen
linge
gebe
SC
dominant
regimes
solven@@
Direk@@
Verlängerung
einstimmig
Art.
360
directions
geachtet
Haushalte
expanding
Jacques
Insel@@
kombin@@
Fitness@@
Beratungen
bedienen
eignen
mand@@
premises
ffer
pak@@
Kaffe@@
Ausgangs@@
lassungen
Part
IR
Nar@@
Deposit
künfte
gelingen
staatlicher
dargelegt
batt@@
Left
cancel
OECD
automation
euch@@
aturen
israelischen
intervene
lizi@@
organisierte
Marokko
abstra@@
inhal@@
fam@@
orts
Beamten
view@@
District
vereinbarten
sech@@
Ergänzung
investiert
withdrawal
contractual
tranqu@@
enzi@@
Erfol@@
defining
Goo@@
govern@@
Parall@@
Invest@@
adel@@
Visa
Still@@
Gärten
beschleunigen
Menschenrechten
accommodate
Rahmenbedingungen
Künstler@@
eigenem
£
jen@@
ο@@
geld
Studios
externe
elemente
ärmsten
horizontal
react
Human@@
ę@@
vieren
contributing
coordinate
conservation
Hung@@
emission
Galerie
aussehen
ösen
zugute
kle@@
Choose
datei
aud
conventions
Israelis
sm
ESS
einnehmen
tonnes
lement
Neg@@
shar@@
po
applicant
ate-@@
gur@@
after@@
BL@@
Bli@@
terrasse
verständnis
unanimously
experiencing
qualifications
Dest@@
feh@@
Ungleich@@
kunden@@
Einschränkungen
Gebäuden
station@@
comb@@
der-@@
intense
übt
attrac@@
mature
Cathedral
verstärkte
anning
accomp@@
Traum
hur@@
kas@@
d.@@
namen
Prak@@
С@@
rahmen
berufen
Erwägung
degrees
Which
DP
powered
unterwegs
gefasst
systematic
imposing
stim@@
pru@@
Produktion@@
Beschwerden
demokratisch
starkes
tened
platforms
appreciated
thesis
Iranian
License
anter
geschafft
Fün@@
Föderation
Monti
hed
schein
Mengen
erstens
structured
revolution@@
Her
ege
exposure
gements
coverage
atten@@
Similarly
bec@@
IL
mir@@
Rit@@
denten
hört
drucken
bewahrt
Schutzes
Schmer@@
Änderungs@@
phe
churches
Sw@@
streng
ags
ame@@
ions
schaff@@
ypen
embra@@
terrorists
Terr@@
equity
connec@@
heb@@
Unternehmer
Jav@@
drinking
decent
copies
authentic
fan@@
alizing
ausgedeh@@
Steuerzahler
tough
Phänomen
Konferenzen
digte
gebraucht
procurement
Lithuania
Organis@@
biological
BE@@
Intervention
geograph@@
ausstattung
27.
benannt
istischer
ailing
breaking
keeps
workshop
Technical
versehen
state-of-the-art
Malaysia
stattdessen
handels
breach
ris
handled
creativity
Brit@@
Master@@
stücke
controlling
turing
José
Wireless
wahl
pho@@
hosts
Class
eigentlichen
Verletzungen
Geben
Aufnahmen
Produzenten
gebnis
kra@@
Leuten
flug
stützen
lierten
Secretary
assign@@
respectively
uen
Termin
probieren
empfin@@
standes
vielfältigen
Einschätzung
cus
entries
Batter@@
CH
Medikamente
Feststellung
Pflichten
anian
Look
Diplom@@
silver
tätigen
nachhaltig
inakzeptabel
Anwesenheit
silence
headquarters
versi@@
Tür@@
ingt
Terminal
ängen
Kongres@@
vielfäl@@
inischen
teilzunehmen
vorrangi@@
operative
approx
Gebühr
Unterhaltung
tioned
emerge
watching
ück
Fed
Arbeitsgruppe
tiken
anch@@
transformation
`@@
Einwanderer
vorgehen
passes
owing
blame
aves
self
CM@@
Alber@@
sq@@
üren
produzi@@
Autor@@
beliebigen
zulässig
Verfasser
minimal
pain@@
arbitrary
Andr@@
mien
spätestens
jahres@@
eingeräumt
Madeira
ulations
oud
Kle@@
Tö@@
Santer
visitor
außen@@
vergeben
auseinander@@
Plenar@@
worry
disputes
unstable
Santiago
enha@@
sierte
erweise
Solche
hospital
facto
stays
alia
Lap@@
в
äck@@
Cala
Neues
zell@@
kommerziellen
dachte
competences
adjust
fis@@
Slovenia
Desktop
elderly
illing
oberen
breit
Betrug
ernsthafte
temperatures
birds
schöner
Arbeitgeber
hist@@
ough
liger
Emissions@@
findings
pursued
writer
warmly
handed
plates
edit
NRO
Hunder@@
konvention@@
lokaler
überein@@
undermine
rational
warming
11@@
laser
tat
Fris@@
Maxim@@
orien
Gä@@
länger@@
chteten
discher
orientierten
eintreten
hes@@
integral
motions
loved
kids
Freuen
pet
Verts
Come
prakti@@
kommun@@
kontinuierlich
Friedens
Innerhalb
Vertretung
consistency
essence
abe
fulfilled
guard
jemals
insofern
rose
ambition
Darfur
Tourismus@@
Ferien
Inspek@@
ßten
pron@@
Venezuela
half-@@
Work
oting
mini-@@
Fair
Spy@@
räu@@
erieren
chtungs@@
benef@@
Obviously
CP@@
Bildschirm
stür@@
ausgewählten
lichste
Yugoslavia
tioning
Green@@
Profil
ruhiger
führungen
teste
erfasst
dün@@
forderte
Mill@@
wra@@
alle@@
kompl@@
Themen@@
Rü@@
rass@@
ST
quot@@
PK@@
periode
gestiegen
geistigen
perspectives
lot@@
OP@@
derjenigen
credi@@
3000
Ath@@
Bonus
Konstruktion
ruf
Bill
Renaissance
Das@@
Gum@@
halten@@
Lebanon
alarm
enstein
Zü@@
Visit
alleine
gestütz@@
Konfiguration
agent
crops
camps
Dri@@
isn
etto
paradise
Erbe
stigen
erlei
pro-@@
continental
desirable
survi@@
volcan@@
lass
rom
tube
Saal
bestens
erneuerbaren
anx@@
Wiener
greift
etter@@
Ged@@
.ch
unterstütz@@
Konflikt@@
verwirklichen
ausführlich
Drittstaaten
specialities
Shanghai
Gewi@@
änder@@
Rubrik
behandlung
blichen
beschließen
controversial
Liberal
biodiversity
Tot@@
sentence
Brok
judgment

größe
räum@@
untern@@
bewirken
Communist
Mehrwert
Editor
verpflichten
Konzentration
Mittelmeer@@
egu@@
well-being
irische
waff@@
196@@
Drive
modernes
Geräten
üch@@
igungen
abilität
Inkrafttreten
verzeichnen
fuels
1984
Tam@@
Oc@@
stung
dat
Feier@@
Grundsätzen
convince
suggestion
Profession@@
vierten
Ausübung
endung
Ferr@@
orienti@@
24-Stunden-Rezeption
wages
Wall@@
Process
amo
FL@@
plötzlich
Zeich@@
zunehmenden
open-@@
nia
sof@@
Höh@@
Drei
Muster
Tochter@@
Initi@@
salon
Ris@@
alla
Gespräch
pleas@@
PCs
deutlichen
anien
unvergess@@
Krisen
legten
erheb@@
tured
Mountain
como
AKVIS
gelegten
gence
explains
æ@@
Andreas
leather
Tä@@
respektiert
Rußland
confident
bill
iny
bags
tro
echt@@
RSS
erweiterten
ausgesch@@
eindrucks@@
schlüsse
receives
FOR
Ern@@
text@@
Elevator
Techniken
zeitgenöss@@
verletz@@
Kais@@
asen
choosing
edo
pop@@
ken@@
Woo@@
Live-@@
Herrschaft
kriterien
dencies
Pad@@
Organization
Taste
Konzepte
fenster
Studium
gerung
ruft
Palacio
rez
wirkungs@@
Sitzungen
weitaus
demokratischer
Tuesday
legislat@@
mon
shaped
Tari@@
Kel@@
Merk@@
ös
Kreativität
Verluste
wahlen
uph@@
describes
Hav@@
bun@@
affung
berichte
realen
unemployed
flag@@
disappointed
Develop@@
Smith
ja@@
Wort@@
verni@@
beob@@
bearbeitet
angelegt
ordnungsgemäß
Grünbuch
lowest
Change
Milli@@
Certi@@
bindung
sonstigen
nisses
Merkmale
specifications
Reader
Gerichten
erbaut
Finance
rolling
cut@@
registri@@
ń@@
Panasonic
normale
typische
beginn@@
PE
Gü@@
basierte
Ausschüsse
artificial
Fernseher
gesonder@@
Innovations@@
Unsicherheit
terer
Division
feiern
vertreter
gesundheits@@
Ocean
rain
Double
funk@@
komfortabel
Wiederauf@@
zielt
Antonio
tap@@
threshold
prof@@
som@@
II.
Rhein@@
gefährden
experim@@
Audio@@
Heili@@
Medizin
Alltag
U-Bahn@@
trennen
Leb@@
Rak@@
Kirchen
avoided
depl@@
eradic@@
Norm@@
Premi@@
Cubase
Storni@@
genetic
messe
Vin@@
Rand
fortgesetzt
schnei@@
produkt
liness
substantially
glieder@@
Bür@@
luß
Getrei@@
näh@@
voneinander
leid
angewiesen
frischen
Linien
demokrati@@
estimate
harmony
End
theat@@
UND
flicht
Rassismus
catastro@@
practically
gaining
column
statisti@@
Consulting
Beschluß
noticed
adju@@
Taliban
-TV
izing
Virus
Umsatz
bewiesen
schwieri@@
konstruktive
vorbehalten
niedrig@@
bedauere
holes
pair
Mos@@
JP@@
eingeschränkt
wirksamen
meantime
ght-@@
measured
novel
och@@
vern
FOR@@
bereitung
häl@@
Unterlagen
Französisch
tiefe
Simp@@
emphasised
performances
Seen
Light
Hôtel
shand@@
meldungen
ohnehin
vernünftige
may@@
sul@@
rubber
spit@@
Kräften
erörtert
partnerships
Mom@@
Ron@@
Labor@@
völ@@
französ@@
sheit
qualifizierte
Besteuerung
fate
deri@@
ind@@
Sarkozy
tol@@
fizi@@
Mittelme@@
beizutragen
consult
teacher
Bosnia
chambres
Erfolgs@@
Äußerungen
grants
incentive
Eco@@
lakes
-in-@@
Additionally
450
IE
xy
Them@@
Angriffe
Gipfeltreffen
bureaucratic
capture
flag
show@@
einzugehen
Motto
wendung
ungeh@@
folglich
sätzen
treaties
Gulf
Capital
fühlt
projek@@
kämpf@@
Unterzeichnung
clu@@
Main@@
ort@@
ś@@
proto@@
getötet
beru@@
AKP-@@
Bewältigung
torate
lesson
plain
bat@@
photography
kritische
ysteme
versicherung
ektor
Einfl@@
gains
thei@@
abel@@
ль@@
zte
Erforder@@
frucht@@
spiegelt
settled
Lobby
scenery
Premium
treff@@
bürger
Kapazitäten
unterbreiten
vigor@@
thoroughly
ped@@
Call
Kongress
eilung
europ@@
lean
dena
bir@@
EST
gon@@
halt@@
sierungs@@
erreichte
pursuant
raises
amending
uma
cache
Büros
vernünftig
Konkurrenz
Everyone
eling
Angeles
Bedienung
Wettbewer@@
doctor
1978
ior
х
Frü@@
deliber@@
Symp@@
verkün@@
ectively
cians
Ibiza
beherr@@
ulen
angeblich
Aktivität
Anhörung
1967
enlarged
develops
Anna
Ord@@
Release
Güter
realistisch
inj@@
Feld@@
neben@@
orientiert
Wert@@
Vorfeld
shots
Datenschutz
konzipiert
negl@@
Natural
eter@@
Jak@@
S.A.
orie
achtet
globaler
swit@@
breathtaking
sied@@
ältere
lehnt
Ähn@@
Vorgaben
Energiepolitik
Mann@@
peri@@
nische
Wirtschaf@@
Karriere
basierten
zwischen@@
schließe
fehler@@
verschmutzung
bilateralen
Verteidigungspolitik
tels
Millennium
jet@@
betten
Flugzeug
Beschäftigten
technologische
differ
interessi@@
devi@@
flowers
Four
austau@@
köst@@
erwähnte
strange
Tanz@@
ieb@@
Attraktionen
drafting
preliminary
circul@@
Gh@@
Hir@@
Muse@@
geopoli@@
8,@@
spre@@
übermittelt
contra@@
challenging
gan
esk@@
ranken
gefangen
nachdenken
isolated
signature
chef
girl
SH@@
Heating
Städ@@
ller
belt
2007-2013
zon@@
namens
Bezahlung
venti@@
Young
CC
riff
Features
steuer
Nonetheless
Palestine
pharmaceutical
cali@@
ext
bestän@@
tnis
voran
21st
damaged
talked
tailored
Catal@@
Archit@@
Visi@@
paintings
Lasten
traums
schrittweise
Heb@@
Zimbabwe
piano
inbegriffen
verantwor@@
alg@@
ellem
Luxus
aufgerufen
Missbrauch
ffs
abri@@
porte@@
Flo@@
institu@@
Komit@@
geräten
finances
Papier@@
detaillierte
ethnischen
endi@@
konzep@@
Kabel@@
jur@@
Parliamentary
pole
incredible
tering
MS@@
bath@@
Sem@@
Justiz@@
aktualisieren
reiber
endgültig
verwalten
Entwickl@@
executed
stipul@@
regulate
eira
dental
conveniently
3D-@@
Fähr@@
Optimierung
Communication
activated
ε@@
Luggage
24-Hour
reiz@@
zerti@@
Prävention
cum@@
CAR@@
Van@@
Spre@@
russ@@
eingerichtete
einhalten
Fluggesellschaften
acknowledged
ause
engineers
bak@@
Skri@@
edern
lierte
fang@@
zips
Abenteuer
deemed
acquire
Hitler
group@@
Iraqi
celebrate
örtlichen
begrenzte
Flugzeuge
Tom
statistical
abund@@
associ@@
Ani@@
guides
Ecke
Frühjahr
heav@@
Sper@@
cit@@
Pass
35@@
ott
Besitzer
derartigen
erfolgte
Lehre
forcing
vre
bread
internation@@
finest
Hügel
Dritter
technologischen
ally-@@
evolution
eign@@
Lamp@@
characterized
bilder
haft@@
consequently
forums
brand@@
ahlen
Regulierungs@@
konstitu@@
vorgesch@@
abkommens
inci@@
aggressive
day@@
promo@@
ignored
ody
schö@@
konzept
behinder@@
dras@@
foc@@
rul@@
It@@
battery
beruhi@@
exklusiven
proceed@@
contradic@@
interview
circle
derived
Regimes
tags@@
gutem
Kernel
wör@@
abhängi@@
verzö@@
strengen
zielen
nonetheless
compare
controller
ça
About
hl
getre@@
stoß
gefährlichen
gefährliche
ehrgei@@
demographic
centrally
thi@@
migrants
Climate
islam@@
eken
UM
login
militär@@
keen
peak
endor@@
themes
sos
Nation@@
Flexi@@
zeuge
Minder@@
eigh@@
inu@@
Run@@
klär@@
üste
sicherungen
aufgaben
Eigenschaft
östlichen
bone
distribut@@
sons
Repres@@
connecting
gin
DIN
brenn@@
runde
ähn@@
beurteilen
angeschlossen
wiesen
registriert
Abstimmungen
onder@@
ety
checking
volunte@@
haven
sporting
File
Regionalpolitik
kontrollen
Übereinkommens
exchanges
score
provin@@
Geg@@
Darin
Transaktionen
übergeben
schließ@@
Lehren
vention
discre@@
declarations
grand@@
zeitig
komplex
leidet
gesammelt
Right
airs
lagen@@
ev
eras
Tempo
Dienstleistung
verbesserte
secured
seaf@@
Tut@@
Hannover
größerer
Hektar
founding
esa
ggling
Adap@@
cken@@
Fenst@@
thaf@@
wahl@@
Einkommens@@
Subventionen
tion-@@
esh
Tool@@
deutscher
Classic
Bewegungen
Besuchern
schol@@
surfing
kurzfristig
Entspannen
Ufer
Gegenwart
schlechten
verwen@@
grenzüberschreitende
änderung
Katastrophen
beiträgt
discipline
fought
tations
Sus@@
Advanced
realized
elektron@@
Service@@
-System
unlike
fut@@
Alpine
licence
ographic
SMS
seits
begleiten
konsequ@@
Aro@@
tool@@
Parks
KO@@
hervorra@@
searching
adjusted
cheese
bonds
Aff@@
ftung
Zurück@@
Schrift@@
dev@@
environments
Dev@@
mut
rhyth@@
DL@@
Touren
lichkeits@@
Soweit
würfe
realisieren
kritisiert
abschließend
mithilfe
Lou@@
such@@
ida
anschau@@
ministerium
gewisser
biegen
Entdecken
dlicher
qualifizierten
expressing
cip@@
Hab@@
Spring
01.@@
enfor@@
jack@@
prohibited
belief@@
Proc@@
recei@@
arab@@
liegende
unterbreitet
Indonesia
INTER@@
walks
Lanzarote
ware-@@
falschen
interinstitutional
anticip@@
confusion
encies
tons
echen
Taus@@
bevorzu@@
149
Deep
ат@@
endungen
Risiko@@
acknowled@@
argu@@
fears
dominated
victim
foods
Trends
vorteil@@
äden
ernden
Schatten
restrict
Spir@@
solo
Art@@

Subsidiarität
Gefängnis
twenty
concentr@@
recycling
sist@@
Quar@@
gewinn@@
downloading
optical
schie@@
Technologi@@
Betroffenen
erinnere
ails
dents
Publish@@
LCD
entrum
schiff
Pflege
Erwer@@
Vereinigung
inations
telling
akzeptabel
Vertei@@
Tennis@@
fertigt
Vergnügen
erörtern
apped
1982
coordin@@
kulin@@
simpli@@
Clearly
monitored
36@@
icken
pregn@@
Products
Chal@@
Clar@@
TER@@
Zimmerservice
Metern
monat@@
schrieb
lässi@@
mäßigkeit
Prozent@@
guidance
wording
acquis
branches
gym
Discover
geeign@@
Vermittlung
kno@@
ation-@@
1975
Sand
Display
herz@@
Siehe
gewünscht
्
sperr@@
Kurse
Cour@@
Itali@@
multimedia
zione
Wille
krank@@
herrliche
interessieren
regrettable
complexity
prominent
essed
fangs
konto
kreis
Gewinner
Futter@@
Gepäckraum
tells
zb@@
kund@@
beizu@@
ausführen
strenge
Anweisungen
Schengen-@@
lasse
enttäuscht
berühm@@
einher@@
bildungs@@
äle
anci@@
üs@@
Studien@@
sponsor@@
spiritual
surprising
Zuständigkeiten
ratifiziert
translations
totalit@@
VO@@
Whit@@
eon
Amp@@
womit
sierten
Arbeitnehmer@@
ermutigen
Socialists
capit@@
MAR@@
Macedonia
Import@@
News@@
dein
Picard
außerord@@
solide
erläutern
advoc@@
stood
eters
fter
oom
Head
DH@@
setup
Hof@@
Fahrzeug@@
-Seite
Übersetzungs@@
economics
ecke
Ran@@
CAD
racht
ritt@@
Reaktionen
unerlässlich
thoughts
veget@@
Beri@@
entrums
rechtfertigen
Aktualisierung
Hence
undertakings
sustained
CI@@
Interface
kultur
beschei@@
fliegen
Vorsitzender
inated
Jackson
Cav@@
Cold
automated
defense
Referenz@@
Erweiterungs@@
leit@@
deck
deu@@
Panoram@@
Überarbeitung
produ@@
Onlin@@
bist
reichung
indication
70@@
bor
negativ
shortcomings
survive
90@@
5th
reis
musik
japanischen
Bilanz
postp@@
ouses
Norway
Barcelon@@
Genuss
weißen
Arbeitsbedingungen
Sometimes
aving
pione@@
transatlantic
15-@@
Gemäß
Citizens
subsidiary
hierarch@@
lay@@
xes
Learning
Kost@@
beschreiben
schaftsp@@
Spezialisten
estimates
Nature
inters
alpine
kommende
widri@@
meistens
erzielten
belonging
hat@@
aga
Internation@@
lager
seminars
dum@@
entscheidet
condemned
compo@@
propri@@
semi-@@
Neb@@
ry@@
teure
hüb@@
bün@@
Bewertungen
survival
squar@@
Meanwhile
tolerance
Four@@
reduces
semi@@
RI
Sevilla
Tochter
vorn
ansonsten
lohnt
smitgli@@
Realisierung
leitet
Gestatten
hoped
Arzt
Textil@@
positionen
C5-0@@
exerc@@
rated
editing
Schwimmbad
registrieren
berufliche
Hotelsafe
lacking
recep@@
notion
DI
Nan@@
Word
Armen
geholfen
tägliche
notwen@@
taught
reverse
mirror
Close
B.@@
Güter@@
sexuellen
governed
dez
excellence
backs
Kaiser
L.
potenzi@@
Zufriedenheit
Autoren
erläutert
unfortunate
Buenos
Victoria
Photo@@
Lido
Israels
ränk@@
konsul@@
Flüchtlings@@
bevorstehenden
makro@@
separately
ECO@@
ensive
berg@@
mie
halb@@
Zusammen
accepts
ensured
Dim@@
rant
Aires
upcoming
Stadium
Rog@@
Danke
unzureichend
schreck@@
Branchen
bid
autonomy
tigste
beleu@@
sst
spruch
Benutz@@
mining
Territ@@
married
Under@@
hyper@@
Boh@@
Easy
zip@@
Sir
Sech@@
öff@@
LateRooms.com
zeigten
ausgelöst
Weltbank
Non-@@
Econom@@
ogra@@
aten@@
Software@@
orten
grundlegender
exceed
Rav@@
3.0
Herberge
Entdeck@@
ängt
gefäl@@
Dikt@@
closure
feels
golden
Anreise
ökonom@@
Weiterbildung
verwöhnen
vorhin
outset
6-0@@
Rande
Anregungen
Palästinenser
Fif@@
clos@@
returning
ritt
Orts@@
flav@@
Naz@@
racism
populi@@
ar-@@
Europa-@@
blä@@
Verantwortlichen
erneuerbare
tigkeits@@
Gipfels
amend
pedi@@
tivity
tail
Stein
Philipp@@
Laser@@
üblich
mündlichen
resorts
Gesprächen
Heimatland
deser@@
ousness
Contain@@
Wag@@
Ltd.
bedenken
fehl@@
Tragödie
erworben
complet@@
circulation
later@@
Apache
Taxi
Verhand@@
eingest@@
drafted
langes
immense
Drin@@
Müller
wen
befu@@
spei@@
drück@@
Beruf
Abstand
exceptions
delicate
unlikely
cheaper
brain
Func@@
fach
Hoff@@
Wochen@@
Verträgen
departments
List
Enter@@
bra
tico
begeistert
klass@@
verwaltet
ignoriert
incorporate
Manche
HR@@
unkt
Gui@@
izz@@
blatt
Jazz
Erkenntnisse
keinesfalls
Ministerrat
substan@@
Declaration
13.@@
Army
usi@@
Gewerkschaften
fault
abandoned
allow@@
alogue
cles
Baby@@
Gru@@
nutzbar
implementi@@
idealen
tape
invitation
torture
Currently
filling
Juan
trails
nötigen
schungen
fizierungs@@
Zahl@@
teilgenommen
droht
ökologische
Abschluß
simplify
Budgetary
Buddh@@
Building
Stau@@
Buchungs@@
Moskau
Gesellschafts@@
gesetzte
ließt
händler
Konstru@@
niens
Lebensmitteln
Tschechischen
Pierre
sert
Privacy
thaus
Wikicars
unnö@@
Rus@@
geom@@
senk@@
künstler@@
appe@@
import@@
ssa
egr@@
boy
atmosp@@
Horiz@@
therapie
Übersetzungen
bezauber@@
follow-up
responses
Dynam@@
Voyager
Büro@@
angeben
Amtszeit
schützt
Effekte
Sowjetunion
Lebensqualität
bekräftigt
ältesten
grew
akis
inquiry
Watch
lens
gigen
nin@@
crossing
flash
Fahrrad@@
reichhal@@
verhäl@@
Anhang
allies
Patent
Fat@@
teilungen
eingebunden
badly
publicly
calculated
ance-@@
Erkenn@@
Aktien
demonstration
accepting
eating
Milosevic
exploring
neur@@
Fro@@
Prei@@
weiterzu@@
Trink@@
jeweilige
exklusive
urs@@
preferences
Christ
angest@@
Impf@@
Unterdrückung
Mitglieds@@
conjunction
inning
Above
Priv@@
Strei@@
Sä@@
bestell@@
geführten
sekt@@
Wales
fund@@
infringement
integri@@
grüne
endete
Beratungs@@
angefangen
Consi@@
rejection
awar@@
large-scale
daughter
T.
vegetables
reibung
kritisch
Libya
attract
styles
-Sh@@
aciones
Programmier@@
Empfänger
Wartung
Litauen
Mittelmeerraum
penalties
fusion
ollah
loss@@
utzen
Franz
ule
ech
tick
dition
lehr@@
zellen
ungeachtet
Einzelnen
Clinton
anas
conci@@
proph@@
Deli@@
Sher@@
.The
lon
TV-@@
Servic@@
Integrations@@
internationales
Unabhängi@@
einzelner
esische
Konzep@@
Chr.
verabschied@@
failing
unification
sity
af
venue
monthly
discovery
Ji@@
Put@@
Panorama
Avenue
stecken
Investition
Ein-
irgendwelche
klassische
Aufforderung
gegenseitige
umfass@@
jects
desper@@
characterised
moderate
1976
Naturally
pragm@@
expan@@
Buffet
Palazzo
Ech@@
indirect
celebrated
bands
landscapes
orca
ι@@
mitgeteilt
eingerichteten
fertigen
einheit
hersteller
ektion@@
eventh
roughly
troub@@
GBP
defects
modes
Sym@@
verkehr@@
ver-@@
Hans@@
Brief
atischer
erlei@@
gesell@@
gieren
gesunden
orn
organ
D.@@
eigen
vorkommen
Heiligen
Aufenthal@@
Erzeuger
DIE
ablen
umfang@@
ämpft
dreht
impris@@
chocolate
til@@
doctors
entu@@
trademarks
Sard@@
vereinbar@@
bauten
Schattenberichterstat@@
time-@@
Kinnock
Saudi
it-@@
splan@@
Rahmenprogramm
sprachigen
cris@@
1968
Medical
line-@@
Cont@@
hiermit
Tee
gkeits@@
gewählte
Schlei@@
ae
Detail@@
Koch@@
Service-@@
Dir
lossenen
engag@@
Gitar@@
erw@@
messer
digten
lehnen
Flag@@
ickt
frist
undes
Arbeiter
Ausstellungen
kompletten
Wachstums
Finanzmärkte
compli@@
combining
Erste
vermis@@
wäh@@
verhe@@
right-@@
Vall@@
requiring
rot
Sak@@
seiten
reductions
GP@@
entur@@
freundliches
stätte
sonni@@
beträchtliche
Indem
Libanon
analysieren
Universal
bal
Journ@@
Tyrol
überwiegend
Play
öffent@@
Archiv
reinforce
Frank@@
breaks
Albania
Cultural
p.@@
tritt@@
riesige
deinen
ensystem
master@@
tari@@
Heritage
COM@@
tempor@@
ruhen
wenigstens
Behinder@@
fiable
separated
announcement
Immobili@@
reine
quarters
minds
backed
radic@@
bases
assumed
enhäuser
Working
meg@@
alliance
humans
elson
Pilot@@
GF@@
Siena
skep@@
orte
verkauf
zurückkehren
interim
multip@@
receipt
slau@@
embedded
Integr@@
anden
Zauber@@
hinein
korre@@
Betriebssystem
Einschränkung
schieben
forderten
eal
ograph@@
Analysen
ausgearbeitet
Einwohnern
quantities
orian
Ero@@
Wikitravel
niederländischen
einzubeziehen
enemy
homepage
Soft
Karten@@
genehm@@
gesellschaftliche
implies
navig@@
weekly
Hill
Schnei@@
enorm
fluss
pursuing
Roc@@
deleted
tip
cool@@
atorium
verschiedensten
Finanzmittel
fold
continually
mainstre@@
clothes
API
Lodge
ez@@
chem
verband
vergleichen
endem
Mazedonien
exhau@@
att
ovo
Fres@@
Beruf@@
einzuhalten
Gerichtshofs
shareholders
desc@@
mid
Moh@@
Seh@@
gebühr
Wahr@@
einziges
simul@@
iz
unlimited
concentrated
Peru
aufweisen
bliche
rüst@@
Zusch@@
sin
locate
Coast
dges
harm@@
Logo
zö@@
confron@@
racy
währ@@
muy
strafrecht@@
Nicht-@@
Arzneimittel
identical
unprecedented
cons@@
simplification
votre
Jahrzehnte
kompatibel
ernste
transformed
LED
ätz@@
dunk@@
abwechslungs@@
beider
herauszu@@
änger
bezogene
Haushaltsplans
coinci@@
yellow
weigh@@
cope
inher@@
fur
Frank
00-@@
alig
mieten
übersetzt
Legislativ@@
subscri@@
observers
Lul@@
fires
Ear@@
ower
plas@@
Planet
AV
metro@@
Moderne
erend
wirkungen
einheiten
Heran@@
dram@@
easing
undertaking
Bron@@
presentations
ommission
Barack
Tennis
verträ@@
konsolidi@@
interaction
gru@@
-to-@@
Business@@
Fitness
Chef
Lager@@
Montage
erzi@@
Konsultation
dus
respecting
defending
denied
frau@@
labels
Dach
berech@@
Verkäufer
Ratsvorsitzes
loo@@
cement
partition
landes
68@@
sende
samkeit
gegenseitig
fting
compatibility
RI@@
genehmigt
US-Dollar
dazu@@
risen
ison@@
Ré@@
etric
culinary
Therap@@
Niemand
betrag
vereinfachen
Ausfahrt
evil
Enth@@
klarer
reiterate
continuation
lier
check@@
4th
Provi@@
Stro@@
sightseeing
Disk
securities
Nag@@
thos
Temperaturen
äufe
radiation
participated
enda
Water@@
jet
one@@
ener@@
disch
o.@@
kontak@@
schaden
vorherigen
unteren
PSE
mad
craft
charter
Limited
bathing
Anhänger
s.com
Flotte
frisch
nitten
traum
Instrumenten
reiten
Provin@@
gekauft
Betre@@
gefällt
nennt
Skla@@
Sozialdemokraten
profound
Danube
winners
198@@
Kron@@
U-Bahn
cherung
shire
itt
Lav@@
glu@@
FIN@@
Semin@@
Bisher
zerstör@@
deutet
underline
ilt
conve@@
listened
adher@@
Bla@@
spons@@
Marbella
Halbinsel
solving
Bö@@
Age
RES@@
wohn@@
kei@@
kennen@@
Scheitern
practi@@
refined
gaming
Zur@@
5.000
Punk@@
Wie@@
ekte
Inhaber
traur@@
jährliche
föder@@
analyses
abor@@
suddenly
permanently
vity
atically
Azer@@
Credit
atte
globalization
ennt
Aktiv@@
müh@@
bekanntesten
Premier
wake
Bug@@
WE@@
Ruh@@
Store
löst
ordnungs@@
zuverlässig
vorherige
ausgewo@@
quota
optimum
sanc@@
bien
tv
Entwicklungszusammenarbeit
untergraben
denselben
banned
vend@@
commonly
aal
Auslegung
einzel@@
ausgewogenen
adaptation
dedic@@
qualitative
FAQ
specialised
tradi@@
enthusiasm
influenced
anded
host@@
Sales
Wetter@@
PDF-@@
sont
Marketing@@
Flüge
Repräsent@@
liberalen
Ursprung
Stattdessen
lessly
investigate
extern@@
e.V.
thilfe
ि@@
aupt@@
debat@@
ht@@
stro
sorgfäl@@
derog@@
Manhattan
berechtigten
Gegens@@
Absichten
rets
consolidation
Kaz@@
newspapers
iller
multilater@@
CP
jahrel@@
kommerzielle
owed
backing
vine
Geist@@
akzept@@
bewähr@@
ï@@
salt
Could
quantitative
ationale
Compl@@
ria
VIP
jähri@@
Temperatur
Hochschul@@
Industriel@@
Kontin@@
Dé@@
rivers
ambience
zigen
längere
Geschäftsbedingungen
engagiert
niedriger
Parlaments@@
unterhalten
districts
orious
pin
Ira@@
Alpen@@
gige
bemerkt
Kathedrale
computer@@
ş@@
woll@@
begangen
vernachlässi@@
freies
statten
agten
Richtlinien@@
invested
complimentary
ield
weis
Entstehung
cherten
Verhältnisse
Partei@@
Verstärkung
officer
tackling
EMU
Add
durchgeführten
spont@@
eable
beat
Singapore
assemb@@
CO2-@@
Renten@@
reibt
Ernährung
vicinity
venture
SV@@
Tou@@
beeinträchtigt
idealer
harte
Berater
verehrten
accused
polic@@
activate
Sto@@
aters
Camp
ш@@
konfli@@
Eigentümer
Leidenschaft
versetzt
tech
restoration
bench@@
Hist@@
ATION
tus
üre
Dienstag
export@@
elite
toil@@
Euror@@
refurbished
र@@
schrif@@
häu@@
aining
complic@@
Arm@@
kost@@
Häu@@
aufgehoben
herrsch@@
bezahl@@
Vizepräsident
auswärtige
consisting
apping
Roman@@
MT@@
mysq@@
erische
hebt
Marktwirtschaft
earned
eper
tening
murder
epide@@
rus
rows
Broad@@
yp
Geschenk
Bedingung
Kompromis@@
Superior
Ring
Kernkraft@@
skilled
tiny
bish@@
Napol@@
shof
Standard-@@
Küchen@@
Implementierung
vorsichtig
tories
andes
luggage
anspruchs@@
effektiver
Perspektiven
geschlagen
sämtlichen
amtierender
isolation
linguistic
mails
op-@@
Wolfgang
RAM
Schla@@
Partnerschaften
Diensten
größt@@
ungarischen
Fleisch@@
Luxus@@
wiederhol@@
Berichterstattern
Mid@@
asks
stones
excess
ò
debi@@
ны@@
haltenen
äußerster
durchsetzen
ishes
porno@@
consi@@
kill
ROM
ree
waves
camping
air-conditioned
aliz@@
ре@@
höhe
Internetseite
Komplettpreise
striking
tage@@
Gate
leg
emissionen
bricht
Rin@@
quer
Harbour
Chicago
Yu@@
schneiden
verhandeln
tangible
Rather
Fund@@
erober@@
ambitions
Exc@@
revenues
duction
sharp
Tunisia
founder
Öko@@
Bünd@@
mord@@
stabilität
schnitte
wirkung
führender
aufwand
Kart@@
demanded
configure
Italien@@
bewertung
degra@@
sac@@
engagement
Wör@@
Uhr@@
Grafiken
beseitigt
egelung
aca
rag@@
koh@@
zahlreicher
unterliegt
befürworte
gent
competitors
DVDs
Deut@@
Grupp@@
Swimmingpool
Aktions@@
friedlichen
bedingt
Quoten
commission
contributes
Dal@@
Centr@@
alties
dive
CAN@@
ceram@@
villas
Zins@@
ausgelegt
Schmu@@
Initiativ@@
Vorsitzende
Slowenien
sicherheits@@
antwor@@
vert@@
Ara@@
Bosnien
Thermal@@
Flug
knowing
upgra@@
strive
Abu
profiles
magnetic
hausen
Segel@@
Fragestunde
masch@@
Flughaf@@
ssigen
europä@@
ox
alistic
ually
reduzi@@
tionelle
Variante
gerichtete
abzielen
render
arrested
Junior
Info@@
cycling
Jap@@
Gelände
Koordination
schlage
gleicher
aufeinander
stärkeren
Jugoslawien
TEN@@
Marine
17.@@
Fon@@
unic@@
Stahl
Besich@@
sitzung
Präsidentschafts@@
verwand@@
rescue
alive
fai@@
hou@@
inia
ha-@@
PX@@
erhol@@
gebrochen
Ausgang
officers
motivated
carrier
acken
Magic
Profi@@
überlegen
schlechter
Zugleich
differently
sympath@@
gam@@
radio@@
Prim@@
Tol@@
Fut@@
Ernst
sprechend
einzigartig
projekten
verhältnisse
gebilligt
errichten
dam
pos
bia
enten@@
sendet
hilfen
besteh@@
wendungen
amerikanischer
part-session
employee
graphy
1981
Spei@@
Europa@@
reale
Whirlpool
Feuer
skosten
schläge
Kohärenz
clearer
hen@@
pact
emotional
practic@@
sweet
pts
ital@@
niedrig
jähriger
elabor@@
cha@@
lifestyle
clin@@
nick@@
Past@@
Psych@@
warranty
u.@@
ML-@@
bedien@@
Beendigung
kontroll@@
Annual
stom@@
inspiration
discrimin@@
congratulations
MD@@
R.
rank@@
rachte
EU-Ebene
lower@@
own@@
destabili@@
seminar
hosting
&apos;d
.com.
etzung
Schwimm@@
rasche
nutzung
Textes
Aufwand
zusammenzuarbeiten
modest
nowadays
eman@@
databases
zel
Mount
esh@@
Ankündigung
derte
igten
konfigur@@
Zahlreiche
Verbre@@
schnelles
ynn
brutal
verbrau@@
lück@@
Ernährungs@@
Hierbei
partially
öst@@
dogs
round@@
chin@@
cker@@
anzen
tausende
ulieren
regelmäßigen
aur@@
intoler@@
capability
dium
simp@@
Engine
zon
Wiki@@
Pel@@
circuit
l.
strä@@
Tipps
Kredite
shed
Caribbean
Minimum
Bali
ICH@@
Meer@@
änger@@
Verein
Luftfahrt@@
Gesetzes
personenbezogenen
railways
bears
cat
prescri@@
permits
business@@
Head@@
Isol@@
196
Grande
atur
Vogel@@
Europä@@
E-Mails
verleiht
diensten
maler@@
eding
notification
Hur@@
distinguished
startet
Beobachter
geordnet
freiem
Einheiten
ords
currencies
brother
formula
High-@@
16th
Camping
häuser
diesmal
Gegenstände
Opfern
wofür
Überwachungs@@
malerischen
mix@@
Klaus
PRO
acher
gelöscht
belegt
Zit@@
Charak@@
bestimmung
Spuren
exploit
Py@@
PER@@
Thai
finanziell
Besonderheiten
einzurichten
eco@@
emble
cigar@@
lis
vielfalt
Klim@@
gäbe
Blick@@
neueste
Palästina
Oslo
Yor@@
chal@@
query
Portu@@
appe
besticht
Ereignissen
portugiesischen
Eigentums@@
irgendeiner
Migrations@@
obtaining
deny
trademark
cultiv@@
Aur@@
designers
Architekten
kunst
authorisation
auc@@
tight
revol@@
gla@@
Granada
у
Eintritt
vielfältige
Aussichten
beliebten
glücklich
roles
isc@@
talent
colonial
electronics
energ@@
ito
four-@@
ит@@
anischer
Dich
Qual@@
eingereichten
würdige
removing
embar@@
user-@@
comforts
HS
lingen
auer@@
Liqui@@
zug@@
Auseinandersetzung
leidung
biologischen
einzelstaatlichen
appreciation
explicit
transmitted
Queen
ardi@@
nik
Hz
Tep@@
onischen
besetzt
Entwick@@
nördlichen
chest@@
eligible
dangers
istan
mailing
1973
palace
am-@@
Trag@@
Zo@@
punk@@
Hyper@@
deln
Vergleich@@
Befeh@@
Gewis@@
inequality
independently
Retur@@
OG@@
2014
ahl@@
r.@@
Fischer@@
sinn
plugin
zent
entstand@@
auszuüben
attri@@
simil@@
panels
eption
ña
begrenzten
Rental
Fünf@@
Mehrwertsteuer
steckt
intensiven
effektiven
sett@@
Prac@@
authentic@@
ovi@@
Leh@@
Castell@@
Euros
Deine
Schalt@@
mmen
veranstaltungen
gehörigkeit
Elementen
Gelegenheiten
alling
encounter
fits
Continu@@
Kamp@@
Reihenfolge
sym@@
acier
Stadtteil
verstoßen
Verzögerungen
assessments
impro@@
stakeholders
Future
cious
1983
fres@@
Tun@@
Cent@@
Benjamin
gebir@@
uliert
zerstören
Fehlen
vable
translate
boarding
Rock@@
Visit@@
Material@@
einmalige
Bildschir@@
Zinsen
mounted
220
EX
Cube
3-star
Zut@@
konstruktiven
kalischen
Vorbereitungen
schwerer
acking
shr@@
fossi@@
woods
Veget@@
schau
Verzögerung
vention@@
Entertainment
Grö@@
verankert
Kommissare
tensions
Gross@@
atories
gathered
maker
wire
Leu@@
angs@@
ocean
cap
holders
arta
esco
Kanal
lief@@
Eintrag
gesunde
investigations
laboratory
fts@@
wel
Soli@@
umen
Reak@@
Datenbanken
Sorgfalt
fruits
ror
safely
investing
impres@@
intim@@
tries
scenes
sor
Anders
lands@@
gerechten
nützliche
stoßen
accountability
hectares
Moldova
Listen
0.00
Juden
schlimmer
Entschließungen
Armuts@@
aufrechterhalten
capacities
opping
gear
utility
energie
schulden
klares
Beschl@@
wachsen@@
strateg@@
struck
170
awards
bey
luck
Know@@
Awards
tournament
weren
Kämpf@@
align@@
witness
1960
etch
Summer
festivals
aterie
warmen
reicher
stabile
zukünftig
gelang
beacht@@
müsse
anno@@
featured
Merkel
uten
Freien
anbietet
ignorieren
2000-@@
observations
lion
recover
grave
conscious
vermögen
Än@@
stringent
IK
Henry
deriv@@
fortable
verfüg@@
breites
scenario
orient@@
boundaries
itting
Fili@@
DEN
zumal
auseinander
ordneten
Gemeinsam
Legitimität
climbing
extends
exquisite
Job
nd
wissenschaf@@
Fertig@@
Spek@@
seekers
ologically
secret@@
cinema
Mountains
Theatre
kilometers
towels
türkische
zustand
Beweise
Kandidaten@@
reiter@@
distribute
HR
Impulse
Ton
Genf
mengen
mathemati@@
hide
Between
shoes
Kandi@@
Inhal@@
trock@@
verliert
Untersuchungs@@
diam@@
Aufruf
griechische
junger
preventive
thal@@
1974
Algarve
fa
Heim@@
Organen
speaks
rid
touched
household
Relations
Outlook
flüge
Wach@@
menü
finanzieller
Bremen
Adriatic
NG@@
bott@@
Christen
scheu@@
Begriffe
steigenden
dentally
titles
perman@@
21.@@
Spirit
Blin@@
blau@@
Autonom@@
TU@@
Maus@@
zukunfts@@
analysiert
Tendenz
PPE
profitable
Simply
Nä@@
undenen
luxuriöse
Kommissionsvorschlag
bereitzustellen
pati@@
fifteen
promotes
gm@@
emplo@@
Große
Konflikts
größtenteils
dged
ardo
stit@@
Sant@@
seb@@
Sn@@
Frattini
familien@@
ermitteln
Arbeitsweise
wenigsten
bedauern
finishing
coalition
countless
younger
ive
menus
DVD-@@
unmittelbaren
Gebrau@@
Integrität
Nich@@
emberg
baro@@
aki
authenti@@
Architek@@
mehrerer
entiert
mitzu@@
Manchmal
gewiss
damaging
constraints
stimulate
etti
Diagno@@
Acht
Zigar@@
verbesser@@
verschieben
verschoben
supervisory
harv@@
wedding
scho@@
levard
lus@@
genauen
Reichtum
adequately
dot@@
installing
surplus
reaches
Converter
Spra@@
wolle
afterwards
Tokyo
Partners
theast
otten
latt@@
strö@@
Funk@@
mittag
gesi@@
Zwangs@@
Erleben
Tatsachen
Randlage
Forest
invo@@
free-@@
aan
bestellt
gemis@@
Kluft
Effektivität
first-@@
inser@@
onte
parall@@
cooling
racing
Golfplatz
unterstreicht
Trennung
Abgesehen
abstimmung
belgischen
LT@@
emented
class@@
besides
electro@@
musicians
Bit@@
riffs
vorne
Kopie
Schwieri@@
Folglich
angehören
consulted
collections
RT@@
asi
ATA
Alm@@
Wahrscheinlichkeit
Conven@@
flan@@
studios
Abonn@@
effizient@@
Aufträge
selbe
divide
Out
mond
dner
sser
wus@@
Gastfreundschaft
pride
seaside
starker
wünschenswert
Jews
ask@@
even@@
sit@@
Estonia
Nep@@
Fab@@
16.@@
begreifen
schuldig
inien@@
entfern@@
delayed
Kim
flotte
sexuelle
estone
commission@@
joy
Cross
ühle
vineyards
erei@@
15th
Hierzu
asiatischen
landwirtschaftliche
jud@@
feelings
summary
washing
killing
dreams
Holy
oping
empha@@
bag@@
Män@@
umfassendes
ien@@
vation
Adam
Lond@@
Alex@@
datum
Klar@@
stig
hôtel
beglei@@
schätzung
verknüpft
Argentinien
unanimous
interpreted
bloo@@
administr@@
wi
vie@@
Workshops
stunden
bedeutendsten
etern
Weißbuch
thor@@
distri@@
Ja@@
weich@@
Energieversorgung
zutiefst
han
vul@@
gericht
ь@@
luft@@
Unterhaltungs@@
Vorbild
fristig
ausgestatteten
Seever@@
aufre@@
Nuklear@@
unvergesslichen
Stabilitäts-
decentr@@
terror
argued
Cher@@
É@@
enor@@
Blut
ordnen
streng@@
dauerhafte
Devisen@@
coherence
encing
TAC@@
aust
indigenous
Eurostat
Mountain@@
Garda
atz@@
Nationalpark
indire@@
inevitable
fat
struction
og
MAN@@
Publik@@
besseres
Ausgleich
sträger
gewann
schmerz@@
Regarding
Unlike
dom
ained
Metho@@
großzügi@@
Inneres
Rechnungsh@@
descri@@
ne-@@
1500
Teneri@@
UPS
samm@@
geklärt
Leid
Kunststoff@@
Defizite
weapon
qualities
Muslims
Directors
Glaub@@
parlamentarische
gegebenen
lez
dictatorship
17th
bat
Sty@@
NOR@@
bereitstellen
Kreis
classi@@
opponents
Prix
Wechsel
Mauer
nachvoll@@
E-Mail-@@
Zubehör
furthermore
sincerely
bla@@
recover@@
ache
reader
rang
sé@@
autor@@
wurfs
optimalen
materialien
Zwecken
abolition
Prestige
Days
efer@@
Versand
friedliche
getestet
zugän@@
Menschenhandel
reconciliation
spell
filters
Dolmet@@
gesto@@
zeitlich
bedeutend
umgekehrt
repe@@
gases
Supervisory
I.@@
Somm@@
Bran@@
energi@@
más
menten
Vorwand
Hinsichtlich
albeit
125
neys
FF@@
Digit@@
tram
bark@@
abgel@@
ausgezeich@@
ausbildung
interessen
Jahresbericht
justification
dimin@@
influ@@
blocked
delivering
ALE
fabri@@
Oxford
Schil@@
recogni@@
setzungs@@
vierung
südlich
mehrmals
kapazität
geltend
mittlung
Religions@@
beitreten
befriedi@@
indispensable
dismant@@
moon
Mary
Friedrich
Excel
Spielraum
attrak@@
realised
Being
sad
ston
Privi@@
therap@@
kus@@
DJ
Rimini
straßen
stün@@
Zäh@@
Vermeidung
institutionen
agr@@
Korean
Tap@@
Alpha
elegance
Provider
ender@@
LateRooms
serie
Funktions@@
Geschlechter
erwar@@
ströme
separation
helicop@@
â
Print
ßte
leihen
Zulassung
Energiet@@
erschienen
außergewöhnliche
Tunesien
ectiv@@
Tai@@
Erreichen
müßte
anstelle
conviction
Sing@@
Leistungsfähigkeit
vertei@@
gefolgt
in-depth
suspension
gramm@@
tif
singer
Exhibition
chemischen
korrigieren
Beachten
gehörte
explanations
frank@@
Sky
Cot@@
stroll
Plugin
Zusammenbruch
übrig
benen
pipeline
aders
Scri@@
Univers@@
tt
abteilung
Gesetz@@
Befehl
Territorium
vorsch@@
unverbin@@
Hintergrund@@
Voraus
entschei@@
interfaces
Ken@@
rats@@
büro
schulen
wunderbare
wesens
entworfen
acro@@
turn@@
resistant
Toil@@
KOM
ölle
betrug
untereinander
bereichs
ausgebaut
bietern
Wurzeln
durchgesetzt
clarification
ladimir
nav@@
Deluxe
Telekommunikations@@
Neuigkeiten
Stütz@@
prompt
ruled
holi@@
crystal
iev@@
recy@@
noisy
Mä@@
Kabel
ammlung
terly
inhab@@
audit
twelve
BAS@@
Love
bereitschaft
Interview
zeitraum
accu@@
bub@@
outer

kauf@@
haftet
veter@@
arriving
Verona
Standpunkte
automatischen
attempted
marriage
gli
schau@@
Tschech@@
complement
Auth@@
SD
decoration
Photo
wuchs
islamischen
Möchten
mündliche
verglichen
genügt
Watson
existed
vie
cam
gesorgt
vorhandene
veröffentlichten
Zugangs
Christdemokraten
tionality
defic@@
Allow
1977
bian
invites
reproduction
PN@@
diente
gerichteten
achtung
sieb@@
verbindlich
sham@@
entities
arises
dereg@@
Karel
enjoyable
lok@@
abends
akten
Offizi@@
beliebt
leichten
emandem
single-@@
ries@@
Rechtsan@@
schwarzen
kompliziert
runden
vorangegangenen
Komponente
presi@@
arran@@
Galax@@
contest
Ras@@
von@@
glück@@
Abfälle
Netzes
direk@@
korrekte
Frankreichs
Ganzes
deeper
stir@@
Model@@
Shopping
gebenden
dauerhaft
weisungen
designated
stieg@@
fache
Fertigung
Wohlbefinden
spezif@@
Vorredner
mean@@
calculation
edes
door@@
Argum@@
Clu@@
ING@@
weitergegeben
kurz@@
maßgeb@@
jung@@
Administr@@
Ash@@
cost@@
FS
stanz
räder
wandern
Ausnahmer@@
lawyers
await
somewhere
conditional
Jes@@
Hunger
Allgemeine
Maison
Berechnung
systematisch
endless
Leonardo
out-@@
enco@@
Electri@@
Materials
Gur@@
mins
Texas
Feder@@
Laeken
Top-@@
erschien
belegen
wozu
consist
legi@@
Ce@@
org
Zentr@@
netze
drehen
Geschichten
zwangsläufig
critic@@
scep@@
thr@@
reviewed
reinforced
vels
Schm@@
rieb@@
Reiseb@@
Ersatz
Grundfreiheiten
Albanien
character@@
TA@@
processor
owski
Festung
atisi@@
üben
Informationsgesellschaft
Zielsetzung
Abstimmungs@@
fif@@
Resour@@
inne
12-@@
quet
anmelden
passenden
gipfel
Zuerst
Anzeichen
Präsidium
avoiding
holder
massi@@
Hilfen
printer
Ben
azione
Jack@@
Video-@@
tnis@@
einzustellen
gültigen
Rahmens
Galici@@
packed
vement
Recy@@
zern
gä@@
pläne
Ernennung
fischen
Tagungs@@
nachhal@@
five-@@
bann@@
urity
Krei@@
Carlos
tron@@
Elite
Sili@@
Azur
Chaos
maß
industrielle
Energies@@
gische
ausgewogene
4-Sterne-Hotel
onisten
weitem
Libyen
resist@@
counting
co-operation
erre@@
as-@@
Buil@@
check-in
ehl
Fuss
gedruck@@
neter
geschwindigkeit
fehlende
Arbeitskräfte
limitations
Cannes
Freie
dene
Schlu@@
sozusagen
soll@@
hinzuweisen
fundamentally
admission
smu@@
Christians
Band@@
Mailand
herunter
defizit
vri@@
retirement
symbolic
libraries
fig
Petersburg
hairdryer
unglaub@@
Abend@@
trail
Liter@@
liquid
Sett@@
amin
Split
2,5
lern@@
unterhalb
üns@@
förmi@@
Mühe
bemerken
Stränden
langjährige
globally
15.@@
teach
Mugabe
Monitoring
DM@@
PC-@@
Erfin@@
Stimmung
Konzert
Wahrnehmung
Betrugs@@
Mehrere
geschätzt
Simbabwe
Michel@@
Deutsch@@
lio
wehr@@
Landschaften
Menü@@
einsei@@
distan@@
hazardous
Mou@@
Child
feu@@
000@@
tit@@
Progno@@
Informations-
hopefully
SIS
eed
iti
Focus
qm
Speicher
outlined
hunger
ruption
utive
Friedrich@@
freundlicher
nig
Streit@@
Dörfer
cargo
offset
echo
wich
etter
tam@@
emis@@
bikes
Relax
schicht
ektionen
reichende
Besteller
verbieten
fresh@@
ité
Exp@@
G.
panorama
subscription
HOTEL
stechnik
Veranstaltungs@@
ferenzen
inevitably
vessel
symbols
ram
dress
E.
wid@@
legendary
sili@@
Collection
IVE
Flas@@
Facebook
Schaf@@
cherweise
incident
Ort@@
1950
otype
Kro@@
php
Krä@@
bevor@@
Sämtliche
kamera
ausgedrückt
Binnenmarkts
endeav@@
Stabili@@
beautifully
kirche
gebrau@@
Gemüse
voices
detection
Wit@@
ranges
ectors
kov@@
REACH
Songs
Solange
Mitwirkung
vermehr@@
year-old
impetus
tab
cau@@
Côte
on-line
heu@@
John@@
Verw@@
dekor@@
begüns@@
Konflikten
openly
delivers
yl
shooting
Walter
ebook
leute
späten
besagt
Ratspräsidenten
simplified
advances
instability
nobyl
supplement
ila
Tony
Basic
eingang
Literatur
Verkehrsmittel
stattung
Pfer@@
Ärzte
Konzerte
religiöse
Gleichbehandlung
contem@@
advocate
Him@@
fertili@@
wasn
enture
Dubai
Wunder
Schlacht@@
arien
statt@@
Applikationen
erweiterte
schreiten
fabric
intergovernmental
Much
implic@@
milit@@
remo@@
ym
gels
SSL
antiken
stunde
Dringlichkeit
wahrnehmen
distant
highway
chst@@
delle
tur
stufen
spieler
benachteili@@
äter
ulierung
Journal
generating
passi@@
tler
Infos
tauschen
schwedische
Mittel-
Ursprungs@@
carries
ke-@@
Bier
kalische
Einladung
Auswahl@@
capitalism
horiz@@
ouldn
F.
....@@
entwickel@@
thin@@
Commun@@
workforce
Soci@@
agre@@
mountain@@
etic
universe
SK@@
ор@@
anderswo
Kommand@@
durchschnittlich
gangenen
tant
eby
tremendous
maintains
sourcing
Supp@@
verbreiten
Kommentar
traditionell
geschätz@@
prüfung
großartige
ssige
tatsächliche
verwirklicht
anstreben
inter-@@
Canaria
Prü@@
adidas
anteil
sichert
dbar
Vermarktung
endsten
kanische
notic@@
oi
dust
Raf@@
pig@@
ICE
manip@@
abgehalten
lays
trol@@
cz
IF
uch
Neu
exceptionally
1969
sensitivity
ty-@@
echni@@
hung@@
Later
CC@@
19.@@
Sli@@
gt@@
Durchschnitt
atemberau@@
strategien
aktiver
infrastructures
Guar@@
Though
systematically
cycles
redi@@
eas
Visual
Statt
Bestand@@
Stellenwert
nnen
Automobilindustrie
Unserer
Parlamenten
Ps
laimed
utions
Save
Review
ej@@
Panel
EK@@
christ@@
Glet@@
Verbindungs@@
indirekt
Support@@
twenty-@@
ideological
insight
athon
Baroness
io@@
Boli@@
zin
EGF
Kön@@
Substanzen
Etik@@
mixture
reasonably
horses
Application
dio
Statistik
gebo@@
Beton@@
licht@@
prochen
deutlicher
Sensibili@@
retri@@
worker
selecting
Respon@@
overnight
SU@@
-Spe@@
на
bestä@@
Konkurren@@
Petitions@@
kin
refriger@@
lier@@
wende
bewirkt
Verantwortungs@@
wickelt
Vielmehr
benötigten
vorschlägt
tiers
Round
stal@@
Baro@@
betreibt
gezielt
Finanziellen
resumed
enrich@@
refugee
etts
booth
mah@@
adresse
Egal
splans
defiz@@
abuses
boom
Peking
Hein@@
prints
newest
Flor@@
Everest
Spanisch
Anmerkung
Begegn@@
Stich@@
häufiger
erfreu@@
Mitentscheidungs@@
mineral
tracking
robots
verbot
unen
tolle
äs@@
Gerne
gegrün@@
Annäherung
rene@@
bels
lying
1990s
container
Pfei@@
Schiffen
Abwicklung
zeitige
Indonesien
asting
donors
NE
algorith@@
latt
Rol@@
Gefän@@
Einblick
verschwinden
Projektes
Jahrzehnt
vorrangig
Zellen
shock
rarely
ille
robu@@
usa
tle
Berlusconi
nutri@@
Johannesburg
nen@@
TNG
Eurex
Benutzern
üst@@
heil@@
eingeben
verstärkten
Zugangs@@
Mensch@@
abzielt
prevents
skill
Quart@@
attraction
up-@@
t.@@
Selb@@
gründlich
pointing
entity
omen
unny
Som@@
high-speed
begren@@
tiefen
harten
petition
entrepreneurs
Nothing
Bosni@@
Zentren
Welthandelsorganisation
Aufrechterhaltung
entrepreneur@@
disagree
herself
chil@@
Airways
berge
Gefangenen
zweimal
einbringen
Künstlern
ij@@
sail@@
opera
ingo
versuche
wichtig@@
proliferation
integrating
opoli@@
incorrect
aluminium
And@@
did@@
Type
Copy@@
ehrte
Norwegen
kommens
aloge
fließen
quiries
insel
magne@@
kreu@@
Kühlschrank
zulässi@@
Lanka
stock@@
Channel
tox@@
Direct
Clear@@
hinterlassen
Sicherheitsrat
Umstrukturierung
advised
Lama
gy@@
chances
graphical
Hob@@
Sofia
tas
ów
Ebenfalls
Berich@@
Einwände
matches
Barnier
threatening
adjustments
Feli@@
oma
Smart@@
verbin@@
ausführliche
stoppen
floo@@
subjected
coach
Innsbruck
wissenschaften
klimatisi@@
Fokus
allmählich
anlässlich
Behinderungen
kommunistischen
beantragen
defeat
WW@@
UK@@
Tourist
terraces
rechnung
drücke
bekam
damaligen
erfor@@
ansä@@
setzten
iern
personenbezo@@
vereinfacht
mitglieder
anfangen
decrease
dging
vou@@
RE
Stefan
artier
frische
Ansätze
timm@@
beliebtesten
veröffentlichte
Vorstand
Tob@@
socially
alleg@@
encomp@@
silent
Ins@@
achel@@
genz
Zeitungen
Direkt
äler
Eleganz
mache
latein@@
Interessen@@
fahrzeugen
Treibhausgas@@
layers
brief@@
Environmental
breeding
Dau@@
MIN@@
Verpackung
beantragt
Suchen
benutzer@@
Sicherheits-
Minderheiten@@
gradual
UNO-@@
Räumen
beding@@
prü@@
installi@@
niedri@@
erreichten
1.2
judges
wishing
ot-@@
pez
Souven@@
verteilen
erstat@@
Kommunikation@@
Arbeitslosen@@
annually
Florida
on-site
ventionen
schä@@
Fristen
clinical
cover@@
Trin@@
lische
Co.
persönlicher
holung
ह@@
Nahrungsmittel
Schre@@
author@@
Large
employ@@
reveal
lav@@
Johannes
giant
walt
bil
Haut@@
inspiri@@
befür@@
dänischen
PPE-DE-Fraktion
placement
bad@@
luxuri@@
Glo@@
Haft@@
Griff
fähiger
beeinträchtigen
abstained
.....
Viol@@
poss@@
xis@@
Schiffs@@
furnishings
saubere
С
Kosme@@
Doppelbett
Indikatoren
interference
disciplinary
OL
erc@@
spru@@
klausel
Gefangen@@
Kompromisse
Nobel
Dör@@
Chechnya
nel
Frontex
BIL@@
arme
Sofern
packen
moralische
technically
Albert
healing
ellers
PA@@
ù
Rats@@
Forst@@
Reden
auftritt
Versu@@
vernünftigen
Jam@@
Bern
buff@@
bicycle
ż@@
beu@@
faktor
gerechnet
Gesetzen
Sicht@@
stahl
Fertigungs@@
Nachbarschaftspolitik
incomes
adverse
utter
supran@@
duplic@@
therapeu@@
Classi@@
ju
geschicht@@
eichen
Kondi@@
Flach@@
Demokratien
imperative
18-@@
Bluetooth
tivi@@
Appart@@
element@@
vente
Nachteil
sweise
Operationen
Foren
Teilnehmern
Infrastrukturen
linking
vised
stating
criminals
üssel
you@@
Epo@@
gl
Millenni@@
customized
kompetenz
anti
affir@@
correspon@@
foli@@
об@@
ausgest@@
äuß@@
zuverlässige
licensed
Bangkok
Especially
uner
scape
Oracle
dringen
Mozilla
gesetzlich
Internetseiten
Kranken@@
Alkohol
shell
rage
hop@@
distributors
Repar@@
nä@@
ummer
banken
ierend
Sortiment
fertig@@
Geburt
städtischen
mild
gather
ECHO
beside
Railway
touristischen
Spielern
Generalsekretär
befreien
nachzudenken
anzugehen
heirat@@
exam@@
educ@@
globe
etings
loan
aba
G20
Rosen@@
wehr
e.com
höchst@@
schieden
frühere
Unless
complaint
horizont@@
mic
figh@@
Balance
eron
jn
Stil@@
meint
Gleichheit
koordinieren
Athens
gos
beweist
Finanz-
schäden
Währungen
Erika
sional
repression
ment-@@
spac@@
carriers
His@@
accommodations
umpen
gesetzliche
versu@@
samen
erinnen
Diktatur
Säule
Little
attempting
Any@@
age-@@
umm@@
Busse
hütung
Augenmerk
Risik@@
criterion
wild@@
Romanian
hearts
knowled@@
yle
origins
Long
ASA
Eck@@
verhandlungen
civilians
NOT
Upon
revolutionary
stitution
Block
aro
18.@@
Fest
chtig
gebor@@
letztes
Signale
maßgeschnei@@
resolving
14.@@
terrain
H.
grid
enni@@
ysi@@
teres
optimieren
Pharma@@
Aufsicht
oured
Criminal
discretion
episode
Statute
geo@@
σ@@
Statut
schien
überflü@@
vorausgesetzt
Verbrauch
Anreiz
compens@@
retro@@
Turk@@
Activ@@
surgery
Harry
ßes
unk
samples
rd
Exek@@
unvermei@@
harmonised
essive
exclude
apar@@
Lud@@
bedient
ön
o.
differenzi@@
immerhin
Übertrag@@
aver@@
CT@@
vide@@
Users
Punta
ALL
Kühl@@
enster
firmen
Orientierung
Redebei@@
Works
off-@@
boys
mount
umen@@
exe
Termine
dynamischen
regelmäßige
mangelnde
vacuum
lication
lap@@
Local
couples
träglich
fikationen
Jahrhunderte
Swoboda
XX@@
determining
communist
rome
Bruder
ographie
stärke
feier@@
besichtigen
exo@@
attach
rigorous
sincere
portion
porte
Krak@@
TEC@@
MM@@
bö@@
enthal@@
ständ@@
Entschädigung
Grafik@@
ausgeübt
zügen
personality
Written
nearest
supporters
queries
Smart
Song
einlad@@
Unternehmer@@
öhnung
Gesamtheit
Inflations@@
Bund@@
Contrac@@
suns@@
sein@@
Officer
ld@@
Teu@@
auto
fotograf@@
kenntnisse
Persön@@
dreh@@
vorhaben
vot@@
promp@@
sex@@
autonomous
colon@@
perception
Label
SM
Vot@@
qu
Trä@@
Konver@@
hinzuzufügen
dauerhaften
vorbereiten
open@@
uty
intuitive
uno
upload
grundlage
euert
pfli@@
Transpar@@
prosp@@
icker
nings
coins
länge
gelag@@
behindert
artigen
Protok@@
Passagiere
distinct
-European
democracies
farm@@
isse
Dom
Religi@@
ismo
tchen
Domin@@
Chat
Ramblas
Lust
volumen
Solidaritäts@@
riebenen
Einfluß
Auftraggeber
ologies
margin
examining
Syri@@
locally
manifest@@
142
toll
accessed
Solidarity
RS
fing
vibr@@
In-@@
Messenger
Früchte
abgestimm@@
engagieren
ernannt
berühmt
Dafürhalten
excuse
chamber
comfortably
ferry
Mé@@
Gour@@
Solar
Downlo@@
Terrace
Paradies
englische
brachten
ünd@@
admir@@
rts
thwest
orange
kör@@
bungen
Autonomie
schaftlich
Insofern
painted
herein
3.5
wachen
Weihnachts@@
starb
ernd
einsetzt
reciproc@@
Gig@@
chip
iga
moderni@@
Lob@@
kanz@@
wache
teilte
verschul@@
Nichtregierungsorganisationen
pillars
Jack
allo@@
Brem@@
EST@@
herausra@@
römischen
embry@@
circum@@
genetically
Meister
dere
Quer@@
guitar
restrictive
indirectly
anism
ceremony
NT
128
photograph@@
Elem@@
downloads
dryer
USB-@@
llt
streichen
sy
passive
modular
renovierte
erzählt
Einbindung
begab
Infrastruktur@@
appearing
envisaged
investig@@
Newspapers
alog
Max@@
Residen@@
zügi@@
Möbel
investitionen
erkennbar
Völkern
bekräftigen
WHO
Bulgarian
Studies
lv@@
audiovisu@@
AST@@
inen@@
Nachbarschaft
findung
ständiger
gesendet
bezogenen
ergrei@@
heres
Cru@@
refra@@
doz@@
invoice
instant
lifts
Quartal
Sieb@@
leist@@
preises
Mitarbeiter@@
fortschritt@@
Naturkatastrophen
IGC
strikes
provo@@
SOL@@
tom
divisions
entre@@
tice
ás
configur@@
stra
andau@@
wertes
Maßstab
Kampf@@
Zeile
Anpassungen
ologen
angeführt
Erneuerung
procedural
wan
reactions
Zealand
theoretical
rug@@
Kleidung
familie
geholt
Ganze
zugreifen
ziehung
corporations
yield
Extra@@
Od@@
ò@@
mili@@
liqui@@
formerly
Banglad@@
City@@
Hongkong
identifizieren
pflan@@
scrutiny
Cross@@
Lobby@@
Grab@@
Vegas
Musiker
Campingplatz
zunehmen@@
quo
workplace
protests
literally
isierten
Dienstes
vorzubereiten
kostengün@@
arena
securing
missi@@
agog@@
pop
Aller@@
lien
ernde
wettbewer@@
seitdem
chart
agers
plac@@
Rate
World@@
Kari@@
Megapi@@
das@@
beam@@
karten@@
irgendwo
billigen
gefügt
Freedom
cup
quer@@
PT@@
P.
dimension@@
german
Sternen@@
disclos@@
she@@
has@@
CIA
pine
Downloads
Leist@@
Sehen
schwä@@
fortzusetzen
sowje@@
optionen
Gefähr@@
zusammenzu@@
ric
convincing
Controller
organs
inson
Willi@@
32@@
Div@@
Schottland
bewundern
resol@@
lash
disastrous
visas
hosti@@
hof@@
keyboard
Umgeb@@
genutz@@
स@@
Gültigkeit
lichung
Netzwerke
webe
compromises
legisl@@
cha
patch
Rath@@
Preis-Leistungs@@
bücher
erfassen
Erstellen
PSE-Fraktion
Beförderung
validity
congratulating
concludes
migrant
protective
uniqu@@
astro@@
Rechtssicherheit
DNA
Commander
ы
Brand
HA@@
Laman@@
Angeboten
verkauf@@
Kameras
interventions
reti@@
enhancing
ageing
grab@@
Reserv@@
enab@@
Rohr@@
medizin@@
noti@@
credits
foster
Disabled
Kath@@
altitude
ý@@
ORE
strecke
gefei@@
beratung
roten
Ansprechpartner
beglückwünsche
Stellungnahmen
formally
hunting
execute
Night
ograph
Telef@@
ellen@@
Rain@@
Memory
buttons
geschmackvoll
Antrieb@@
Vergü@@
trig@@
static
dex
FS@@
decor
Cardassi@@
sprüche
behei@@
geschlossene
Beschaff@@
double-@@
Chancellor
scienti@@
categ@@
Andro@@
cathedral
hir
WiFi
dev
bahnhof
adet
Resultat
architekt@@
vielfach
Rohstoff@@
monopoly
ever-@@
routine
accommod@@
cils
SPA
1972
pedestrian
Production
lj@@
Arri@@
Barro@@
Spann@@
Angebot@@
erschüt@@
Quadrat@@
Direktor
Ungleichheit
ventions@@
festhalten
Whilst
Gibraltar
variables
Perf@@
Agr@@
dynamische
ungsanlagen
enswerten
Hoffnungen
pushed
admitted
tras
ymn@@
Solarium
blicke
erkenn@@
Modell@@
Herstellern
ersuchen
wertvollen
abzulehnen
zivilen
taire
Looking
icious
folk
Breite
Klick
ordnete
ttern
Mitgliedsstaaten
Haushaltsjahr
Key
cotton
6th
depic@@
cast@@
astronom@@
Ped@@
Enter
antas@@
downlo@@
ütte
Erschein@@
Demokratisierung
bedürfen
Inanspruchnahme
tunnel
preference
arly
consolidated
contr@@
insert
rh@@
archit@@
ALL@@
Konsum@@
Gläubi@@
Begeisterung
Vorbehalte
erfahrenen
certificates
perceived
unilateral
jer@@
Latvia
Petitions
fier
partner@@
stad@@
yk@@
liv@@
Ostsee
gewand@@
Obst
mobilen
ruf@@
Entschei@@
rischen
5000
exclu@@
neo-@@
sab@@
carri@@
hip
Kalender
Formel
Dienstleist@@
eß
versamm@@
Komplexität
gesenkt
tonight
overwhelming
chner
dered
lit
ira
Trav@@
Volkswagen
Navigation
Domain
Budd@@
t-
apel
Milch
offensicht@@
Entschließungsanträge
innocent
abandon
verify
Again
Hear@@
intimate
hoff@@
Mario
productions
Rücken
Linux-@@
Stör@@
gebnisse
Gegebenheiten
Ganzen
wanting
Catholic
vian
aran
cling
galleries
Cyber@@
sprin@@
Cash
standard@@
Schauspiel@@
diversen
aktivi@@
Italiens
laufende
Gegenwärtig
Erkrankungen
Sozialpolitik
aggreg@@
worried
ernity
preservation
Laur@@
dramatically
Jobs
Canal
Kurs@@
Gebi@@
beobachtet
modernsten
länen
außergewöhnlichen
Zentralbanken
sorts
inviting
Ukrainian
Ima@@
го
Dutz@@
Fahrzeugen
fläch@@
aktions@@
alternativen
stabilen
einstellungen
windigkeits@@
ounced
non-governmental
burning
oli
Später
geschütz@@
spunkte
führend
wished
Beauty
pe-@@
entre
bearbeitung
treibung
tschechischen
ignano
elung
assessed
tism
Democracy
tery
inch
rounded
urop@@
Learn
Mittag@@
Bundesrepublik
hrt
niedrige
Aufgaben@@
aufweist
schätzt
1.1
ept@@
tener
stimulus
sequence
RF@@
ers@@
attraktive
dürften
Schluß
Höhepunkt
ausmachen
transported
phas@@
refusal
nisch
strand
segments
cu
Kanäle
kopieren
grundlegend
westliche
transatlantischen
gehand@@
Hoheits@@
Streitkräfte
Anyone
sympathy
chips
Potential
Pots@@
Wher@@
Son
Erwerb
riffs@@
kore@@
koordiniert
gemeinschaftliche
Redezeit
safeguarding
studying
otive
int-@@
Crus@@
hn
Festivals
dicht
geräumigen
DS9
Straß@@
geschützten
packt
Fäl@@
Nichts
Nutzungs@@
Forscher
baute
Partnerschafts@@
Persönlichkeiten
Konsumenten
unanimity
surfaces
dow
escal@@
Fix@@
Creative
09.@@
minibar
Gesundheitswesen
ausgewählte
Störungen
unternehmer@@
annehmbar
deployment
modus
night@@
Veter@@
stairs
readers
ört
saison
bildungen
unweit
unterstrichen
Entwicklungspolitik
gui@@
vigil@@
Canadian
Koso@@
Neither
Against
ex-@@
24.@@
lingu@@
Depending
partement
tner
Kamer@@
winkel
bör@@
dahingehend
rahmens
missible
far-reaching
energies
accompanying
thinks
DO
nan@@
Dr
Biom@@
Hydro@@
NT@@
klassi@@
verlust
Richtigkeit
Zutaten
exploited
buyer
philosoph@@
20.@@
duktion
benachrichtigt
bestraft
anwendungen
wiederhole
statute
noble
gau@@
profession
smopoli@@
Norweg@@
estro
verlängert
rüger@@
Linken
verbindliche
witn@@
council
rum
territori@@
ystems
Theater@@
Ausstellungs@@
onds@@
geschle@@
Unternehm@@
basierend
bekämpft
gespei@@
Flüchtlingen
unified
vertical
vibrant
Help
teur
Argent@@
eno
Jacuzzi
Zukunfts@@
Besetzung
amtierende
Kapitalismus
trieb@@
Lauf
consultations
IND
ρ@@
bugs
österreichische
Krimin@@
grenzt
oberfläche
Nachfolger
headed
Political
zh@@
ret
Stan@@
lichere
Flüssi@@
ekten
Zivilisation
Entdeckung
abzuschließen
vorzuschlagen
Außengrenzen
A5-00@@
proves
ints
ulating
Ell@@
proportionate
Manchester
Dup@@
anta
dies@@
GM
friend@@
Disk@@
asch@@
direkter
turm
doppel@@
Anzeigen
Kernenergie
terr@@
split@@
Germans
configured
rist@@
serial
tob@@
Nei@@
baths
nier
nightlife
ausgestellt
Generaldire@@
Six@@
endeavour
aiming
milli@@
solidar@@
diesel
gra
Photoshop
gemütlich
serklärung
Piet@@
Hay@@
TW@@
itu@@
Minim@@
zir@@
opf
jenige
Kindes
voranzutreiben
endorsed
Recently
wash@@
wisdom
fragile
Wu@@
rock@@
ity@@
Laut@@
Kei@@
Blizzard
Starfleet
ammern
taten
Klang@@
dichte
ausgebil@@
begriffen
Beitrittsverhandlungen
austerity
tank
Baj@@
-Hotel
Hunderte
glicher
fünfzehn
amtierenden
costly
market@@
classified
Hollywood
Bavaria
strom
EZ@@
Interpretation
Porsche
Eisen@@
täten
worauf
Geschäftsführer
Buchstaben
Publikationen
gründe
versetzen
paint
anyway
memories
princip@@
smallest
landing
beachtet
verweist
vollkomm@@
े
safer
drew
pull
defe@@
pricing
bury
Ferienhaus
legend@@
affen
wunderbaren
strebt
abgeschafft
prejudi@@
deciding
hood
umping
Along
Epis@@
Lady
zed@@
zeile
zufriedenstell@@
technologie
Vertrau@@
Landwirten
änderungsan@@
Zinssätze
Lissabon-@@
tible
inet
infr@@
Zap@@
ewi@@
ticul@@
micro-@@
believ@@
enses
legislativen
Back
1980s
22@@
tera
produc@@
errei@@
tien
Word@@
guest@@
gewöhnliche
Norm
Glücks@@
forderungen
limiting
ateway
wag@@
élé@@
probe
Emo@@
Kloster
Seef@@
zulän@@
dorthin
Gewer@@
expliz@@
fehler
fundi@@
engruppen
bewahr@@
confirms
bottle
spark@@
popularity
anto
geber@@
Autorität
broadcast
50-@@
Congo
Sydney
berry
authori@@
flich
chtige
alisch
Weiter
spartnern
beherbergt
Beispielsweise
pré@@
Pakist@@
7th
lege@@
Magazine
eb
~
dion
gebucht
Zucker
preisen
freiwillig
Valu@@
anium
brilliant
demonstrations
Medina
ringen
Temp@@
Geor@@
behold
kunde
Gutes
zweit@@
schwäch@@
Moldau
schlägen
Strafgericht@@
schlags
ergy
entru@@
detention
Nob@@
writers
developer
omo
Zentrums
vereinbaren
mittel-
Still
six@@
Nit@@
path@@
estic
Colombia
Speed
How@@
nau@@
Nur@@
Abwei@@
halben
Standorten
Immunität
modification
surve@@
improves
Produc@@
refres@@
Harmon@@
lifting
inas
anton
Sax@@
Stars
europas
gefahren
kunfts@@
ausgeliefert
indischen
ränkten
Temperatur@@
massiven
punishment
attend@@
Kun@@
trans-European
750
Crist@@
män@@
Wanderungen
Voraus@@
fahrt@@
bereitgestellten
verschärft
counted
aires
enland
glas
BB@@
english
Club@@
Artikeln
Fragestell@@
tierenden
wertet
adjacent
praise
indications
Hilton
admire
geographi@@
dor
Kanz@@
chtern
blockiert
erhöh@@
abschließen
Artikels
bewäl@@
Pom@@
road@@
ph
essor
Che@@
Clients
Blau@@
Akademie
komplizi@@
schiff@@
Etage
versprochen
Rechen@@
festgehalten
Vertre@@
ausgenommen
Tastat@@
deadlines
asis
emphasize
emm@@
ет@@
ا@@
Unterricht
gesu@@
Rollen
Wandern
fizierten
bedauer@@
markiert
begrenzen
Diejenigen
Zustellbetten
classification
obstacle
Sep@@
eded
thereof
Ultim@@
lend
ruins
ordering
ISA
Prince
positives
osc@@
SIM@@
irgendeine
einzuleiten
chair@@
tually
Bolkestein
listing
ush@@
Pent@@
Giovanni
Rose
Turni@@
schwach
beeindruck@@
beruf@@
iranischen
Treiber
Ära
Gesicht@@
Ziels
Kreatur
profes@@
4-0@@
counter-@@
Gent@@
introduces
snacks
einrichtung
angemessener
Bestimm@@
bedroh@@
Anwendungsbereich
Konvents
rumän@@
KL@@
actu@@
omas
Kast@@
park@@
Gepäck
Olympischen
Beträge
obenen
Lieblings@@
gemachten
Königreichs
artic@@
eks
controll@@
responding
seller
critique
pal
Balkan@@
modelle
Medizin@@
Palast
ermittelt
Aufklärung
künften
inwieweit
23.@@
construct
visibility
nic@@
trials
Universi@@
BE
wissen@@
Verwen@@
Alkohol@@
aufhören
dle
guilty
definitions
limitation
ACE
mos@@
scripts
Monaco
Eas@@
ни@@
dierung
compet@@
Seattle
iden
standardis@@
advisory
ographi@@
subj@@
Phil@@
Twitter
bestanden
ausgeben
nahen
vereinbarung
kreative
Akzeptanz
anspruchsvolle
Gewährung
gratuliere
Guatemala
eke@@
wis
cream
nette
sachen
38@@
Benz@@
abschluss
größ@@
schaftlicher
Weltkrieg@@
sämtlicher
Gegenden
witnessed
audiovisual
foo@@
immunity
fragm@@
Ny@@
europa@@
Szene
rachten
Vertriebs@@
zenten
gestrichen
Gedanke
ausreichen
Strecken
übertrag@@
meaningful
delegations
Sci@@
Cards
KE@@
Freizeit
wieg@@
Werken
herrschen
Geldpolitik
traditionally
ront
Americ@@
completing
Virtual
stitu@@
commands
tasty
profitiert
ausgeprä@@
männ@@
abhängen
ürzt
paragraphs
sends
cultur@@
confi@@
rear
femin@@
Tin@@
sto
Gift
Musli@@
Lizenzen
Datent@@
tätigkeit
Gleichwohl
multilateralen
distinguish
Scandinavi@@
2.2
courtyard
Eurocopter
Charakter@@
durchschnittliche
ancies
identifying
psychological
complementary
timent
Rica
ukra@@
morgens
Verbin@@
artikel
unbest@@
diesbezüglichen
Bedürf@@
ausgerüstet
pflegen
schlimmsten
modernisation
consu@@
Cz@@
textiles
painful
medicinal
wareh@@
transpar@@
Tax@@
anks
Dic@@
aku@@
boutique
Viel
attraktiven
Inzwischen
wandeln
sozial
Schließung
Afrikas
volumes
Sustain@@
deter
Guinea
unmittelbare
stufe
bewegungen
Präsent@@
quoten
posing
pers@@
illness
cad@@
ART
bunal
uta
Europäisches
kommunizieren
Therapie
Kompromiss@@
Hindernis
terungen
fulfil@@
dark@@
worlds
Major
acu@@
bund@@
Fusion
Depression
FREE
Promenade
salle
Höhen@@
Schuh@@
pflich@@
Wissenschaft@@
berau@@
sparteien
CO2-Emissionen
reluc@@
remedy
ares
torial
tariff
invasion
Dunk@@
rer
Management@@
†
Etagen
artig
Gehir@@
konkre@@
sibility
short-@@
veri@@
intent
settle
uts
legacy
mood
Las@@
Oper
Auslands@@
न@@
Vorsicht
ausgewogen
Schwerpunkte
virtuellen
Masse
optimiert
Bedrohungen
tendency
diet
umbr@@
races
rung
Mic@@
ā@@
intelligente
Tagungen
deckung
westen
Fülle
Banken@@
modifications
Sahara
Canary
afri@@
ouver@@
Images
model@@
Zwischenzeit
Einsch@@
anzusehen
diplomatischen
Daraus
Nutzern
spreading
Price
was@@
Monum@@
keiten
kunft@@
Übermittlung
folgte
Benutzern@@
grafischen
irrespective
Expan@@
priced
hair@@
e.
GEN
SQL-@@
Designs
Leucht@@
Zeitalter
pflanzen
ertem
Verhinderung
definitive
wheels
fasc@@
proch@@
repar@@
uk
baggage
fabulous
Delta
Blei@@
Shutt@@
temperat@@
laufend
auszur@@
vergleichbar
Jahreszeit
Brosch@@
eventuelle
inland
Whatever
coff@@
problematic
region@@
distinctive
FO@@
correction
sharp@@
Warsaw
loads
dioxide
sleeping
Cruz
197@@
favor
Updat@@
betreut
10.000
Monats
consolidate
seas
suits
exotic
très
en-suite
ел@@
Turm
Elektriz@@
mittelalterlichen
Auflagen
bekanntlich
arro@@
medic@@
eme
Championship
FT
gebot
gasse
geräumige
selek@@
Schritten
anbieter
ausgehend
Meinungsäußerung
wirksamer
tanks
prerequisite
horn
serb@@
Ostse@@
ttä@@
leuten
Darauf
reservieren
schriftlichen
Zuliefer@@
Folgendes
Endes
Chris
mac@@
oot
urch@@
Oliver
Dry
Windows-@@
Schätzungen
Davon
Spiels
zurückkommen
herrschaft
sacrific@@
coastline
lending
ailed
Crow@@
gambling
Dil@@
alphab@@
té
Secur@@
Frühstücks@@
gessen
Ansprüchen
gerlich
Fotogra@@
unterschied@@
wirksam@@
weal@@
abu@@
tied
VE
blocking
wholes@@
yiel@@
Holding
Johann
birthday
Pod@@
Malaga
iser
adas
Heiz@@
Bewegungs@@
eits@@
Rezep@@
Bestrebungen
abzugeben
gezahlt
reimbur@@
steri@@
evaluated
ultra-@@
cattle
administrator
sed@@
themati@@
aine
aboard
Protot@@
unglaublich
schon@@
geschenkt
Sozialisten
Sitzungsperiode
gigan@@
defen@@
Jordan
Annex
slide
Aar@@
Tuscany
Kyoto-@@
μ@@
beut@@
ICH
Zeitschrift
erzeugung
verhandelt
Folter
Dienststellen
wirtschaf@@
disappear
dis
disabilities
Applic@@
casting
onom@@
pots
mati@@
24-hour
amento
scheinbar
erholen
Sammel@@
Erdbeben
Berat@@
trinken
utern
öser
Befu@@
Cohesion
consult@@
persu@@
FP@@
Lange
dairy
pushing
Active
Sprit@@
Mobil@@
Beleu@@
Anschließend
verwandeln
Herzlich
Formate
Schwach@@
aufrufen
dität
gerungen
protects
Meas@@
fed
rors
broadcasting
smoke
Alter@@
Breit@@
selts@@
ordnet
genommenen
ankungen
clauses
E.@@
escap@@
reaffir@@
card@@
pets
duk@@
jazz
Dü@@
S-B@@
Subjek@@
veranstaltet
Pfad
Genauigkeit
Zyper@@
Behandlungen
Algeria
Posselt
itar@@
detect
ves@@
defin@@
viewer
ecker
Secure
Kok@@
miet@@
Haltestelle
Ungleichheiten
Hotelzimmer
merken
zusammengestellt
Chinesen
Wäscheservice
aven@@
contam@@
conducting
RA
Protest@@
Vig@@
Shuttle
iors
Theat@@
Häusern
Stern@@
betragen
Nachteile
Bürgerrechte
Hochschulen
Überleben
perfekten
zonen
ant-@@
ister
Corn@@
Ele@@
Finn@@
Files
linder
spam
Princ@@
Brau@@
brin@@
Comfort
personen
Assozi@@
Allein
eive
rings
end-@@
cular
draws
Brown
oasis
Tier
holt
Erfassung
Konzern
problemen
terten
Reinig@@
privater
Flächen
gewöhnlichen
möglicher
schaftlichen
Nordkorea
retained
in-house
rab@@
jar@@
Lee
1971
onna
asso
х@@
verdanken
roffene
vermieten
verträge
steine
Zertifizierung
steuerung
beunruhi@@
regelungen
flora
hygiene
metals
administ@@
rout@@
ard-@@
DE@@
π@@
Räumlichkeiten
jemanden
ungsum@@
Defizit
Schlußfolgerungen
renewal
leag@@
economical
south-@@
corrid@@
kid@@
eed@@
pret@@
Additional
tranquil
atin
amos
64@@
Toleranz
spät@@
themen
versorgen
recru@@
cooperative
abetes
fridge
eps
kab@@
eilen
Dialog@@
Ticket@@
Arbeiter@@
Pazi@@
biologische
gebrachten
Vermögen
beeindruckende
Katastrophen@@
einbeziehen
bürgerschaft
Visum@@
Hague
visions
econom@@
Script
Vorgang
Blä@@
Aufpreis
erzielte
Berech@@
fizierte
ungsmaßnahmen
Want
Hai@@
thur
Equipment
ande
Wissens
steigende
ancen
verbundene
klarstellen
enforce
senti@@
mming
Somalia
Fan
Jet
Ih@@
č
couldn
FTP
Un
speisen
italien@@
herbei@@
läufigen
künstlerischen
sichten
erhebt
exacerb@@
ulative
ideology
fitting
energe@@
ilit@@
passport
miner@@
Sites
Points
Portfolio
ied@@
nö@@
nähe
heimischen
anf@@
lief
schwarz
Trock@@
gefertigt
traf
Übereinkunft
compiled
confidentiality
Mercosur
ember@@
boot@@
erium
от@@
Gew@@
Gestalt
irgendwann
zulegen
Kriterium
multinational
opt
fairer
condem@@
Stab@@
cabin
lation
Heli@@
spunkt
β@@
wirst
wurf
unternehm@@
Bügel@@
ane@@
continuity
Stephen
Translation
Wh@@
Zak@@
Machine
eili@@
untergebracht
eigent@@
feasible
enters
trendy
rowing
tis@@
surf
Ox@@
Ds
Holl@@
Orchestra
fried
dringlich
gangene
Tiefe
verschlüssel@@
ueber
Stabilisierung
fulfilling
Century
diplomacy
automobile
ğ@@
Cafés
Parking
bigen
le-Distribution
comprehensible
dial@@
Aer@@
vos
zuführen
Erweiterungen
Schlacht
quoted
contro@@
thick
safeguards
encourages
Conci@@
temporarily
2.1
nes@@
MB@@
Lufthansa
UT
disziplin@@
Erhebung
Phasen
responded
humane
Propag@@
rent@@
existi@@
mord
wenngleich
abschließ@@
Instabilität
Finanzielle
Tschetschenien
donor
timing
Tok@@
oba
Versicherung
vign@@
optimized
Check-@@
irgendwie
getei@@
Gemeinschaftsrecht
anzuerkennen
evenings
Croatian
ATE
tration
Manuel
kultureller
einhalb
exzellente
Umstellung
höherer
shorter
households
Lyon
kni@@
Cris@@
13th
er-
platt@@
Anleitung
Verhaltens@@
burn
Absol@@
Cash@@
resear@@
som
Bak@@
aint
pla@@
dimensional
Guantánamo
Borg
Ball
Layout
Funktionsweise
Kongo
zuständige
Reichweite
Migranten
belastet
Haushalt@@
assessing
confidential
mos
experiment
Herzegovina
Wart@@
heitliche
mediterran@@
erwarte
sache
überwälti@@
Felsen
congress
celebr@@
Secretary-General
licity
LI@@
oro
Heidelberg
simulation
machung
versprechen
Eingabe
zugang
Industriepolitik
Mitgliedsländer
DC@@
10th
Amat@@
Marx
amendo
Verwand@@
SilverFast
Fuss@@
zusetzen
gieb@@
Drucker
Fischereiabkommen
erning
gathering
incidents
forestry
attacked
tiques
Christi@@
stadium
TRA@@
Instrument@@
Aufstieg
Ergän@@
riebene
aston@@
settlements
barbar@@
CV@@
Model
forder@@
Begrenzung
Fundament
bestehend
definite
resign@@
Lig@@
Vern@@
izer
St.@@
Sequ@@
Küh@@
Ausgab@@
Gonz@@
bay@@
Krem@@
ancement
animation
BSD
erhielten
stetig
pflicht
alkoh@@
Konfigurations@@
Steel
impressed
architect
Unit
antique
Säu@@
geld@@
Mannschaft
endste
Zusammenfassung
altungen
einrichten
zuhalten
drängt
Poettering
earthquake
locked
Fam@@
tout
limm@@
roler
Neur@@
asten
ungsphase
stützt
Begleitung
Bandbreite
Kohäsion
organising
valued
OM
Loch
protes@@
räf@@
Bike
problematisch
funktions@@
schlicht
nachfolgenden
ranks
concep@@
ato@@
Fortunately
aman@@
iles
bow@@
eso
Bologna
Param@@
Graphi@@
Luftverkehrs@@
nischer
flexiblen
Modellen
leiste
plot
Remo@@
batteries
Barbar@@
Boutiqu@@
holz
privileg@@
Folge@@
vollsten
Datens@@
Entscheidungsträger
bition
dropped
imbalances
municipality
marble
ю@@
од@@
Button
schweigen
übertragung
verknü@@
verlu@@
kritisieren
Objective
erup@@
convic@@
Import
Mini
IST@@
Dolomites
schlim@@
auseln
stärkt
ergänz@@
behindern
gewaltige
beruh@@
Mittagessen
debts
satelli@@
MI@@
Continental
Hygi@@
YouTube
exakt
Aparthotel
errasse
offizi@@
Gesprä@@
prozessen
etwa@@
erstre@@
Fotografie
Verbündeten
Finanzminister
mittelstän@@
itted
defines
propaganda
suppor@@
purchases
Evalu@@
GA@@
NA
Logistik
idyl@@
tritts
Beobachtungs@@
anticipated
understandable
recognises
pit
Modi@@
atus
Bres@@
Cancún
Erziehung
ehenden
ffern
Gewerk@@
übernahm
vorgesehene
Europe@@
sprung
magazines
German@@
bedded
LabVIEW
wälte
ettet
einigt
lasten
Dolomiten
wahrgenommen
erhöhte
Tabellen
ratify
dity
harder
Agri@@
Some@@
heimer
Nepal
Pho@@
brun@@
selt
mware
Verlag
Beibehaltung
CPU
Beschäf@@
ggf.
anerkannten
besuchte
pfei@@
cane
anese
toys
encountered
ump
Terror
tast@@
DEN@@
Wand
heruntergeladen
Texten
Griechenlands
widerspiegelt
attentive
preserving
barrier
attitudes
Economy
numer@@
frames
ime
exi@@
24-@@
Hybri@@
.NET
Steinberg
skal@@
füllung
schnitt@@
reihe
beauftragte
konkurri@@
cherte
Konsolidierung
employ
rey
grey
lou@@
viruses
ete@@
County
Labor
Stern
unzählige
erbringen
aufw@@
echnologie
japanische
annehm@@
Ausschüssen
conservative
captured
brea@@
dealer
emark@@
Auskunft
zwecken
Motoren
Erkenntnis
verantwortung
aufhalten
mietung
Estland
coup
grass@@
varying
oming
macroeconomic
echno@@
ranking
esis
hosted
Us
Ses@@
Offic@@
ThyssenKrupp
Wikitravel-Benutzer
Rohstoffe
erstklassige
Kompetenz@@
gehalt
versuchte
broadly
aked
pir@@
prov@@
onian
transform
urer
Shops
α
übergreifende
aufgeführten
recur@@
floods
enemies
righ@@
merchan@@
én
Workshop
κ@@
Chianti
unkomp@@
Reparatur
unkten
erlaub@@
Hauptziel
Montreal
husband
WE
kking
ITY
Machen
Reisenden
befreit
Darlehen
Unterbre@@
Klaren
Castro
transi@@
urban@@
wood@@
midst
measurements
Info
Electron@@
YORK
Maus
esenen
Haupts@@
Passag@@
trug
amoun@@
qualification
Fle@@
oa
nica
Arn@@
Hart@@
45@@
ли@@
eriums
lowak@@
vereinbar
Arbeitszeit
geeinigt
bilität
eval
experiments
closest
Police
wins
Eurob@@
Wolf
endums
Clau@@
Engine@@
Welle
Mön@@
asien
ektur
aufkommen
gründete
observ@@
stres@@
activists
Organ
Para@@
Mercure
wohnt
verläuft
Plattformen
Bestände
Wollen
israelische
Rechtsrahmen
grafische
transnational
Iz@@
documented
linen
10.00
Kil@@
Pisa
Frau@@
fu
verkörper@@
eingetra@@
Verschlechterung
maßgeblich
geheim@@
unkte
demselben
Hinzu
Militär
PVC
2050
ASEAN
ert@@
Lock@@
partment
kostenfreien
zeug@@
gängi@@
Gemeinschaft@@
Konvergenz
indic@@
crimin@@
rever@@
Domini@@
organisms
atics
imagination
senses
CD-ROM
Mix
Malware
Seel@@
Kamin
Herstell@@
Wohl
gter
rückt
partnern
potenzial
Prüfungen
debatte
potenziellen
privileges
Far
warrant
hardt
refreshing
rocks
U.@@
Writ@@
sky@@
Leiden
coating
arz@@
fisch@@
Besucher@@
entsprechender
korrigiert
westlich
Sekret@@
christlichen
inspections
extremis@@
diagnosis
ich@@
Proven@@
Salon
Anim@@
schmer@@
wünsch@@
Hypoth@@
Vollständigkeit
Korrektur
Erwachsenen
Ministerpräsidenten
verlängern
verursachten
Anleger
Sozialpartner
Medium
Astrium
Hochschule
gig
Spock
gängig
versorgt
zierung
Zusagen
random
journalist
launching
toxic
warran@@
cons
amas
atar
Alli@@
Schnee
bestätigung
definitiv
Harmonie
gelass@@
vorzugehen
gemeint
Gebäudes
Ersten
aufrechtzuerhalten
Democ@@
formity
semin@@
Obst@@
accessibility
Cardiff
mischer
blich
Öff@@
glichkeiten
Lösungs@@
Übersch@@
ttaus@@
spläne
genetisch
linear
promin@@
damp@@
slow@@
cel
ared
voltage
dei@@
Neut@@
Touristen@@
Verpackungs@@
gelegentlich
Berechn@@
weakness
rewar@@
pressures
logan
itement
solarium
älteste
discipl@@
initiate
stituted
portable
dak
tot
Cleaning
agement-@@
ICA
NH
Komplex
begeben
Wärme@@
Spannung
Franzosen
Gremien
Associ@@
Ali
Leon@@
Upper
pository
retention
Base
Impul@@
Nordirland
teilten
Wärme
mächtigen
vernicht@@
lexi@@
parent
Á@@
Catalunya
amps
See@@
Blog@@
sfer
erzählen
Behandlungs@@
folgedessen
affor@@
mou@@
aison
aults
ecture
.-
Alz@@
Mix@@
Me
Oran@@
verwandelt
anre@@
zügig
akzep@@
entnehmen
widerspiegeln
Müt@@
dossier
vei@@
Pyren@@
labor@@
amid
Radio@@
adar
mé@@
demnächst
situationen
anschauen
juristischen
bedaure
Presi@@
rough
trace
Mozart
Has@@
Core
Gothic
IRC
Erwäh@@
Südtirol
aufnahmen
aufgeben
plung
widmet
Auß@@
euern
Periode
Subsidiaritätsprinzip
rel
commodity
Property
statutory
awa
enna
Regist@@
1930
CMS
Wagen
Gesi@@
mutz@@
sätzlich
Einsparungen
Konferenz-
Quite
adop@@
edt
fastest
Diversi@@
competitions
Mili@@
v.@@
pä@@
toff@@
sprit@@
reiches
stabil
Ursprün@@
Franç@@
haz@@
conditioned
anding
Doctor
disc
Slovak
Appell
Spiegel
Lab
Amerikan@@
verbrauch
Überwindung
ient
posting
vision@@
stretch
ström
reserv@@
vegetation
tops
afrika
nitt@@
Upgrade
charman@@
anken
Tank@@
Keram@@
medien
Fahrrad
transparente
stellvertre@@
Birma
Messen
beugen
inappropriate
bold
14th
CR
stren@@
Vati@@
Gy@@
enzo
manually
Quick@@
22.@@
Monitor
esthouse
Seminare
disku@@
stelli@@
verwendete
schten
bilaterale
Pakt
withdrawn
Competition
Cambo@@
recreation
particip@@
Emer@@
present@@
lov
lub
loten
arbeitenden
eingenommen
aktion@@
Werkzeug@@
entfernten
Sicherstellung
Thessaloniki
successes
there@@
G8
pension@@
Moz@@
eggs
continu@@
alogues
agua
backup
arr@@
Demon@@
Sandstrand
Durchführungs@@
Tauchen
Preises
Jahrestag
einheimischen
Aussehen
Handhabung
Tragen
oberste
stellbar
topical
Hän@@
hoping
Ala@@
collecting
shut
template
tim
arch
Kali@@
spiegel
Luc@@
dh@@
lli@@
Dür@@
Ensem@@
Wiederein@@
Kontinents
Warnung
Ermitt@@
vorherseh@@
veness
pursuit
onym
Jor@@
Down@@
Harv@@
Scre@@
spr@@
Psy@@
sprachige
scha
unterschiedlichsten
verteidigt
überdenken
educated
onym@@
convey
Timor
besi@@
aser
ussy
Map
deutsch
Sauber@@
gescho@@
Ergeb@@
fear@@
bres
rid@@
gee
ui
anik
Inc.
1.000
Lande
Inneren
ästhe@@
untersagt
stischen
Arbeitsplat@@
steil@@
Gesetzgebungs@@
weiterentwickelt
Flusses
beheben
pec@@
gress
Nazi
throp@@
Exempl@@
essel
Below
Geschäftsreisende
plä@@
acies
weaknesses
disappeared
attending
rob@@
Cape
-P@@
chio
QuarkXPress
Laundry
Wunder@@
wöch@@
Bibliotheken
agte
Spekul@@
Terrorismus@@
Bemühen
foodstuffs
slight
dirty
transl@@
Scottish
tivities
hit@@
unken
Revolu@@
Glan@@
ammer@@
Bier@@
Wid@@
scan
Symb@@
Kä@@
beauftragt
katho@@
Mineral@@
schwächen
strukturellen
Verpack@@
beloh@@
territorialen
definierten
eliminating
relevance
aying
quiry
injury
hafen
liner
Cost@@
installer
Dame
ν@@
erbe
Allgemein@@
beginn
galt
hervorzuheben
Viren
vernünf@@
beschleunigt
stresses
affair
genocide
steep
café
Mare
BA@@
anta@@
Verkehrsmitteln
Dokum@@
Multimedi@@
Kompromiß
Korrektur@@
Stoffen
Biokraft@@
precautionary
anymore
dish
recti@@
otyp@@
A1
Angestellten
günstiger
Angehörigen
Unser@@
repräsent@@
chtest
minded
thrown
networking
Natura
desert
Appar@@
liquidity
Wilhelm
Temple
Arc@@
bookings
ultur
Kollek@@
hochrangi@@
muslim@@
öcke
beunruhigt
kehrungen
Expl@@
happ@@
positioned
tub
Pis@@
Garage
.jpg
akter@@
lieferung
restrik@@
Schwächen
Gewähr
beihilfen
Viertens
Kommissars
Delegationen
ränken
101
rhetoric
forever
opia
motivation
cep@@
eiro
-and-@@
Fire
pedition
Clean
Male
¿
Sisko
Nächte
schte
einfaches
ा
Konservativen
getroffenen
concessions
passage
qual@@
seed
gentle
K.
ony@@
Torre
YOU
extremen
freu@@
hinnehmen
sames
Filmen
density
nutrition
deliberately
Euro-Mediterranean
prostitution
vegetable
cocktail
Egyptian
ALDE
Spiegel@@
Halt@@
auswahl
zufriedenheit
ausgegangen
Strafe
Asyl
bedeutender
gewaltigen
Questions
indul@@
Likewise
thirty
bai@@
Angola
broadband
sortium
ASP
zio
Profile
Oster@@
Chef@@
Nachtleben
anscheinend
Daneben
durchschnitt@@
blauen
Kontra@@
represent@@
Articles
Niel@@
pretext
tiveness
esting
establishments
retail@@
Republi@@
sensors
zard
travel@@
Gardens
aufrecht
Garanti@@
euren
bestimm@@
verläss@@
Standor@@
Ents@@
Algerien
Chemikalien
passion@@
overseas
coordinating
detected
dose
1,000
ateur
Fundament@@
enko
EI@@
Palais
Dorf@@
Filter@@
Kriege
entziehen
vereinen
Aufstellung
belebung
peripheral
outermost
instances
shame
municipal
iring
stream@@
crash
N-@@
Beschränkung
bust@@
tiles
Misch@@
komfort@@
tü@@
Einerseits
Klassen
satis@@
OSCE
wearing
persuade
prises
archives
Day@@
Museums
SEO
Momente
Treib@@
berechtigte
versichert
geschah
persecution
family-run
screening
screens
utz
organizing
`s
glän@@
Meilen
belast@@
osteuropäischen
Gewässern
conscience
Turin
w-@@
Zar@@
Stay
Einleitung
nächstes
formulieren
Gemäl@@
zucht
gewähr@@
Mitbürger
105
positively
asser
Multi-@@
Chirac
yacht
Schuld@@
03.@@
stuhl
katastro@@
Ansehen
alige
aufgegriffen
Fax-
uneingeschränkte
Gesichtspunkt
Ast@@
Five
state-@@
DF
lifelong
auction
rice
ft-@@
consec@@
Verhaltenskodex
Schluss@@
Lieferungen
Rechtsprechung
protectionism
gging
Cypri@@
thful
mysteri@@
geable
celebration
lun@@
jack
oth
Course
Vö@@
Genau@@
mitzuteilen
polizei@@
Netto@@
Schulungen
Pfeiler
Veranstaltungsräume
formul@@
Partic@@
lac@@
Consult@@
bron@@
vin
ITE
Wellnessbereich
betreffende
Gegen
herkömmlichen
birgt
schaftliche
agenturen
Freilassung
Damals
accomplished
Davi@@
wet
Kurdish
halls
laundry
Einfach
Durchschnitt@@
Dauer@@
annter
gekrön@@
verarbeiten
springs
thick@@
Ment@@
Agent
Donn@@
schlu@@
म@@
entscheidungen
anschließ@@
höher@@
litten
Löhne
emergence
deployed
Chan@@
accompany
restric@@
just@@
stainless
nett
Kuns@@
gangen
stechnologie
schär@@
Erwachsen@@
erzeugnisse
speculation
sat
Resp@@
Carl
Österrei@@
Check@@
Volkswirtschaft
Schwanger@@
Unregelmäßigkeiten
wissenschaftlicher
Interventionen
gewichte
appelliere
Streben
Verwenden
vivi@@
eler@@
democratically
void
grain
Rober@@
mounting
zza
biblioth@@
Eis
tsprü@@
stellern
unzureich@@
gründet
cure
socialist
Metal
ą@@
cion@@
TM
Werde
haltest@@
belastung
Gemeinschaftsebene
unternimmt
Hop@@
poorer
dic
inion
andal
Radisson
Toskana
ка@@
Blumen
kenne
tseite
entdeckte
abgedeckt
Incre@@
reminded
shortage
Adel@@
influences
intensity
Are@@
agn@@
tima
mais
Check-In
Bisch@@
halle
Ausserdem
Flugzeug@@
sendung
bestrebt
Ausgleich@@
wünschte
contradiction
hne
enny
Scientific
incredibly
experimental
varieties
eventu@@
Ign@@
Neigh@@
jour
Romul@@
grö@@
keln
zweites
Aufteilung
elektrischen
zusammenhän@@
Auszeichnung
teilnehmenden
gänzlich
repräsentiert
correspond
GMOs
eholder
Hou@@
achen
Alexand@@
Lic@@
Near
Virtu@@
1956
zoom
NATO-@@
gemeldet
ehrgeizige
Leser
Gesetzgeber
geehrter
bürgerliche
irregularities
COD
turnover
uz@@
KM@@
dachten
angekommen
bester
reinen
Ausbruch
Plätzen
isierte
grundsätz@@
ordnungen
veranlassen
barely
reveals
acity
imag@@
List@@
asty
tissue
muster
put@@
bauer
Connec@@
enberg
real-time
emma
rede
Befürchtungen
einschlägigen
shaushalt
acres
objections
possession
picked
moul@@
Iran@@
hion
span@@
Sponsor@@
Estate
verbesserten
Bonus@@
Inhalts@@
Aufbau@@
gewahrt
mitting
replacing
facilitating
Happ@@
accoun@@
omed
color@@
macher
fred
Volk@@
Clin@@
spiritu@@
DB@@
gere
NCC-@@
Tempel
gie@@
geplante
Klausel
vertrieben
embargo
liberty
spective
sheep
economists
Di
tat@@
hine
risk@@
weiß@@
Mü@@
Entschul@@
ischer@@
zivi@@
beliebige
herauszufinden
überwachung
motto
thirds
multitude
flower
Motion
Canc@@
built-in
donation
Istri@@
amentos
Ethernet
USE
Freund@@
wiederherzustellen
chains
Rotterdam
dening
EEC
rises
upgraded
orph@@
Beau@@
figuration
zuvor@@
Vieh@@
verzeichnis
Diskussions@@
Freihandels@@
drag
infrin@@
Tw@@
attracted
cham@@
infection
BSE-@@
curr@@
acous@@
steigerung
Rhyth@@
komplex@@
nein
steil
Schauen
wirtschaft@@
Münzen
zweier
omin@@
bridges
privatis@@
billions
second-@@
Exist@@
directors
param@@
mill
firma
loyd
diameter
Dank@@
Boutique
igte
Schriften
Regier@@
Genfer
vorwiegend
vorüber@@
envis@@
call@@
Almost
manipulation
earnings
entin
11-@@
Esc@@
rays
Provence
Aluminium
äres
pler
umfangreiches
Anstatt
Übersetz@@
Wohlergehen
Gleiche
Trainings@@
Gründer
schwachen
Palästinen@@
utor
oos
descriptions
LL@@
photo@@
vene@@
bitt@@
aussieht
Variablen
Politikern
Reisende
spektrum
lagern
gekürzt
Exporte
mitig@@
outline
momentum
updating
fish@@
consultants
Alicante
speeds
matching
UP
Records
Chat@@
Flair
polnische
geschlossen@@
angebot@@
häufigsten
verlor@@
enttäu@@
unverändert
Botschaften
Gefühle
socio-economic
eliminated
Cadiz
crop
Care
alleged
func@@
Legisl@@
Explo@@
gnet
Größen
gerei@@
obliegt
handelte
Erwärmung
Schriftliche
1957
basin
designing
PayPal
Conil
Risi@@
veränderten
aufgeteilt
lebens
geprä@@
Spaniens
Heraus@@
Wechselkur@@
unilater@@
Dalai
preparatory
ounce
ularly
successor
aph@@
Commer@@
Electronic
Mr@@
grande
personalized
großzügig
kub@@
Autovermietung
befes@@
nder
inequalities
Seven
voic@@
pin@@
Eri@@
Tibet@@
masters
German-@@
isons
acid
C.@@
voor
Bilder@@
dec
Profil@@
uft
inkl
ausch
denzen
zeugt
halts@@
Bestandteile
schwar@@
Symbole
hofft
shipment
hospitals
exemption
dish@@
grass
fossil
cultivation
fortress
ologist
reward
nesses
izza
rics
untersu@@
install@@
denz
gelt
Genehm@@
behilflich
historischer
einwand@@
überschritten
unum@@
Herzegowina
variations
hall@@
disadvantaged
resist
Maybe
erry
³
kommend
ühlen
äne
Verhältnis@@
fasste
zyklus
sphase
Verstöße
faktoren
Persönlichkeit
Anpass@@
wachstum
gy
sev@@
Wallström
axis
factories
zona
kne@@
Ecu@@
Bayern
php@@
echtes
Varianten
ihrerseits
zeitigen
Unfall
gedenkt
Aufstockung
rs
strongest
shoulder
sanit@@
moment@@
spati@@
umes
Veri@@
injection
Gün@@
Sciences
anke
kW
Magazin
Masch@@
schil@@
virtuelle
unüber@@
terte
Camping@@
Teilnehmer@@
folgend
Applikation
sensiblen
Anbau
Wiederaufnahme
vising
Afghan
ic-@@
kaner
Meeres
Badewanne
tilien
halbe
verlaufen
gewöh@@
Besatzung
unterrichtet
ähnlicher
multination@@
teeth
Official
box@@
11.00
chy
Arabia
progno@@
Seminar
analog
privat
trak@@
Berichterstattung
rechnet
Nahrung
Stärken
älen
Evaluierung
einräumen
obgleich
rigor@@
treating
1900
001
1965
Blü@@
Made
Symph@@
lägen
gängigen
erledigen
ebung
verweigert
Protektionismus
abzustimmen
point@@
Russians
yen
ernal
strip
ILO
predictable
thou
forti@@
Simon
Bec@@
Coff@@
Anmel@@
einzeln
ganzes
prüft
Belastungen
Lettland
unterstützten
folgendes
besorgniserre@@
Einwander@@
altogether
115
laim@@
bring@@
AVI
rote
grü@@
verfü@@
Dün@@
IER
igkeiten
hinausgehen
Lebensbedingungen
instruction
codi@@
emerg@@
oul
recipient
Claude
geist
Markus
hill@@
Color
XL@@
Streit
Erdgeschoss
raffin@@
sitzt
richtete
disadvantage
commissioned
deterior@@
Ethi@@
scrat@@
ger-@@
Around
dul
proofed
edes@@
titel
Sied@@
Stoff@@
Beantwortung
Sün@@
organisator@@
Verzeich@@
Erzeugnissen
varies
guiding
undering
Certainly
eless@@
Long@@
rain@@
onale
deliveries
signatures
differ@@
surance
Stress
1.0
Nas@@
integ@@
Ble@@
Paar
vergabe
räsidenten
commend
Cany@@
asymm@@
Flora
ção
siv
Villen
gekl@@
zwecke
Pflan@@
studierte
Vergabe
wesent@@
rüstung
befürchten
threaten
generates
iter
Republic@@
politan
Zoo
Anf@@
Kupf@@
leck@@
Logistik@@
orientieren
vermei@@
Experten@@
Fische
broke
attach@@
tackled
energy-@@
tired
INI
unab@@
mobil@@
sciences
vere
Palm
üpp@@
längeren
ethnische
Gebäu@@
europaweit
räumt
verfasst
accountable
Arafat
outh
Christop@@
Cambridge
Reich@@
São
entino
Tunes
ambots
verfassungs@@
wie@@
ückt
direkt@@
Verfas@@
schrecklichen
vulnerability
offensive
Tay@@
news@@
Venti@@
willen
Größen@@
ägyp@@
gaps
velop@@
pragmatic
fically
ampli@@
ă@@
ehr
catalog
effizi@@
Rettungs@@
Fahren
unglück@@
zwingend
Erleichterung
Kolumbien
Kohle
renovation
elimination
distances
Liikanen
glo@@
bend
corresponds
enchanting
cho
Feedback
Patch
Kirchen@@
EM-@@
befin@@
Weihnachten
Oase
begannen
Teils
daraufhin
ticism
Iber@@
atro@@
attack@@
erospace
Span@@
index@@
bein@@
Kub@@
ätten
sahen
zurufen
sofor@@
beeindruckenden
Wäldern
redund@@
phases
refund
eco-@@
Farm
cand@@
vio
transform@@
anol
bezir@@
Jas@@
thotel
Partition
versicherungs@@
Atlantik
gleicht
befindlichen
ruppen
Befreiung
Erlaubnis
Schienen@@
funden
einfluss@@
fachen
zusätzlicher
operieren
yards
rea
Corbett
architects
hous@@
Toul@@
Nikol@@
Mang@@
LK@@
Brüder
Beteili@@
Serviceleistungen
Auseinandersetzungen
hielten
gerweise
Has
lifetime
GAT@@
displaced
Frankfurter
Polo
TP
lebte
unvergleich@@
Dienstleistungsrichtlinie
ausschließ@@
exercises
Mut@@
ew@@
Reding
symp@@
cury
confronted
edness
finan@@
monastery
tent@@
1200
phar@@
bräu@@
Patente
Zertifik@@
Gescheh@@
persönliches
Füßen
überarbeitet
wäch@@
gefährlicher
derartiger
1948
near@@
Dell
Swe@@
esch
Sey@@
fireplace
fabrics
ASS@@
fortgeschritt@@
ени@@
DER@@
restlichen
CNS
delightful
Anth@@
Klo@@
ritte
EOS
Schauspieler
Zufall
Züge
Richtungen
verordnung
richtlinien
schäd@@
exportieren
Lyn@@
efront
negligence
inspec@@
Gom@@
olls
promptly
incurred
Tis@@
temple
privati@@
GL@@
Geo@@
ň@@
Ferrari
präsent
Süß@@
Logos
schloss
läufig
Rücksicht
erklärung
ehrgeizigen
symptoms
infin@@
hosp@@
xe
schlafen
herrschenden
unterstützte
entierte
risiko
Währungsfonds
konkreter
ermutigt
Kürzungen
loud
grace
Total
storm
onment
Ambass@@
bulk
inspir@@
Infineon
Instanz
zögern
Gerü@@
nischen
schöpf@@
ktur@@
einzigartiges
nachkommen
abhängt
shores
Liberals
Rac@@
accus@@
protein
Try
lings
Italia
grades
Miner@@
ART@@
Mär@@
gesteuert
skraft
Verurteilung
inau@@
rehabilitation
college
tages
light@@
livestock
Vinc@@
PE@@
ima
es.@@
honor
informations
konvention
Sogar
alisierungen
Abfahrt
Konsequenz
berechnen
gul@@
opath@@
simpler
uit@@
Rosa
tick@@
Erdo@@
laptop
-Sterne-@@
Meerblick
östlich
щ@@
bettzimmer
bevorzugen
Forschungs-
Demokratischen
aktuell@@
Eigentums
fürchte
empfehle
vorgaben
emotions
fortun@@
mothers
screen@@
Traff@@
forbidden
Defini@@
Ring@@
elektro@@
Auslieferung
Durchbruch
angehört
unberühr@@
Stabilitätspakt
dened
gram@@
alarm@@
impul@@
bacter@@
Posten
Saudi@@
malen
ls@@
heiligen
GVO
Akteuren
fasst
komplizierten
transeuropäischen
compensate
juris@@
idi@@
cryst@@
coin
cave
pump
Málaga
geschäfte
gl.
Schulung
bürger@@
freiwillige
jeglichen
Mitentscheidung
haltens
AKP-Staaten
pity
MEP
103
Impro@@
autonom@@
Let@@
recreational
Jen@@
juice
Imperial
baden
POR@@
Messe@@
Schwi@@
Gestern
Körpers
Gastronomie
läßlich
fehlenden
anspruchsvollen
Behauptung
Pestizi@@
Bestreben
allevi@@
sooner
king@@
E-mail
Aven@@
Zir@@
Walking
Print@@
Innenhof
ärten
zün@@
möge
reichsten
Zusammenhalts
decides
repercussions
spot@@
YO@@
rupt@@
mg
NA@@
drawings
Kass@@
ae@@
HER@@
HT
leger
ф@@
anmerken
marken
nördlich
Milliarde
Dienstleister
leisch@@
beanspru@@
Klärung
unterricht
Privatisierung
collap@@
aspirations
bear@@
VII
Dub@@
1966
wall@@
deinem
-Seiten
ktions@@
ziehungs@@
herum@@
gestei@@
nachteili@@
erledigt
seinerzeit
utable
competing
prevail
pon@@
unas
Finger@@
frozen
Ve@@
Schal@@
Photocopying
Wertpapier@@
Inspir@@
Student@@
verlin@@
umgewandelt
Entsor@@
allgemein@@
Bearbeitungs@@
Ausgewogenheit
erous
complied
vocal
Liechtenstein
itiner@@
Graz
Linz
Edit
Screen@@
Öffnen
ordentlich
ließ@@
Skul@@
reflek@@
Ausdehnung
unterzeichnen
Sozialdemokratischen
regulating
gher
endt
mund
Residenz
ief@@
offenkundig
ernsten
ernähr@@
parliament@@
bond
Jarzembowski
umfassender
historisch
Kino
setzungen
haush@@
Mitglied@@
EWG
währung
sozio@@
Fotokopiereinrichtungen
Yesterday
stop@@
accurately
esty
home@@
interoper@@
otro@@
aesthetic
Hot
gourmet
Strö@@
vertiefen
diesjährigen
Konsum
Erläu@@
positiver
Friedensprozess
verification
priori@@
notify
dying
third-country
arious
Bah@@
Klei@@
dine
ungen@@
Län@@
lush
Fahrzeu@@
jenseits
ankommt
meisterschaft
enshrined
secur@@
Schmi@@
Uganda
promotional
versatile
Flex@@
bene
Dolom@@
ELL@@
ielt
mittelalter@@
soviel
Verband
ohl@@
Geträn@@
Betrieben
ähi@@
Abstimm@@
Informationsschalter
seasonal
dear
occurring
wholly
tariffs
plug
Salvador
Eden
scanner
sprechende
begrüß@@
voraussichtlich
äume
juristische
schlug
stenten
wählt
herbeizuführen
substitute
occasionally
ill-@@
chaos
5.00
assumption
Agen@@
Vali@@
intern
Zuschauer
einander@@
dritt@@
afft
ränkungen
gesetzgebung
augen@@
auszubauen
luxuriösen
specification
Serbian
casts
Starting
coa
photographer
48@@
Expo
biking
Kohäsionsfonds
Weitergabe
Riesen@@
Standorte
staates
ambiguous
demonstr@@
demic
Stal@@
Marin@@
Leop@@
drama
zzle
twi@@
mic@@
therapeutic
shapes
eite
Train@@
schot@@
türk@@
ausstellung
Fotografen
lieferungen
blieben
Vorsorge@@
Laufzeit
ashed
professor
conceived
Emm@@
Kenne@@
ie-@@
jury
gage
jan@@
ao@@
rün@@
erholsamen
Telekommunikation
lindustrie
Nachweis
Wunsch@@
verhaftet
voranzubringen
critics
Ec@@
liance
motiv@@
han@@
conversation
orthodo@@
Krebs
Snacks
Ansonsten
angem@@
zusammengefasst
Akt
langjährigen
Themas
credited
Director@@
four@@
geared
volta@@
Sm@@
1962
land-@@
Schir@@
Ax@@
ascript
Acrobat
schritt
Fußgänger@@
schätze
Lärm
kapital
allgemeiner
genten
ural
fruit@@
glas@@
PR
arc@@
charging
Platform
emer@@
Orange
IO
Silver
Frühling
Ideologie
gebern
Beschluss@@
absoluten
osen
ehemal@@
großartigen
Unrecht
wichts
kontinuierliche
einnahmen
ject
IMO
intermedi@@
ancing
etal
Fou@@
Zagreb
Hack@@
Liga
Simul@@
massiv
erstattet
chtsdest@@
kontinuier@@
Mitgliedstaates
financially
certain@@
sister
licences
idable
Myanmar
Ple@@
seating
CAD@@
Erholungs@@
Krankenhaus
ankommen
Fachleute
Rücktritt
ं
appropriately
manoeu@@
dable
Codes
presum@@
biotechnology
chill
royal
encryption
discounts
Purch@@
cafes
Audio-@@
Zoll
Vormittag
endere
Tisch@@
Lagerung
Unfälle
agnen
Streitigkeiten
Fine
wich@@
tücher
stationen
Öffent@@
gesetze
Verknüpfung
sme@@
Iceland
realities
fem@@
Australian
attle
Buyer
dik@@
cozy
siedlung
Universitäts@@
Kombin@@
Käl@@
aufgegeben
Kuli@@
lässigkeit
angezogen
part-@@
excluding
tails
alarming
ied
seem@@
manipul@@
futur@@
Naples
connects
liberalization
toll@@
ssel@@
Share
Spam
MAN
räte
enti
Jeden
ischerweise
Strafre@@
Dimensionen
überschreiten
dehnen
Errungenschaften
Haushaltsausschusses
Meinungsfreiheit
sixth
privilege
bekistan
Commons
240
ld
alien@@
barri@@
Carmen
balls
1939
trop@@
Baby
Koalition
acion
Arten@@
öffn@@
schiffe
Fitnesscenter
jahres
operativen
konzentri@@
hundert@@
Kommunismus
Holoc@@
finger
ieve
pause
Arctic
print@@
oden
Konzeption
containers
indu@@
process@@
Cotonou
soft@@
scann@@
lik
Sounds
istics
08.@@
elligkeit
й@@
prei@@
höchstem
Zell@@
gepflegt
Glückwunsch
Stück@@
Aktualität
effekt
vorant@@
Gesundheitsversorgung
Auswirkung
Folgenab@@
issuing
resident
essimis@@
ghty
investi@@
ologists
Peru@@
SR@@
tras@@
Intel@@
Distribut@@
fel
Brot
Game@@
не@@
ermögli@@
likationen
Anfänger
Zeichen@@
einziger
Telefonnummer
kontra@@
ausdrück@@
solle
Haftbefeh@@
conception
9.00
amaz@@
bow
Carlo
Prec@@
Rhine
Trading
Seville
Pilot
öne
Leder@@
Tarif@@
aket
Echt@@
Branchen@@
güter
Bedauern
exklusi@@
Haushaltskontrolle
Reservierungen
exceeded
arches
buffer
bean@@
igt
droh@@
konver@@
Ausflug
Einigkeit
ligkeit
Abent@@
unbesch@@
beurteilt
Jesolo
schwarze
Messung
Kampagnen
initiativen
reichend
geschaff@@
[...]
